{"<s>":0,"<pad>":1,"</s>":2,"<unk>":3,"<mask>":4,"!":5,"\"":6,"#":7,"$":8,"%":9,"&":10,"'":11,"(":12,")":13,"*":14,"+":15,",":16,"-":17,".":18,"/":19,"0":20,"1":21,"2":22,"3":23,"4":24,"5":25,"6":26,"7":27,"8":28,"9":29,":":30,";":31,"<":32,"=":33,">":34,"?":35,"@":36,"A":37,"B":38,"C":39,"D":40,"E":41,"F":42,"G":43,"H":44,"I":45,"J":46,"K":47,"L":48,"M":49,"N":50,"O":51,"P":52,"Q":53,"R":54,"S":55,"T":56,"U":57,"V":58,"W":59,"X":60,"Y":61,"Z":62,"[":63,"\\":64,"]":65,"^":66,"_":67,"`":68,"a":69,"b":70,"c":71,"d":72,"e":73,"f":74,"g":75,"h":76,"i":77,"j":78,"k":79,"l":80,"m":81,"n":82,"o":83,"p":84,"q":85,"r":86,"s":87,"t":88,"u":89,"v":90,"w":91,"x":92,"y":93,"z":94,"{":95,"|":96,"}":97,"~":98,"¡":99,"¢":100,"£":101,"¤":102,"¥":103,"¦":104,"§":105,"¨":106,"©":107,"ª":108,"«":109,"¬":110,"®":111,"¯":112,"°":113,"±":114,"²":115,"³":116,"´":117,"µ":118,"¶":119,"·":120,"¸":121,"¹":122,"º":123,"»":124,"¼":125,"½":126,"¾":127,"¿":128,"À":129,"Á":130,"Â":131,"Ã":132,"Ä":133,"Å":134,"Æ":135,"Ç":136,"È":137,"É":138,"Ê":139,"Ë":140,"Ì":141,"Í":142,"Î":143,"Ï":144,"Ð":145,"Ñ":146,"Ò":147,"Ó":148,"Ô":149,"Õ":150,"Ö":151,"×":152,"Ø":153,"Ù":154,"Ú":155,"Û":156,"Ü":157,"Ý":158,"Þ":159,"ß":160,"à":161,"á":162,"â":163,"ã":164,"ä":165,"å":166,"æ":167,"ç":168,"è":169,"é":170,"ê":171,"ë":172,"ì":173,"í":174,"î":175,"ï":176,"ð":177,"ñ":178,"ò":179,"ó":180,"ô":181,"õ":182,"ö":183,"÷":184,"ø":185,"ù":186,"ú":187,"û":188,"ü":189,"ý":190,"þ":191,"ÿ":192,"Ā":193,"ā":194,"Ă":195,"ă":196,"Ą":197,"ą":198,"Ć":199,"ć":200,"Ĉ":201,"ĉ":202,"Ċ":203,"ċ":204,"Č":205,"č":206,"Ď":207,"ď":208,"Đ":209,"đ":210,"Ē":211,"ē":212,"Ĕ":213,"ĕ":214,"Ė":215,"ė":216,"Ę":217,"ę":218,"Ě":219,"ě":220,"Ĝ":221,"ĝ":222,"Ğ":223,"ğ":224,"Ġ":225,"ġ":226,"Ģ":227,"ģ":228,"Ĥ":229,"ĥ":230,"Ħ":231,"ħ":232,"Ĩ":233,"ĩ":234,"Ī":235,"ī":236,"Ĭ":237,"ĭ":238,"Į":239,"į":240,"İ":241,"ı":242,"Ĳ":243,"ĳ":244,"Ĵ":245,"ĵ":246,"Ķ":247,"ķ":248,"ĸ":249,"Ĺ":250,"ĺ":251,"Ļ":252,"ļ":253,"Ľ":254,"ľ":255,"Ŀ":256,"ŀ":257,"Ł":258,"ł":259,"Ń":260,"Ġt":261,"he":262,"Ġa":263,"in":264,"Ġthe":265,"er":266,"on":267,"Ġ,":268,"re":269,"Ġs":270,"ed":271,"Ġo":272,"Ġw":273,"nd":274,"at":275,"Ġ.":276,"it":277,"or":278,"Ġc":279,"en":280,"is":281,"es":282,"Ġf":283,"Ġof":284,"ar":285,"Ġb":286,"an":287,"Ġin":288,"al":289,"Ġp":290,"ing":291,"Ġand":292,"as":293,"Ġto":294,"ic":295,"ro":296,"Ġm":297,"Ġd":298,"Ġh":299,"ion":300,"Ġ=":301,"le":302,"ou":303,"ĠT":304,"Ġre":305,"ent":306,"il":307,"ĠA":308,"Ġth":309,"ĠĊ":310,"Ġ\"":311,"ĠS":312,"el":313,"ĠC":314,"st":315,"Ġl":316,"om":317,"Ġe":318,"Ġ1":319,"Ġ@":320,"ct":321,"Ġn":322,"un":323,"ad":324,"Ġwas":325,"ĠThe":326,"am":327,"ol":328,"ĠI":329,"Ġbe":330,"Ġon":331,"ur":332,"ly":333,"ĠM":334,"ĠB":335,"Ġg":336,"id":337,"Ġfor":338,"im":339,"Ġ'":340,"iv":341,"-@":342,"Ġ@-@":343,"ac":344,"Ġas":345,"ir":346,"ig":347,"ot":348,"ter":349,"ation":350,"ith":351,"ĠH":352,"ow":353,"her":354,"Ġst":355,"ut":356,"us":357,"Ġwith":358,"Ġthat":359,"ay":360,"ce":361,"et":362,"Ġ2":363,"ver":364,"Ġis":365,"ĠP":366,"ĠR":367,"ch":368,"ul":369,"ra":370,"ĠF":371,"Ġwh":372,"ĠW":373,"ĠG":374,"Ġal":375,"em":376,"ers":377,"th":378,"and":379,"Ġcon":380,"ĠN":381,"Ġby":382,"ĠL":383,"Ġan":384,"est":385,"Ġat":386,"os":387,"ĠD":388,"um":389,"Ġ)":390,"Ġ(":391,"rom":392,"ĠJ":393,"Ġit":394,"00":395,"Ġhe":396,"Ġ19":397,"ag":398,"ist":399,"unk":400,"av":401,"Ġde":402,"Ġ<":403,"od":404,"Ġpro":405,"ain":406,"Ġse":407,"pe":408,"ri":409,"ĠE":410,"ort":411,"Ġfrom":412,"Ġcom":413,"ill":414,"ies":415,"ĠO":416,"Ġhis":417,"Ġsu":418,"res":419,"if":420,"ere":421,"oc":422,"Ġv":423,"Ġwere":424,"ĠIn":425,"op":426,"ity":427,"ew":428,"ich":429,"igh":430,"ld":431,"Ġor":432,"ate":433,"ore":434,"all":435,"Ġex":436,"ak":437,"ant":438,"gh":439,"Ġsh":440,"Ġch":441,"ong":442,"Ġr":443,"ab":444,"art":445,"qu":446,"pt":447,"se":448,"ard":449,"ip":450,"ber":451,"ud":452,"ated":453,"Ġhad":454,"ess":455,"Ġpl":456,"ĠU":457,"ment":458,"ast":459,"rou":460,"Ġare":461,"Ġwhich":462,"rit":463,"ial":464,"red":465,"ive":466,"te":467,"ov":468,"ĠK":469,"pp":470,"ack":471,"ame":472,"ord":473,"ian":474,"ell":475,"ge":476,"ine":477,"our":478,"ary":479,"Ġu":480,"Ġle":481,"ish":482,"Ġar":483,"ical":484,"ight":485,"ther":486,"Ġk":487,"nt":488,"ru":489,"ear":490,"Ġnot":491,"ĠSt":492,"Ġher":493,"ia":494,"ĠCh":495,"ction":496,"Ġ;":497,"ost":498,"ave":499,"ure":500,"ous":501,"Ġ200":502,"cl":503,"Ġun":504,"og":505,"Ġy":506,"ap":507,"ide":508,"ue":509,"ran":510,"fter":511,"Ġ20":512,"so":513,"Ġtheir":514,"cc":515,"ust":516,"ub":517,"ĠV":518,"ff":519,"land":520,"ould":521,"ire":522,"Ġhas":523,"Ġalso":524,"Ġtw":525,"orm":526,"own":527,"age":528,"ie":529,"ition":530,"Ġint":531,"ign":532,"per":533,"ork":534,"ations":535,"Ġcl":536,"Ġab":537,"Ġ3":538,"Ġcont":539,"Ġwhe":540,"Ġ:":541,"ass":542,"pl":543,"Ġbut":544,"Ġits":545,"Ġbeen":546,"ult":547,"du":548,"ater":549,"Ġad":550,"Ġper":551,"ok":552,"Ġres":553,"ome":554,"ĠHe":555,"irst":556,"out":557,"ry":558,"ect":559,"ough":560,"Ġtwo":561,"ond":562,"Ġhave":563,"ory":564,"low":565,"Ġen":566,"Ġone":567,"Ġus":568,"Ġthis":569,"ime":570,"Ġcomp":571,"hed":572,"Ġ201":573,"ally":574,"ĠTh":575,"Ġbec":576,"Ġwho":577,"act":578,"port":579,"Ġrec":580,"Ġ4":581,"uring":582,"Ġdis":583,"Ġfirst":584,"ĠRe":585,"Ġ5":586,"Ġoff":587,"mer":588,"over":589,"ric":590,"Ġser":591,"ence":592,"ĠAl":593,",@":594,"Ġ@,@":595,"Ġother":596,"ree":597,"Ġdes":598,"ely":599,"Ġ18":600,"ite":601,"ib":602,"ĠY":603,"Ġte":604,"Ġpart":605,"ach":606,"ount":607,"clud":608,"iz":609,"Ġman":610,"Ġafter":611,"Ġplay":612,"Ġj":613,"Ġshe":614,"ile":615,"Ġro":616,".@":617,"Ġ@.@":618,"ĠIt":619,"ound":620,"Ġim":621,"are":622,"man":623,"oy":624,"Ġover":625,"ke":626,"ice":627,"Ġpre":628,"ces":629,"Ġag":630,"ance":631,"ced":632,"Ġthey":633,"ild":634,"Ġspe":635,"Ġcomm":636,"ĠUn":637,"nder":638,"Ġyear":639,"ited":640,"ark":641,"ress":642,"Ġup":643,"ood":644,"wn":645,"old":646,"Ġsc":647,"Ġinclud":648,"Ġout":649,"Ġinto":650,"ents":651,"ors":652,"ade":653,"one":654,"rough":655,"ious":656,"ates":657,"ied":658,"ons":659,"ubl":660,"ang":661,"Ġsp":662,"int":663,"ph":664,"les":665,"ĠSe":666,"ace":667,"round":668,"ased":669,"Ġwould":670,"able":671,"tern":672,"ose":673,"Ġne":674,"ward":675,"Ġrem":676,"Ġatt":677,"ft":678,"ase":679,"urn":680,"Ġwork":681,"we":682,"Ġmore":683,"ions":684,"Ġall":685,"Ġthem":686,"ail":687,"ind":688,"ered":689,"ock":690,"Ġtime":691,"ilm":692,"ake":693,"reat":694,"ings":695,"Ġrel":696,"ĠBrit":697,"gan":698,"ren":699,"ens":700,"Ġcons":701,"form":702,"ĠZ":703,"ron":704,"ve":705,"eat":706,"Ġ8":707,"Ġnew":708,"Ġev":709,"ular":710,"Ġhim":711,"ĠOn":712,"rib":713,"ix":714,"ĠAr":715,"vel":716,"use":717,"Ġ7":718,"att":719,"Ġunder":720,"fer":721,"hip":722,"Ġear":723,"Ġmost":724,"Ġship":725,"Ġbet":726,"ĠDe":727,"ational":728,"Ġsec":729,"Ġchar":730,"itt":731,"iss":732,"ved":733,"Ġbo":734,"amp":735,"Ġonly":736,"Ġcan":737,"Ġass":738,"Ġ6":739,"ict":740,"Ġme":741,"ily":742,"ollow":743,"ng":744,"ĠCom":745,"cted":746,"Ġkn":747,"Ġprodu":748,"ual":749,"Ġfilm":750,"orth":751,"Ġpe":752,"oth":753,"ins":754,"Ġcent":755,"Ġnum":756,"ob":757,"Ġspec":758,"Ġwe":759,"orn":760,"olog":761,"Ġ00":762,"Ġ199":763,"bum":764,"Ġwhen":765,"Ġthan":766,"ween":767,"Ġduring":768,"ss":769,"Ġinc":770,"Ġbu":771,"Ġabout":772,"aw":773,"Ġfl":774,"iew":775,"ath":776,"Ġpos":777,"Ġthrough":778,"Ġco":779,"Ġreg":780,"Ġend":781,"Ġact":782,"ities":783,"Ġsuch":784,"ove":785,"way":786,"ember":787,"Ġam":788,"Ġair":789,"Ġsub":790,"Ġinter":791,"Ġalbum":792,"Ġac":793,"Ġthree":794,"owe":795,"Ġra":796,"Ġret":797,"ĠMar":798,"Ġbetween":799,"ĠBritish":800,"ey":801,"ision":802,"ĠWhe":803,"Ġwrit":804,"other":805,"ters":806,"ck":807,"Ġlater":808,"Ġwhile":809,"ole":810,"Ġtr":811,"ans":812,"end":813,"Ġqu":814,"ĠNew":815,"Ġ000":816,"Ġsupp":817,"Ġapp":818,"Ġlar":819,"ublic":820,"orld":821,"ener":822,"Ġform":823,"Ġfollow":824,"ick":825,"outh":826,"Ġ9":827,"Ġver":828,"ert":829,"Ġcol":830,"ĠSh":831,"Ġwhere":832,"ral":833,"Ġpo":834,"ived":835,"ics":836,"ames":837,"ĠShe":838,"ating":839,"Ġdo":840,"ĠJo":841,"az":842,"Ġca":843,"Ġfour":844,"ason":845,"ince":846,"Ġsur":847,"Ġrele":848,"fore":849,"als":850,"Ġnumber":851,"Ġsong":852,"ĠLe":853,"Ġsome":854,"Ġso":855,"Ġagain":856,"ject":857,"Ġmade":858,"Ġsever":859,"overn":860,"Ġacc":861,"Ġind":862,"Ġbeing":863,"Ġrecord":864,"reland":865,"ĠIreland":866,"ific":867,"rans":868,"ĠThis":869,"ten":870,"ished":871,"aid":872,"Ġthere":873,"Ġpol":874,"Ġmain":875,"Ġap":876,"erman":877,"Ġsy":878,"usic":879,"erson":880,"ife":881,"ĠUnited":882,"ug":883,"ined":884,"ised":885,"Ġboth":886,"Ġinv":887,"ĠAt":888,"ern":889,"Ġpop":890,"Ġcharact":891,"Ġent":892,"Ġthen":893,"Ġcall":894,"owever":895,"ike":896,"hes":897,"ars":898,"Ġloc":899,"ĠAs":900,"Ġele":901,"ĠGerman":902,"meric":903,"Ġbl":904,"ĠAmeric":905,"ink":906,"Ġmon":907,"aj":908,"ĠWh":909,"Ġdire":910,"Ġbecame":911,"arn":912,"Ġyears":913,"ines":914,"inal":915,"though":916,"Ġtra":917,"Ġcity":918,"Ġpr":919,"Ġday":920,"ained":921,"led":922,"ĠBl":923,"Ġdef":924,"Ġused":925,"Ġhigh":926,"cept":927,"iel":928,"der":929,"Ġrep":930,"hn":931,"ired":932,"Ġbefore":933,"ower":934,"Ġ12":935,"Ġ194":936,"air":937,"ts":938,"ures":939,"Ġop":940,"Ġwell":941,"ury":942,"Ġdec":943,"Ġtrans":944,"view":945,"ism":946,"ĠAn":947,"ĠInd":948,"ale":949,"Ġmil":950,"ool":951,"Ġsing":952,"Ġ10":953,"Ġno":954,"Ġperform":955,"Ġsecond":956,"Ġmet":957,"Ġdif":958,"Ġpres":959,"row":960,"Ġmov":961,"oci":962,"ĠJohn":963,"Ġcre":964,"Ġfam":965,"Ġseries":966,"Ġappe":967,"Ġseveral":968,"ful":969,"Ġem":970,"Ġprote":971,"ople":972,"Ġmany":973,"ause":974,"ĠCon":975,"Ġlong":976,"ident":977,"Ġob":978,"elf":979,"ĠAfter":980,"ĠMay":981,"Ġinst":982,"emb":983,"Ġoffic":984,"Ġknown":985,"Ġfound":986,"rol":987,"Ġincluding":988,"Ġgovern":989,"Ġstud":990,"Ġ198":991,"ĠMan":992,"vent":993,"Ġorig":994,"ared":995,"Ġcrit":996,"ĠCl":997,"Ġoper":998,"velop":999,"Ġbegan":1000,"Ġdesc":1001,"ivers":1002,"Ġdisc":1003,"oot":1004,"Ġ/":1005,"Ġest":1006,"ank":1007,"ĠComm":1008,"son":1009,"ted":1010,"its":1011,"ĠIs":1012,"ise":1013,"Ġbro":1014,"aking":1015,"ments":1016,"Ġsm":1017,"Ġwar":1018,"ann":1019,"chool":1020,"raft":1021,"Ġarm":1022,"ae":1023,"ative":1024,"Ġcount":1025,"Ġbel":1026,"ute":1027,"Ġprov":1028,"Ġadd":1029,"Ġsign":1030,"Ġcould":1031,"ull":1032,"up":1033,"urch":1034,"roup":1035,"Ġimp":1036,"rop":1037,"ĠAd":1038,"Ġep":1039,"ural":1040,"ccess":1041,"Ġcontin":1042,"Ġthese":1043,"ram":1044,"Ġset":1045,"Ġhist":1046,"Ġexp":1047,"Ġcar":1048,"ane":1049,"ĠMe":1050,"ty":1051,"ued":1052,"Ġter":1053,"Ġreport":1054,"ided":1055,"Ġshow":1056,"ross":1057,"Ġany":1058,"ially":1059,"ony":1060,"Ġdam":1061,"oun":1062,"ists":1063,"ober":1064,"imes":1065,"Ġdep":1066,"Ġlead":1067,"Ġown":1068,"ier":1069,"ured":1070,"Ġmill":1071,"aged":1072,"Ġfeat":1073,"ement":1074,"ually":1075,"ional":1076,"Ġseason":1077,"Ġpeople":1078,"Ġsaid":1079,"Ġdist":1080,"ized":1081,"Ġcharacter":1082,"io":1083,"ĠCan":1084,"Ġeff":1085,"ĠAll":1086,"ep":1087,"und":1088,"Ġdid":1089,"Ġrece":1090,"une":1091,"Ġconst":1092,"Ġback":1093,"Ġgame":1094,"ĠWar":1095,"Ġcommand":1096,"erv":1097,"Ġinf":1098,"Ġdest":1099,"pect":1100,"ĠChr":1101,"ield":1102,"Ġopen":1103,"ton":1104,"ather":1105,"eler":1106,"Ġthough":1107,"Ġvar":1108,"Ġart":1109,"Ġ%":1110,"Ġfe":1111,"Ġmusic":1112,"Ġ17":1113,"amed":1114,"Ġdevelop":1115,"Ġagainst":1116,"Ã©":1117,"Ġ$":1118,"itary":1119,"alv":1120,"Ġmin":1121,"Ġnear":1122,"ives":1123,"Ġalong":1124,"Ġsuccess":1125,"Ġdescrib":1126,"hel":1127,"osed":1128,"Ġ191":1129,"ĠStates":1130,"Ġreturn":1131,"ek":1132,"Ġbecause":1133,"Ġgod":1134,"Ġarch":1135,"Ġ0":1136,"Ġcomple":1137,"ĠWheeler":1138,"Ġgovernment":1139,"ball":1140,"oman":1141,"Ġgr":1142,"Ġdesign":1143,"ible":1144,"Ġteam":1145,"get":1146,"isod":1147,"Ġbatt":1148,"Ġreleased":1149,"Ġcalled":1150,"ctor":1151,"ĠGe":1152,"Ġgun":1153,"Ġstru":1154,"ĠPro":1155,"oss":1156,"tend":1157,"rench":1158,"Ġepisod":1159,"ged":1160,"Ġsl":1161,"Ġmay":1162,"Ġlife":1163,"Ġ13":1164,"Ġann":1165,"Ġunt":1166,"Ġearly":1167,"Ġbook":1168,"ĠAmerican":1169,"au":1170,"roy":1171,"Ġline":1172,"ĠFe":1173,"Ġeng":1174,"Ġ11":1175,"Ġyou":1176,"Ġpartic":1177,"Ġsupport":1178,"Ġsame":1179,"ouse":1180,"ĠFrench":1181,"Ġant":1182,"eston":1183,"Ġchild":1184,"Ġconsid":1185,"Ġships":1186,"Ġcentury":1187,"eneral":1188,"ys":1189,"Ġaround":1190,"ĠJan":1191,"Ġclass":1192,"Ġadv":1193,"ajor":1194,"gy":1195,"gest":1196,"Ġsix":1197,"Ġfive":1198,"ility":1199,"Ġarea":1200,"ording":1201,"Ġfollowing":1202,"Ġsmall":1203,"Ġhum":1204,"Ġeach":1205,"used":1206,"ĠAnd":1207,"ĠBe":1208,"ĠJune":1209,"Ġ193":1210,"aim":1211,"uary":1212,"ash":1213,"Ġdiv":1214,"ĠII":1215,"Ġgroup":1216,"Ġresult":1217,"ĠWorld":1218,"Ġanother":1219,"Ġuntil":1220,"ped":1221,"ues":1222,"ange":1223,"Ġserv":1224,"aeolog":1225,"Ġph":1226,"Ġperson":1227,"Ġmar":1228,"ĠHowever":1229,"ution":1230,"ĠFor":1231,"ains":1232,"ission":1233,"pr":1234,"Ġcast":1235,"Ġland":1236,"Ġname":1237,"ĠGalv":1238,"Ġhel":1239,"ĠGalveston":1240,"ook":1241,"uch":1242,"ven":1243,"Ġty":1244,"Ġcare":1245,"Ġins":1246,"ĠTown":1247,"Ġ15":1248,"Ġ197":1249,"Ġfamily":1250,"Ġmillion":1251,"uro":1252,"Ġprom":1253,"Ġconc":1254,"my":1255,"Ġbuild":1256,"ences":1257,"ides":1258,"ulation":1259,"Ġext":1260,"ctions":1261,"wards":1262,"Ġpublic":1263,"ĠBro":1264,"Ġiss":1265,"Ġ2010":1266,"Ġattack":1267,"Ġsince":1268,"Ġmen":1269,"Ġrest":1270,"ĠSc":1271,"Ġgu":1272,"ĠPr":1273,"raph":1274,"ĠFran":1275,"ically":1276,"Ġuse":1277,"enn":1278,"ĠAust":1279,"omin":1280,"Ġstate":1281,"ody":1282,"riend":1283,"ĠChrist":1284,"ah":1285,"Ġbased":1286,"stem":1287,"uth":1288,"ĠNorth":1289,"ĠEng":1290,"ll":1291,"ital":1292,"Ġpass":1293,"Ġstr":1294,"Ġstory":1295,"Ġposition":1296,"Ġdown":1297,"Ġref":1298,"ilt":1299,"ste":1300,"ĠIr":1301,"ird":1302,"Ġexpl":1303,"Ġincre":1304,"ient":1305,"iam":1306,"ning":1307,"ately":1308,"Ġche":1309,"Ġgo":1310,"ĠCanad":1311,"cess":1312,"Ġocc":1313,"Ġbr":1314,"ĠEuro":1315,"ĠOr":1316,"Ġresp":1317,"ĠEurope":1318,"ble":1319,"mber":1320,"oll":1321,"avy":1322,"Ġmilitary":1323,"Ġalthough":1324,"ĠJord":1325,"Ġkm":1326,"Ġsingle":1327,"ĠJordan":1328,"ery":1329,"anc":1330,"Ġport":1331,"aced":1332,"empt":1333,"ĠUS":1334,"ians":1335,"Ġcontrol":1336,"ĠJanuary":1337,"ax":1338,"yn":1339,"ĠQ":1340,"Ġrun":1341,"Ġreceived":1342,"xt":1343,"ison":1344,"cember":1345,"ety":1346,"Ġhead":1347,"ages":1348,"Ġplayed":1349,"ĠDecember":1350,"Ġlarge":1351,"ctober":1352,"ively":1353,"ĠOctober":1354,"ĠIrish":1355,"sion":1356,"Ġschool":1357,"Ġfin":1358,"Ġmod":1359,"Ġ16":1360,"ĠThey":1361,"Ġwithin":1362,"ified":1363,"Ġprev":1364,"Ġdiffer":1365,"arl":1366,"Ġ192":1367,"Ġ195":1368,"Ġed":1369,"Ġif":1370,"ister":1371,"leet":1372,"Ġlike":1373,"ĠKing":1374,"Ġspecies":1375,"Ġpower":1376,"Ġtook":1377,"Ġdem":1378,"ĠTe":1379,"ĠAug":1380,"ĠDuring":1381,"ittle":1382,"Ġdestroy":1383,"Ġepisode":1384,"ĠAugust":1385,"els":1386,"Ġlist":1387,"ĠPol":1388,"uc":1389,"Ġmed":1390,"Ġrequ":1391,"Ġisland":1392,"ĠYork":1393,"any":1394,"Ġreview":1395,"elt":1396,"abl":1397,"Ġav":1398,"alk":1399,"iving":1400,"craft":1401,"Ġmajor":1402,"Ġever":1403,"ĠThere":1404,"Ġwill":1405,"Ġthose":1406,"Ġdescribed":1407,"ret":1408,"Ġinit":1409,"ley":1410,"Ġstart":1411,"ruction":1412,"med":1413,"ting":1414,"Ġcap":1415,"Ġhand":1416,"ĠMon":1417,"ĠNic":1418,"ored":1419,"Ġattempt":1420,"Ġsystem":1421,"emp":1422,"Ġconf":1423,"ĠSept":1424,"Ġsim":1425,"ĠNov":1426,"Ġworld":1427,"Ġbas":1428,"ĠPe":1429,"Ġprevious":1430,"ĠSeptember":1431,"Ġes":1432,"ĠCol":1433,"Ġorgan":1434,"iversity":1435,"Ġbelie":1436,"ium":1437,"Ġsent":1438,"Ġsouth":1439,"Ġcamp":1440,"Ġallow":1441,"Ġshort":1442,"send":1443,"ideo":1444,"Ġ30":1445,"Ġincluded":1446,"ĠTownsend":1447,"ait":1448,"aur":1449,"iod":1450,"aster":1451,"Ġlast":1452,"Ġnorth":1453,"Ġ25":1454,"ĠPl":1455,"ĠJu":1456,"Ġ196":1457,"aving":1458,"Ġprog":1459,"ried":1460,"read":1461,"ene":1462,"ĠJack":1463,"Ġorder":1464,"con":1465,"oint":1466,"urther":1467,"Ġstar":1468,"ays":1469,"ument":1470,"Ġcolle":1471,"Ġold":1472,"atter":1473,"Ġpubl":1474,"lev":1475,"ract":1476,"Ġleft":1477,"ĠWhite":1478,"Ġestabl":1479,"apt":1480,"Ġdue":1481,"ently":1482,"Ġnamed":1483,"ached":1484,"illa":1485,"ights":1486,"ĠBr":1487,"iver":1488,"Ġstand":1489,"ĠJames":1490,"lu":1491,"Ġsite":1492,"ature":1493,"arch":1494,"omet":1495,"ĠHer":1496,"ĠNicole":1497,"Ġstill":1498,"ants":1499,"ĠYou":1500,"ining":1501,"ĠRoman":1502,"Ġdeb":1503,"resent":1504,"aken":1505,"Ġhuman":1506,"stein":1507,"ms":1508,"Ġoften":1509,"Ġdra":1510,"Ġhal":1511,"Ġrepl":1512,"osp":1513,"Ġprof":1514,"ords":1515,"Ġ2007":1516,"Ġ2009":1517,"ograph":1518,"Ġappro":1519,"Ġcapt":1520,"ĠAustral":1521,"iqu":1522,"ness":1523,"Ġbre":1524,"Ġmemb":1525,"lear":1526,"omb":1527,"Ġ2008":1528,"Ġperiod":1529,"ĠZh":1530,"Ġeven":1531,"Ġpoint":1532,"ner":1533,"par":1534,"side":1535,"Ġturn":1536,"Ġfoot":1537,"Ġtop":1538,"Ġmark":1539,"Ġmuch":1540,"iment":1541,"Ġlocal":1542,"Ġoriginal":1543,"Ġconsidered":1544,"Ġtit":1545,"Ġfire":1546,"Ġmake":1547,"Ġnow":1548,"Ġrole":1549,"Ġmoved":1550,"rew":1551,"ival":1552,"ivil":1553,"Ġstorm":1554,"ets":1555,"Ġvis":1556,"ront":1557,"Ġposs":1558,"Ġarchaeolog":1559,"ĠNovember":1560,"ots":1561,"Ġimport":1562,"Ġweek":1563,"Ġparticular":1564,"Ġwater":1565,"Ġwhat":1566,"akes":1567,"oyal":1568,"ger":1569,"ik":1570,"Ġsit":1571,"Ġlate":1572,"Ġforces":1573,"ĠWest":1574,"ĠNational":1575,"ague":1576,"orther":1577,"Ġclaim":1578,"ĠBlack":1579,"Ġaddition":1580,"Ġreported":1581,"ĠSouth":1582,"Ġbeg":1583,"imony":1584,"ĠHis":1585,"ves":1586,"yl":1587,"Ġcell":1588,"Ġcult":1589,"ĠCount":1590,"ĠWill":1591,"Ġexper":1592,"Ġjust":1593,"Ġbuilt":1594,"Ġvery":1595,"inkel":1596,"Ġcareer":1597,"orthern":1598,"Ġcover":1599,"isc":1600,"ising":1601,"ĠApr":1602,"rand":1603,"ards":1604,"ĠRep":1605,"Ġeffect":1606,"Ġdifferent":1607,"ĠApril":1608,"Ġ[":1609,"Ġstated":1610,"ĠFinkel":1611,"ĠGu":1612,"ĠLove":1613,"aven":1614,"Ġarr":1615,"Ġ2011":1616,"Ġrelations":1617,"Ġaircraft":1618,"Ġinvol":1619,"Ġpopular":1620,"Ġpopulation":1621,"ĠZhou":1622,"ĠFinkelstein":1623,"Ġopp":1624,"Ġreal":1625,"ĠCent":1626,"Ġgold":1627,"ĠLond":1628,"ĠCommand":1629,"Ġhistory":1630,"Ġmembers":1631,"self":1632,"Ġ]":1633,"Ġtake":1634,"Ġauth":1635,"Ġsk":1636,"atch":1637,"Ġpur":1638,"Ġmy":1639,"uss":1640,"pend":1641,"Ġplan":1642,"ĠUniversity":1643,"Ġappear":1644,"ched":1645,"min":1646,"Ġft":1647,"Ġtown":1648,"ĠBy":1649,"ĠWe":1650,"Ġproject":1651,"ĠEx":1652,"Ġcommun":1653,"Ġamong":1654,"Ġcountry":1655,"ĠJuly":1656,"ĠLondon":1657,"ones":1658,"Ġwind":1659,"Ġdet":1660,"Ġequ":1661,"iven":1662,"uted":1663,"ĠArmy":1664,"ĠWhen":1665,"Ġmonth":1666,"ering":1667,"Ġside":1668,"rote":1669,"ĠDiv":1670,"Ġplace":1671,"Ġleg":1672,"Ġtrad":1673,"ai":1674,"Ġel":1675,"Ġbest":1676,"ĠHait":1677,"ĠPh":1678,"Ġproduced":1679,"Ġpresent":1680,"augh":1681,"Ġpublished":1682,"levision":1683,"Ġwrote":1684,"Ġfurther":1685,"ĠAcc":1686,"ĠThese":1687,"ops":1688,"Ġinflu":1689,"Ġchildren":1690,"..":1691,"oard":1692,"ats":1693,"ĠTw":1694,"ilar":1695,"ĠCar":1696,"ĠCity":1697,"ĠGeneral":1698,"ĠChurch":1699,"ĠReg":1700,"Ġevent":1701,"Ġpolit":1702,"Ġrepresent":1703,"Ġcontinued":1704,"Ġstrong":1705,"dom":1706,"uk":1707,"Ġwin":1708,"ances":1709,"Ġ100":1710,"Ġgreat":1711,"achel":1712,"Ġcomb":1713,"Ġord":1714,"abor":1715,"Ġ2006":1716,"ploy":1717,"Ġbecome":1718,"ize":1719,"ternational":1720,"Ġdirect":1721,"ropical":1722,"by":1723,"ec":1724,"ior":1725,"ym":1726,"Ġsold":1727,"Ġway":1728,"Ġwest":1729,"Ġ...":1730,"Ġfun":1731,"Ġbar":1732,"Ġhome":1733,"Ġhowever":1734,"Ġbeh":1735,"Ġprop":1736,"Ġsuff":1737,"quad":1738,"ĠAlthough":1739,"Ġtrack":1740,"Ġgods":1741,"Ġstruct":1742,"Ġtyp":1743,"app":1744,"iers":1745,"yle":1746,"Ġten":1747,"Ġtri":1748,"Ġpress":1749,"Ġformer":1750,"ĠEgy":1751,"Ġversion":1752,"Ġcritic":1753,"Ġrelationship":1754,"ĠEgypt":1755,"ience":1756,"ps":1757,"Ġfar":1758,"Ġfriend":1759,"ĠAir":1760,"ĠNo":1761,"Ġdeath":1762,"Ġproduction":1763,"ĠMarch":1764,"Ġwritten":1765,"Ġdamaged":1766,"rum":1767,"ina":1768,"astern":1769,"Ġlow":1770,"ĠNe":1771,"Ġsug":1772,"Ġkill":1773,"Ġhalf":1774,"ling":1775,"line":1776,"Ġcur":1777,"Ġcour":1778,"enc":1779,"esb":1780,"estern":1781,"Ġfac":1782,"Ġband":1783,"Ġled":1784,"omen":1785,"Ġeast":1786,"Ġgl":1787,"Ġgener":1788,"ĠWith":1789,"Ġyoung":1790,"ĠRepublic":1791,"ĠAccording":1792,"fic":1793,"hen":1794,"iness":1795,"reen":1796,"Ġcame":1797,"ention":1798,"stant":1799,"Ġlim":1800,"Ġnov":1801,"Ġste":1802,"ĠRachel":1803,"ĠDes":1804,"Ġrecorded":1805,"cial":1806,"oon":1807,"ĠSte":1808,"Ġ50":1809,"ĠCounty":1810,"Ġtimes":1811,"Ġsol":1812,"Ġfew":1813,"Ġfleet":1814,"rodu":1815,"Ġrefer":1816,"ster":1817,"ĠRoyal":1818,"ĠNesb":1819,"ript":1820,"ief":1821,"Ġusing":1822,"Ġvarious":1823,"ĠNesbitt":1824,"mar":1825,"Ġdel":1826,"Ġhour":1827,"ĠAnt":1828,"Ġwithout":1829,"aying":1830,"ĠPort":1831,"ĠEar":1832,"Ġexc":1833,"ighting":1834,"Ġ2013":1835,"Ġorigin":1836,"Ġbattle":1837,"tended":1838,"Ġsuggest":1839,"Ġtro":1840,"Ġfore":1841,"Ġput":1842,"ĠAm":1843,"aining":1844,"Ġactiv":1845,"ox":1846,"ring":1847,"ither":1848,"Ġpost":1849,"Ġgen":1850,"Ġchart":1851,"Ġlevel":1852,"rick":1853,"Ġremained":1854,"Ġhistor":1855,"Ġsuccessful":1856,"ĠDivision":1857,"iol":1858,"iation":1859,"rent":1860,"ense":1861,"Ġmount":1862,"Ġdoll":1863,"ĠIm":1864,"Ġ23":1865,"ĠEm":1866,"Ġinclude":1867,"Ġproteins":1868,"Ġbuilding":1869,"bor":1870,"ford":1871,"ne":1872,"ration":1873,"eng":1874,"Ġmid":1875,"Ġthird":1876,"ĠSarn":1877,"ĠMad":1878,"irc":1879,"ĠFey":1880,"emy":1881,"aves":1882,"Ġdecl":1883,"Ġshould":1884,"Ġnoted":1885,"itions":1886,"Ġcommon":1887,"Ġauthor":1888,"ĠSarnia":1889,"off":1890,"Ġfind":1891,"ices":1892,"Ġ14":1893,"Ġgiven":1894,"isted":1895,"rie":1896,"Ġview":1897,"Ġtelevision":1898,"Ġjo":1899,"ĠBritain":1900,"Ġhimself":1901,"ception":1902,"Ġevery":1903,"ael":1904,"bs":1905,"Ġ&":1906,"Ġaff":1907,"Ġcr":1908,"Ġfather":1909,"Ġtot":1910,"idge":1911,"oted":1912,"chn":1913,"Ġheld":1914,"Ġvideo":1915,"rang":1916,"Ġclub":1917,"Ġrock":1918,"iet":1919,"pite":1920,"ĠX":1921,"ination":1922,"Ġfact":1923,"Ġfail":1924,"urric":1925,"ĠMin":1926,"ĠPark":1927,"Ġseen":1928,"ĠYue":1929,"Ġplayer":1930,"Ġassoci":1931,"Ġrelease":1932,"Ġperformed":1933,"ape":1934,"bru":1935,"cer":1936,"reed":1937,"ales":1938,"Ġpat":1939,"ĠChe":1940,"Ġless":1941,"Ġstat":1942,"rael":1943,"Ġneed":1944,"useum":1945,"Ġspecial":1946,"Ġthroughout":1947,"ĠIsrael":1948,"Ġtitle":1949,"af":1950,"Ġreached":1951,"ĠBest":1952,"Ġgames":1953,"ĠHar":1954,"Ġ21":1955,"Ġright":1956,"Ġrange":1957,"Ġinterest":1958,"Ġdiscover":1959,"Ġsignific":1960,"Ġreturned":1961,"Ġguns":1962,"ĠFebru":1963,"Ġsimilar":1964,"ĠFebruary":1965,"MS":1966,"Ġage":1967,"ĠAf":1968,"ĠAct":1969,"amb":1970,"ĠHist":1971,"Ġprofess":1972,"Ġimportant":1973,"Ġer":1974,"Ġwon":1975,"Ġwant":1976,"ories":1977,"Ġcert":1978,"Ġnational":1979,"ĠEn":1980,"antic":1981,"sequ":1982,"ĠVilla":1983,"Ġ2012":1984,"Ġearth":1985,"Ġoperations":1986,"urricane":1987,"Ã¡":1988,"atic":1989,"atory":1990,"iter":1991,"ese":1992,"Ġfull":1993,"Ġpar":1994,"Ġpri":1995,"Ġmix":1996,"Ġmother":1997,"Ġla":1998,"ĠPal":1999,"ĠRou":2000,"ĠGA":2001,"aper":2002,"ensive":2003,"Ġdamage":2004,"Ġdeveloped":2005,"aul":2006,"com":2007,"lish":2008,"enced":2009,"ĠTru":2010,"ĠAss":2011,"ĠMich":2012,"Ġgood":2013,"Ġrad":2014,"Ġleast":2015,"Ġobs":2016,"Ġnovel":2017,"val":2018,"Ġz":2019,"Ġaway":2020,"ened":2021,"Ġbase":2022,"Ġtoo":2023,"Ġmag":2024,"Ġhaving":2025,"ĠAc":2026,"ĠSp":2027,"ĠBill":2028,"irl":2029,"ected":2030,"ressed":2031,"ĠComp":2032,"Ġprim":2033,"ĠGeor":2034,"ĠEnglish":2035,"ĠCanadian":2036,"ĠKingdom":2037,"Ġtotal":2038,"cent":2039,"oad":2040,"Ġfront":2041,"Ġdied":2042,"Ġintrodu":2043,"Ġothers":2044,"Ġnext":2045,"Ġissue":2046,"ĠRoute":2047,"co":2048,"ches":2049,"de":2050,"Ġsound":2051,"Ġwall":2052,"Ġbus":2053,"Ġborn":2054,"anz":2055,"alth":2056,"ask":2057,"ston":2058,"Ġlight":2059,"Ġ28":2060,"ĠNorthern":2061,"ourn":2062,"Ġke":2063,"ogn":2064,"Ġable":2065,"Ġofficial":2066,"Ġannoun":2067,"Ġhelp":2068,"Ġestablished":2069,"ground":2070,"ws":2071,"ĠÂ":2072,"Ġide":2073,"Ġtaken":2074,"Ġtropical":2075,"Ġaward":2076,"Ġsomet":2077,"ator":2078,"Ġcy":2079,"Ġcirc":2080,"Ġfinal":2081,"Ġfund":2082,"ico":2083,"ĠTo":2084,"urt":2085,"ĠBatt":2086,"Ġgave":2087,"Ġforce":2088,"Ġviol":2089,"Ġrespect":2090,"ficult":2091,"ĠAfric":2092,"field":2093,"reg":2094,"Ġmaking":2095,"Ġhy":2096,"Ġhow":2097,"Ġlaw":2098,"ĠMc":2099,"imately":2100,"ott":2101,"Ġstyle":2102,"ĠRoss":2103,"ĠNavy":2104,"ĠEd":2105,"Ġchang":2106,"rict":2107,"ĠSec":2108,"ample":2109,"Ġappoint":2110,"Ġsurv":2111,"ĠAtl":2112,"ociety":2113,"Ġfeet":2114,"Ġservice":2115,"Ġprogram":2116,"aff":2117,"ges":2118,"sh":2119,"Ġtest":2120,"Ġsour":2121,"Ġcivil":2122,"Ġmove":2123,"stit":2124,"ung":2125,"ĠMark":2126,"ĠMusic":2127,"Ġconv":2128,"ĠUK":2129,"ĠRec":2130,"Ġserved":2131,"ization":2132,"Ġnever":2133,"Ġlocated":2134,"Ġdifficult":2135,"eder":2136,"Ġce":2137,"ĠMed":2138,"ries":2139,"ably":2140,"elling":2141,"apan":2142,"ĠOne":2143,"Ġaccept":2144,"Ġantimony":2145,"ev":2146,"iting":2147,"Ġtour":2148,"ĠAM":2149,"ids":2150,"ĠHaven":2151,"Ġcond":2152,"ĠJapan":2153,"igned":2154,"Ġ2015":2155,"ĠWhile":2156,"Ġconstruction":2157,"Ġthought":2158,"Ġesc":2159,"Ġtroops":2160,"ler":2161,"Ġident":2162,"Ġhold":2163,"Ġrev":2164,"Ġread":2165,"Ġ24":2166,"ĠLock":2167,"ĠLittle":2168,"ĠDav":2169,"angu":2170,"itted":2171,"ĠIndia":2172,"ĠConstant":2173,"ĠAustralia":2174,"ĠEarly":2175,"Ġexcav":2176,"Ġsignificant":2177,"ga":2178,"Ġaud":2179,"ino":2180,"Ġwife":2181,"itz":2182,"Ġcas":2183,"Ġcru":2184,"Ġhig":2185,"ĠSu":2186,"Ġnight":2187,"Ġonce":2188,"umb":2189,"Ġarg":2190,"Ġtechn":2191,"ĠArch":2192,"Ġearl":2193,"Ġacross":2194,"Ġcharacters":2195,"Ġappeared":2196,"Ġstudy":2197,"ead":2198,"athe":2199,"Ġcor":2200,"Ġfelt":2201,"aly":2202,"Ġmm":2203,"ĠSong":2204,"ĠCath":2205,"Ġeight":2206,"Ġget":2207,"Ġground":2208,"acy":2209,"ĠHol":2210,"Ġsex":2211,"Ġval":2212,"Ġ2005":2213,"Ġbecom":2214,"Ġ40":2215,"Ġplayers":2216,"Ġformed":2217,"Ġpoem":2218,"Ġdoes":2219,"Ġentire":2220,"Ġdays":2221,"ĠIsland":2222,"Ġdepict":2223,"br":2224,"oid":2225,"ving":2226,"Ġson":2227,"ald":2228,"Ġtoget":2229,"Ġmater":2230,"illo":2231,"ruct":2232,"Ġ2003":2233,"ports":2234,"aching":2235,"Ġupon":2236,"athan":2237,"ĠAmerica":2238,"Ġdirector":2239,"Ġrespons":2240,"Ġmodern":2241,"ĠWilliam":2242,"quadron":2243,"Ġtogether":2244,"sen":2245,"Ġ!":2246,"Ġtre":2247,"Ġaction":2248,"Ġcut":2249,"Ġlook":2250,"Ġlittle":2251,"Ġgeneral":2252,"aces":2253,"iron":2254,"vers":2255,"ĠGod":2256,"Ġexample":2257,"Ġrank":2258,"pped":2259,"ĠChar":2260,"Ġunits":2261,"Ġenc":2262,"Ġ189":2263,"Ġcoll":2264,"Ġaccom":2265,"Ġperformance":2266,"Ġcreated":2267,"Ġoriginally":2268,"ĠAML":2269,"ĠConstantine":2270,"work":2271,"Ġtreat":2272,"hest":2273,"Ġsou":2274,"Ġdr":2275,"lect":2276,"olic":2277,"Ġgrow":2278,"ivid":2279,"ĠHouse":2280,"ulf":2281,"Ġcommer":2282,"ify":2283,"Ġchurch":2284,"Ġplann":2285,"Ġclose":2286,"Ġ186":2287,"Ġprovided":2288,"conom":2289,"Ġfootball":2290,"Ġtradition":2291,"ĠRegiment":2292,"iber":2293,"jillo":2294,"ple":2295,"Ġtaking":2296,"rem":2297,"Ġfre":2298,"Ġmass":2299,"ĠTr":2300,"ĠCor":2301,"ĠCra":2302,"Ġlangu":2303,"Ġforced":2304,"ote":2305,"ĠGreat":2306,"Ġareas":2307,"eats":2308,"Ġfollowed":2309,"Ġcaused":2310,"ĠLeague":2311,"Ġinstead":2312,"Ġeffort":2313,"Ġcastle":2314,"empor":2315,"Ġparticularly":2316,"ĠTrujillo":2317,"hib":2318,"sp":2319,"Ġtru":2320,"Ġbill":2321,"Ġbody":2322,"Ġhar":2323,"Ġrese":2324,"ĠSchool":2325,"Ġeither":2326,"ĠBey":2327,"Ġ22":2328,"osaur":2329,"pec":2330,"Ġrelig":2331,"Ġmeas":2332,"Ġpeak":2333,"ology":2334,"Ġcoast":2335,"ĠIndian":2336,"Ġavail":2337,"AS":2338,"day":2339,"ÃŃ":2340,"Ġtor":2341,"onc":2342,"Ġsw":2343,"atural":2344,"itive":2345,"Ġcreat":2346,"ĠMor":2347,"ĠBar":2348,"iva":2349,"ocial":2350,"thern":2351,"arent":2352,"rought":2353,"Ġsongs":2354,"Ġindivid":2355,"Ġinvest":2356,"Ġmiles":2357,"Ġofficers":2358,"Ġestim":2359,"medi":2360,"ency":2361,"hod":2362,"ores":2363,"urb":2364,"ush":2365,"ĠNB":2366,"istic":2367,"Ġseven":2368,"Ġsuper":2369,"ishing":2370,"Ġrecogn":2371,"Ġ187":2372,"Ġ188":2373,"Ġinterview":2374,"Ġtransport":2375,"Ġbroad":2376,"Ġgrad":2377,"ĠBrown":2378,"ĠEuropean":2379,"ĠPolish":2380,"ography":2381,"Ġpolitical":2382,"Ġbusiness":2383,"Ġannounced":2384,"Ġmaterial":2385,"rison":2386,"ream":2387,"edy":2388,"Ġfem":2389,"Ġdou":2390,"Ġredu":2391,"ĠAng":2392,"ĠCo":2393,"ĠHigh":2394,"ĠHMS":2395,"ĠRock":2396,"ĠFl":2397,"Ġclos":2398,"Ġ2014":2399,"Ġmanag":2400,"ronic":2401,"hips":2402,"ĠShiva":2403,"Ġpolice":2404,"ĠAnderson":2405,"Ġmarri":2406,"arliam":2407,"Ġbreak":2408,"ĠDavid":2409,"bar":2410,"cher":2411,"Ġwomen":2412,"Ġbrought":2413,"Ġpast":2414,"Ġhouse":2415,"ĠSim":2416,"ĠSap":2417,"Ġlive":2418,"Ġeastern":2419,"olution":2420,"lying":2421,"Ġ27":2422,"Ġ29":2423,"ĠPar":2424,"ĠRed":2425,"ĠRiver":2426,"ĠWild":2427,"Ġdev":2428,"aint":2429,"Ġve":2430,"Ġroad":2431,"vey":2432,"Ġ76":2433,"Ġmeet":2434,"Ġwriting":2435,"Ġprotein":2436,"Ġengine":2437,"ĠCanada":2438,"ĠQue":2439,"Ġeventually":2440,"ĠGeorge":2441,"ĠSaprang":2442,"less":2443,"ming":2444,"most":2445,"oo":2446,"yc":2447,"Ġcou":2448,"Ġcoun":2449,"Ġfif":2450,"asing":2451,"Ġdon":2452,"Ġden":2453,"lement":2454,"ilities":2455,"Ġlove":2456,"Ġ190":2457,"Ġprocess":2458,"ustry":2459,"Ġregion":2460,"Ġdevelopment":2461,"Ġcompleted":2462,"Ġinvolved":2463,"ukem":2464,"Ġdollar":2465,"arliament":2466,"mb":2467,"van":2468,"inc":2469,"Ġfav":2470,"Ġfield":2471,"ican":2472,"Ġmot":2473,"Ġmiss":2474,"Ġhom":2475,"Ġren":2476,"ential":2477,"ĠAwards":2478,"ĠRes":2479,"rag":2480,"ĠLad":2481,"Ġdeter":2482,"Ġdeities":2483,"Ġsea":2484,"ĠOther":2485,"Ġvol":2486,"antry":2487,"ĠState":2488,"ffic":2489,"Ġ31":2490,"oys":2491,"Ġworked":2492,"Ġtraining":2493,"Ġemploy":2494,"Ġadvant":2495,"Ġbegin":2496,"ĠHaiti":2497,"Ġbehind":2498,"ĠMichael":2499,"Ġindividual":2500,"dle":2501,"epend":2502,"mir":2503,"part":2504,"ata":2505,"Ġpot":2506,"Ġhon":2507,"ĠCamp":2508,"Ġeconom":2509,"acing":2510,"Ġask":2511,"Ġ26":2512,"Ġsee":2513,"Ġsepar":2514,"Ġvill":2515,"play":2516,"ibility":2517,"Ġlargest":2518,"Ġcritics":2519,"Ġarrived":2520,"ĠTwo":2521,"Ġlaun":2522,"Ġappointed":2523,"Ġavailable":2524,"oice":2525,"onn":2526,"Ġfig":2527,"arian":2528,"Ġbomb":2529,"Ġinform":2530,"Ġtow":2531,"Ġdaugh":2532,"Ġhurricane":2533,"leg":2534,"Ġreve":2535,"ĠServ":2536,"ament":2537,"idence":2538,"utes":2539,"ĠFollow":2540,"Ġcondu":2541,"Ġdeal":2542,"Ġprot":2543,"Ġleukem":2544,"aps":2545,"Ġabove":2546,"ought":2547,"key":2548,"oney":2549,"Ġworking":2550,"Ġwriter":2551,"Ġcrew":2552,"Ġobject":2553,"Ġsett":2554,"Ġvari":2555,"ĠEngland":2556,"ĠTex":2557,"Ġcommercial":2558,"be":2559,"board":2560,"ope":2561,"por":2562,"Ġcra":2563,"ises":2564,"Ġdock":2565,"Ġthreat":2566,"ĠSome":2567,"oms":2568,"ayer":2569,"Ġwhite":2570,"Ġheavy":2571,"ĠKore":2572,"Ġ2004":2573,"ĠUnion":2574,"Ġoutside":2575,"Ġremov":2576,"Ġcentral":2577,"Ġbrother":2578,"Ġfeatures":2579,"Ġdesigned":2580,"Ġinsp":2581,"Ġinitially":2582,"Ġclaimed":2583,"Ġordered":2584,"Ġearlier":2585,"ĠFollowing":2586,"ites":2587,"Ġfall":2588,"Ġbur":2589,"ality":2590,"Ġpract":2591,"Ġhosp":2592,"ĠAg":2593,"Ġlack":2594,"Ġloss":2595,"ĠMag":2596,"ĠMost":2597,"ĠBel":2598,"Ġstation":2599,"chol":2600,"aval":2601,"Ġvoc":2602,"ateg":2603,"aby":2604,"ĠKeats":2605,"rance":2606,"Ġplaying":2607,"Ġevents":2608,"Ġdirected":2609,"Ġopening":2610,"ĠFrance":2611,"Ġoccur":2612,"Ġoccup":2613,"Ġwinds":2614,"ĠHistory":2615,"Ġmarriage":2616,"Ġaer":2617,"inf":2618,"ero":2619,"erous":2620,"Ġsail":2621,"Ġcorn":2622,"Ġfree":2623,"Ġmust":2624,"idents":2625,"ĠPres":2626,"ĠRuss":2627,"ully":2628,"ĠFilm":2629,"ĠNathan":2630,"ĠLong":2631,"uments":2632,"Ġproble":2633,"Ġspace":2634,"ological":2635,"Ġfeatured":2636,"Ġdestroyed":2637,"Ġcurrent":2638,"ĠAcad":2639,"ĠAtlantic":2640,"Ġlanguage":2641,"ĠTexas":2642,"ault":2643,"mas":2644,"Ġsil":2645,"Ġfict":2646,"Ġpra":2647,"Ġpers":2648,"Ġlines":2649,"irth":2650,"ĠRich":2651,"raf":2652,"ĠFirst":2653,"ĠGovern":2654,"ĠEl":2655,"Ġintens":2656,"rying":2657,"Ġ45":2658,"Ġ500":2659,"Ġfilms":2660,"Ġelements":2661,"ĠMex":2662,"pedo":2663,"Ġpossible":2664,"Ġweeks":2665,"Ġequip":2666,"Ġwanted":2667,"ĠBattle":2668,"uter":2669,"Ġsocial":2670,"Ġwent":2671,"atin":2672,"Ġcop":2673,"aries":2674,"Ġpil":2675,"Ġmer":2676,"Ġdram":2677,"let":2678,"ĠSl":2679,"ĠSar":2680,"Ġlost":2681,"iding":2682,"ĠRob":2683,"ements":2684,"ĠLater":2685,"Ġlearn":2686,"Ġpercent":2687,"Ġprevent":2688,"Ġremain":2689,"Ġelect":2690,"Ġdecided":2691,"Ġimpro":2692,"Ġopened":2693,"Ġconcert":2694,"ĠFrank":2695,"ĠChristmas":2696,"Ġreviews":2697,"Ġpreviously":2698,"Ġdraw":2699,"ĠAssoci":2700,"action":2701,"cing":2702,"ship":2703,"head":2704,"ators":2705,"orce":2706,"Ġfoc":2707,"Ġhost":2708,"ades":2709,"ĠBond":2710,"ivate":2711,"ĠPat":2712,"ĠPaul":2713,"ĠJe":2714,"Ġproper":2715,"ria":2716,"ĠEr":2717,"ĠInf":2718,"ĠInternational":2719,"Ġrul":2720,"Ġadapt":2721,"ounds":2722,"ways":2723,"Ġquick":2724,"Ġaccording":2725,"Ġblack":2726,"Ġterm":2727,"Ġleading":2728,"Ġstarted":2729,"Ġcapital":2730,"Ġreplaced":2731,"Ġmonths":2732,"Ġkilled":2733,"ournal":2734,"Ġtorpedo":2735,"Ġadvantage":2736,"II":2737,"cast":2738,"go":2739,"sel":2740,"uck":2741,"ze":2742,"Ġsum":2743,"Ġcal":2744,"Ġclear":2745,"iser":2746,"Ġbi":2747,"Ġpred":2748,"icated":2749,"rown":2750,"Ġred":2751,"ĠCre":2752,"ĠCole":2753,"Ġgre":2754,"ett":2755,"rap":2756,"ĠFrom":2757,"Ġwhose":2758,"ĠGl":2759,"ĠGold":2760,"ump":2761,"Ġcompet":2762,"Ġimmedi":2763,"Ġspecific":2764,"azine":2765,"ĠMany":2766,"ĠClub":2767,"Ġgroups":2768,"ĠPrince":2769,"Ġincreased":2770,"Ġbelieved":2771,"ready":2772,"Ġpressure":2773,"borough":2774,"Ġjoined":2775,"Ġprior":2776,"ĠCatholic":2777,"ĠService":2778,"AA":2779,"eal":2780,"ma":2781,"tain":2782,"onst":2783,"Ġsaw":2784,"itect":2785,"Ġmi":2786,"ĠSw":2787,"ĠSan":2788,"ĠSov":2789,"ĠSquadron":2790,"ĠCr":2791,"ĠCold":2792,"Ġnuc":2793,"ceed":2794,"rak":2795,"ĠFI":2796,"Ġwhom":2797,"emor":2798,"Ġheav":2799,"isting":2800,"pected":2801,"ude":2802,"ĠUp":2803,"Ġcompany":2804,"Ġserious":2805,"Ġagreed":2806,"ression":2807,"Ġremains":2808,"ributed":2809,"Ġsubsequ":2810,"ĠMarl":2811,"Ġmetres":2812,"Ġadded":2813,"ĠIII":2814,"Ġtype":2815,"Ġeduc":2816,"ique":2817,"Ġvisit":2818,"Ġculture":2819,"Ġlimited":2820,"Ġearthqu":2821,"Ġkeep":2822,"Ġresearch":2823,"ĠBeyonc":2824,"osaurus":2825,"Ġfemale":2826,"ĠBeyoncÃ©":2827,"ius":2828,"uation":2829,"Ġ-":2830,"Ġtar":2831,"inct":2832,"Ġsaying":2833,"isk":2834,"ara":2835,"Ġmember":2836,"Ġreb":2837,"enth":2838,"Ġly":2839,"Ġliving":2840,"urity":2841,"ĠHell":2842,"ĠPenn":2843,"ĠRober":2844,"ĠWestern":2845,"Ġalready":2846,"ĠDomin":2847,"istics":2848,"Ġens":2849,"Ġknow":2850,"Ġsubject":2851,"Ġdefend":2852,"Ġnearly":2853,"ĠBrook":2854,"ĠJackson":2855,"Ġprofessional":2856,"emporary":2857,"ĠMarlborough":2858,"gely":2859,"of":2860,"ray":2861,"ties":2862,"heast":2863,"ani":2864,"aled":2865,"Ġtowards":2866,"Ġmus":2867,"Ġmph":2868,"Ġhapp":2869,"ĠTV":2870,"ĠTer":2871,"ĠCross":2872,"Ġnon":2873,"Ġnames":2874,"olay":2875,"ĠPatt":2876,"ulpt":2877,"Ġconn":2878,"ĠDire":2879,"Ġexec":2880,"pping":2881,"Ġabs":2882,"Ġmean":2883,"Ġflood":2884,"Ġregular":2885,"ĠSholay":2886,"Ġtransfer":2887,"Ġminor":2888,"Ġparticip":2889,"ĠQu":2890,"Ġcommunity":2891,"ĠPhil":2892,"Ġstructure":2893,"Ġintroduced":2894,"stitute":2895,"miral":2896,"sc":2897,"zy":2898,"Ġinternational":2899,"Ġpaper":2900,"Ġmach":2901,"Ġhor":2902,"ille":2903,"Ġthink":2904,"ĠCapt":2905,"Ġlik":2906,"Ġnar":2907,"Ġnatural":2908,"ĠBut":2909,"Ġgive":2910,"ĠHum":2911,"Ġstage":2912,"Ġstates":2913,"Ġstaff":2914,"ĠPer":2915,"Ġconclud":2916,"Ġanim":2917,"Ġcome":2918,"que":2919,"Ġlet":2920,"ĠVict":2921,"ormal":2922,"Ġadop":2923,"ĠAli":2924,"Ġscene":2925,"eather":2926,"Ġassigned":2927,"Ġlargely":2928,"Ġfourth":2929,"Ġsurround":2930,"Ġsoon":2931,"Ġarmy":2932,"Ġconcern":2933,"ĠChristian":2934,"Ġpassed":2935,"Ġincrease":2936,"Ġchem":2937,"Ġschools":2938,"ĠEgyptian":2939,"Ġhours":2940,"Ġcertain":2941,"Ġcele":2942,"ASP":2943,"Ġearthquake":2944,"aire":2945,"aign":2946,"gr":2947,"graf":2948,"hing":2949,"uel":2950,"Ġtem":2951,"Ġwoman":2952,"Ġcross":2953,"Ġmuseum":2954,"ĠAb":2955,"ĠSur":2956,"omm":2957,"iring":2958,"Ġstone":2959,"chie":2960,"ulated":2961,"ĠFleet":2962,"ĠNaz":2963,"ĠDel":2964,"Ġprob":2965,"Ġ2000":2966,"ĠThom":2967,"ĠYear":2968,"aret":2969,"ĠDef":2970,"Ġpoor":2971,"Ġprovide":2972,"emple":2973,"Ġespec":2974,"Ġprimary":2975,"Ġcycl":2976,"ĠMarkgraf":2977,"ĠArchaeolog":2978,"Ġinvestig":2979,"ĠAssociation":2980,"Ġespecially":2981,"gin":2982,"ule":2983,"Ġri":2984,"Ġround":2985,"ont":2986,"Ġsat":2987,"Ġschol":2988,"Ġwid":2989,"Ġwide":2990,"atre":2991,"oring":2992,"Ġcase":2993,"isions":2994,"Ġpie":2995,"Ġemer":2996,"ĠMo":2997,"ĠMathe":2998,"ĠHall":2999,"rain":3000,"ĠGo":3001,"Ġalmost":3002,"ĠDr":3003,"Ġcomment":3004,"ructed":3005,"ĠStud":3006,"ĠThat":3007,"Ġsculpt":3008,"ĠArt":3009,"Ġbetter":3010,"Ġ1990":3011,"azz":3012,"Ġblood":3013,"Ġtravel":3014,"Ġpresident":3015,"ĠMega":3016,"Ġcommandment":3017,"Ġteams":3018,"Ġsmaller":3019,"Ġpositions":3020,"Ġincreasing":3021,"Ġrequest":3022,"Ġturned":3023,"Ġsouthern":3024,"Ġreligious":3025,"Ġestimated":3026,"ĠWilde":3027,"band":3028,"rast":3029,"Ġaid":3030,"Ġachie":3031,"Ġcred":3032,"Ġfood":3033,"arily":3034,"Ġbirth":3035,"Ġdraft":3036,"ĠSince":3037,"Ġliter":3038,"ĠBet":3039,"usion":3040,"odies":3041,"Ġchap":3042,"Ġrather":3043,"elled":3044,"ĠVe":3045,"ples":3046,"Ġdisp":3047,"Ġoffered":3048,"Ġdespite":3049,"Ġimm":3050,"Ġprep":3051,"Ġrelief":3052,"Ġ1994":3053,"Ġrecording":3054,"Ġentrance":3055,"Ġbattles":3056,"Ġstruck":3057,"Ġphot":3058,"Ġpersonal":3059,"ĠMont":3060,"Ġadditional":3061,"Ġsuggested":3062,"Ġdeterm":3063,"ĠVictor":3064,"ĠMathews":3065,"cient":3066,"den":3067,"gal":3068,"how":3069,"ned":3070,"Ġaver":3071,"erved":3072,"onse":3073,"Ġsize":3074,"Ġfell":3075,"alys":3076,"asons":3077,"Ġmoney":3078,"Ġdoc":3079,"Ġhous":3080,"ental":3081,"ĠSun":3082,"Ġnine":3083,"Ġgirl":3084,"utive":3085,"using":3086,"cean":3087,"oses":3088,"ĠJew":3089,"ago":3090,"Ġsearch":3091,"Ġcomedy":3092,"ills":3093,"ĠOf":3094,"ĠInstitute":3095,"Ġrisk":3096,"ability":3097,"ĠUN":3098,"ranch":3099,"Ġitself":3100,"Ġsecret":3101,"Ġraid":3102,"Ġquest":3103,"Ġaccount":3104,"ification":3105,"Ġ1940":3106,"Ġstudents":3107,"ĠAdmiral":3108,"Ġarchitect":3109,"ylvan":3110,"Ġpurp":3111,"Ġappearance":3112,"Ġgenerally":3113,"rief":3114,"ĠCompany":3115,"Ġawarded":3116,"Ġsometimes":3117,"ederal":3118,"ĠNBA":3119,"ĠPresident":3120,"ĠAcademy":3121,"ĠRobert":3122,"ee":3123,"ires":3124,"ken":3125,"Ġult":3126,"reet":3127,"isation":3128,"Ġmult":3129,"ĠAre":3130,"ĠAle":3131,"ĠCal":3132,"urs":3133,"ĠHowe":3134,"ĠWASP":3135,"ĠNot":3136,"Ġdead":3137,"ĠEnd":3138,"ĠEast":3139,"ĠOver":3140,"ĠOper":3141,"Ġrh":3142,"Ġplaced":3143,"ĠKrak":3144,"Ġtwent":3145,"Ġ185":3146,"Ġteac":3147,"Ġprem":3148,"Ġworkers":3149,"Ġ80":3150,"Ġevidence":3151,"Ġ60":3152,"Ġregard":3153,"Ġlarger":3154,"Ġhighway":3155,"Ġarmed":3156,"Ġsigned":3157,"Ġshows":3158,"Ġfeature":3159,"ĠGeoff":3160,"issioned":3161,"Ġcells":3162,"Ġdetail":3163,"Ġdirectly":3164,"ription":3165,"ightingale":3166,"Ġranked":3167,"Ġ766":3168,"ĠQueen":3169,"Ġdaughter":3170,"ĠSoviet":3171,"Ġtarget":3172,"gg":3173,"ham":3174,"nel":3175,"sylvan":3176,"rest":3177,"Ġsac":3178,"Ġslow":3179,"eding":3180,"arter":3181,"Ġdi":3182,"lected":3183,"ĠTint":3184,"Ġthus":3185,"ĠSo":3186,"Ġnomin":3187,"ĠBer":3188,"ĠBed":3189,"etic":3190,"etball":3191,"chism":3192,"ĠFriend":3193,"ĠLords":3194,"osing":3195,"osition":3196,"Ġexam":3197,"Ġshown":3198,"bert":3199,"pper":3200,"ĠStorm":3201,"ĠCharl":3202,"Ġ2002":3203,"Ġwhether":3204,"Ġ44":3205,"ricult":3206,"Ġcenter":3207,"Ġsubmar":3208,"Ġaccess":3209,"Ġblue":3210,"Ġblock":3211,"ajev":3212,"Ġmethod":3213,"Ġcritical":3214,"Ġanti":3215,"Ġbuildings":3216,"Ġresponse":3217,"ĠAfrica":3218,"Ġsexual":3219,"Ġdouble":3220,"ĠMexico":3221,"ĠSarajev":3222,"ĠColeman":3223,"Ġgreater":3224,"ĠPennsylvan":3225,"ĠCaptain":3226,"ĠTintin":3227,"ĠSarajevo":3228,"bl":3229,"ny":3230,"rated":3231,"west":3232,"yria":3233,"reak":3234,"Ġsister":3235,"Ġface":3236,"Ġfrag":3237,"Ġinch":3238,"Ġintended":3239,"Ġparent":3240,"Ġmor":3241,"ĠTon":3242,"ĠSb":3243,"ĠSm":3244,"ĠSociety":3245,"ĠBay":3246,"ĠHosp":3247,"utz":3248,"ĠRoad":3249,"anding":3250,"ift":3251,"oph":3252,"atechism":3253,"teen":3254,"ellig":3255,"ĠVideo":3256,"Ġclosed":3257,"Ġenv":3258,"Ġoffice":3259,"Ġtheme":3260,"Ġflo":3261,"Ġpositive":3262,"Ġamount":3263,"Ġsurf":3264,"Ġpoly":3265,"Ġmonument":3266,"Ġcarried":3267,"Ġphys":3268,"Ġrequired":3269,"ĠColle":3270,"Ġcampaign":3271,"Ġstandard":3272,"Ġdebut":3273,"Ġsoldiers":3274,"Ġsuffered":3275,"Ġfriends":3276,"Ġfailed":3277,"Ġbeginning":3278,"Ġvillage":3279,"Ġremoved":3280,"Ġprobably":3281,"mitted":3282,"vin":3283,"Ġill":3284,"rey":3285,"Ġwat":3286,"Ġwood":3287,"Ġfr":3288,"aring":3289,"Ġball":3290,"Ġbaby":3291,"Ġbrief":3292,"ases":3293,"Ġtold":3294,"Ġmakes":3295,"Ġdate":3296,"ĠAv":3297,"ĠCivil":3298,"ĠCatechism":3299,"unt":3300,"ĠBu":3301,"Ġforward":3302,"ithic":3303,"ĠPost":3304,"ĠWood":3305,"ĠGrand":3306,"ĠNorm":3307,"ĠOld":3308,"Ġvess":3309,"Ġvict":3310,"Ġplans":3311,"ours":3312,"Ġ36":3313,"Ġ300":3314,"Ġusually":3315,"Ġwhole":3316,"Ġmostly":3317,"Ġboats":3318,"ampions":3319,"Ġrap":3320,"olec":3321,"Ġforms":3322,"ĠLeon":3323,"airs":3324,"Ġhelped":3325,"ĠYoung":3326,"Ġcaptured":3327,"ĠCentral":3328,"ĠMadero":3329,"ĠÂ£":3330,"Ġconvoy":3331,"Ġhighest":3332,"Ġbecoming":3333,"Ġfifth":3334,"ĠCampb":3335,"Ġcrake":3336,"selves":3337,"ĠDominican":3338,"back":3339,"cil":3340,"cause":3341,"lict":3342,"Ġau":3343,"isl":3344,"Ġbatter":3345,"Ġintern":3346,"alt":3347,"ington":3348,"Ġder":3349,"Ġhit":3350,"ĠTimes":3351,"Ġreact":3352,"ĠCast":3353,"ĠMet":3354,"imum":3355,"imate":3356,"uty":3357,"uture":3358,"Ġhealth":3359,"odrom":3360,"Ġsevent":3361,"rian":3362,"aker":3363,"ption":3364,"Ġunc":3365,"Ġuns":3366,"ĠVal":3367,"Ġresidents":3368,"Ġ184":3369,"orses":3370,"ĠSever":3371,"Ġneut":3372,"Ġthemselves":3373,"Ġweap":3374,"Ġtrade":3375,"Ġsyn":3376,"Ġfamil":3377,"Ġoperation":3378,"Ġterrit":3379,"Ġterms":3380,"ĠAllosaurus":3381,"Ġconstructed":3382,"Ġcommander":3383,"ervation":3384,"Ġsupported":3385,"ĠBecause":3386,"Ġinitial":3387,"ĠAustralian":3388,"ĠCommander":3389,"ĠDespite":3390,"ĠBillboard":3391,"ĠSecond":3392,"Ġsource":3393,"Ġexcavation":3394,"senal":3395,"ĠCrazy":3396,"ycake":3397,"Ġquickly":3398,"ĠPattycake":3399,"ĠFriends":3400,"aust":3401,"bers":3402,"now":3403,"to":3404,"inent":3405,"inÃ¡":3406,"Ġsays":3407,"Ġwestern":3408,"Ġfired":3409,"asion":3410,"road":3411,"Ġmight":3412,"Ġmatch":3413,"Ġhorses":3414,"Ġrear":3415,"Ġreason":3416,"ĠSund":3417,"ĠCup":3418,"ĠMer":3419,"ĠMiss":3420,"ĠHen":3421,"Ġstri":3422,"Ġstren":3423,"Ġwithd":3424,"ĠGroup":3425,"ems":3426,"ands":3427,"ĠLa":3428,"ĠLi":3429,"ĠUl":3430,"ĠUnder":3431,"ously":3432,"rane":3433,"Ġincludes":3434,"Ġnecess":3435,"Ġremix":3436,"ĠZeal":3437,"ĠDepart":3438,"Ġcann":3439,"Ġmeans":3440,"Ġ1995":3441,"Ġvers":3442,"Ġcause":3443,"Ġmetal":3444,"Ġemb":3445,"Ġcountries":3446,"Ġexpressed":3447,"Ġdepart":3448,"Ġfeel":3449,"ĠAndrew":3450,"Ġmarried":3451,"Ġstoryline":3452,"Ġgoing":3453,"Ġfinally":3454,"Ġattempted":3455,"ĠPeter":3456,"Ġcamps":3457,"Ġtypes":3458,"Ġactivities":3459,"Ġmixed":3460,"ĠRecords":3461,"Ġcounter":3462,"ĠKorean":3463,"Ġheavily":3464,"alysis":3465,"ĠToninÃ¡":3466,"Ġstreng":3467,"ĠZealand":3468,"ĠDepartment":3469,"tained":3470,"uing":3471,"ximately":3472,"Ġaut":3473,"Ġself":3474,"Ġwor":3475,"Ġcost":3476,"enes":3477,"ication":3478,"Ġmat":3479,"Ġdone":3480,"ĠCons":3481,"Ġlog":3482,"Ġlink":3483,"Ġleng":3484,"Ġnet":3485,"Ġnature":3486,"add":3487,"ĠML":3488,"ĠMuseum":3489,"ĠPart":3490,"ĠGab":3491,"ershow":3492,"ĠDershow":3493,"iston":3494,"Ġshot":3495,"abit":3496,"artial":3497,"ĠKody":3498,"Ġenemy":3499,"ibar":3500,"Ġjournal":3501,"Ġshell":3502,"Ġoverall":3503,"Ġspent":3504,"Ġworks":3505,"Ġrelat":3506,"Ġrelated":3507,"ĠZanz":3508,"Ġbox":3509,"Ġpeace":3510,"orning":3511,"Ġ1998":3512,"Ġindustry":3513,"Ġindepend":3514,"Ġprivate":3515,"Ġofficer":3516,"Ġslight":3517,"Ġdivine":3518,"Ġ1970":3519,"Ġissued":3520,"Ġarchaeological":3521,"Ġproposed":3522,"ĠCheval":3523,"Ġradio":3524,"Ġidea":3525,"Ġresponsible":3526,"Ġtraditional":3527,"ĠAngel":3528,"Ġlaunched":3529,"Ġoccurred":3530,"Ġproblems":3531,"ĠBedell":3532,"ĠPennsylvania":3533,"ĠDershowitz":3534,"ĠZanzibar":3535,"ĠChevaliers":3536,"gas":3537,"lies":3538,"oes":3539,"rant":3540,"Ġtons":3541,"oned":3542,"Ġsaf":3543,"itor":3544,"itte":3545,"Ġhard":3546,"oura":3547,"ĠTy":3548,"ĠTom":3549,"ĠCP":3550,"Ġlab":3551,"Ġnaval":3552,"ĠBack":3553,"ĠHob":3554,"Ġstop":3555,"ĠParliament":3556,"ĠFoot":3557,"Ġattend":3558,"Ġdeep":3559,"Ġsequ":3560,"ĠEv":3561,"ĠOde":3562,"iple":3563,"Ġplot":3564,"ĠChronic":3565,"Ġcontract":3566,"Ġjazz":3567,"Ġspeed":3568,"Ġscreen":3569,"orship":3570,"Ġ1999":3571,"Ġincor":3572,"Ġrail":3573,"Ġ90":3574,"ĠBlue":3575,"Ġinstit":3576,"Ġdiscuss":3577,"Ġcomplet":3578,"Ġengaged":3579,"Ġservices":3580,"Ġbring":3581,"Ġ1950":3582,"Ġsites":3583,"Ġlegisl":3584,"Ġstructures":3585,"Ġcourt":3586,"Ġmountain":3587,"ĠMinister":3588,"Ġassociated":3589,"Ġdiscovered":3590,"Ġmagazine":3591,"Ġinspired":3592,"Ġfictional":3593,"ĠRichard":3594,"Ġequipment":3595,"Ġdrama":3596,"ĠInfantry":3597,"ĠDirector":3598,"Ġcelebr":3599,"Ġtwenty":3600,"ĠCollege":3601,"ĠSeveral":3602,"AT":3603,"Ġ?":3604,"era":3605,"Ġword":3606,"Ġfighting":3607,"Ġflying":3608,"Ġfederal":3609,"Ġmention":3610,"Ġhop":3611,"Ġthings":3612,"ĠSy":3613,"Ġlabor":3614,"Ġey":3615,"ama":3616,"olf":3617,"olk":3618,"ĠMy":3619,"ĠMil":3620,"ĠMid":3621,"ĠMary":3622,"Ġgra":3623,"ĠPre":3624,"ules":3625,"ĠFin":3626,"thing":3627,"Ġconvent":3628,"ĠLo":3629,"ĠLew":3630,"ĠDan":3631,"ume":3632,"Ġran":3633,"ĠStra":3634,"Ġherd":3635,"ĠChart":3636,"Ġunl":3637,"ĠVar":3638,"ĠValk":3639,"Ġresc":3640,"Ġuses":3641,"ĠThree":3642,"reek":3643,"Ġjob":3644,"ĠIts":3645,"ounded":3646,"ribution":3647,"Ġproducer":3648,"Ġ1996":3649,"Ġinches":3650,"Ġ1980":3651,"Ġcontinue":3652,"ashion":3653,"Ġrefused":3654,"Ġfinanc":3655,"Ġavoid":3656,"Ġiniti":3657,"Ġsolo":3658,"ĠJapanese":3659,"ironment":3660,"Ġconducted":3661,"Ġhospital":3662,"Ġnuclear":3663,"Ġconcluded":3664,"Ġdocument":3665,"ĠValkyria":3666,"bour":3667,"ez":3668,"fact":3669,"hood":3670,"wood":3671,"Ġtur":3672,"itation":3673,"Ġfuture":3674,"Ġbad":3675,"Ġpun":3676,"ica":3677,"icient":3678,"Ġmax":3679,"ĠTurn":3680,"Ġlatter":3681,"olid":3682,"urg":3683,"igo":3684,"ĠGirl":3685,"ander":3686,"ĠLike":3687,"ests":3688,"agod":3689,"Ġdeg":3690,"Ġdeploy":3691,"Ġcompl":3692,"Ġexist":3693,"Ġchange":3694,"ourt":3695,"Ġund":3696,"nthes":3697,"Ġ2001":3698,"Ġyet":3699,"rania":3700,"Ġoffer":3701,"Ġprepar":3702,"Ġattention":3703,"Ġassist":3704,"Ġalbums":3705,"Ġraised":3706,"Ġcreate":3707,"Ġstudio":3708,"Ġbroken":3709,"Ġleaders":3710,"Ġdistinct":3711,"undred":3712,"Ġbooks":3713,"Ġextra":3714,"Ġrespond":3715,"Ġcontrolled":3716,"Ġmajority":3717,"Ġallowed":3718,"Ġobserv":3719,"Ġrespectively":3720,"Ġchanges":3721,"Ġconditions":3722,"Ġcasual":3723,"ĠCharles":3724,"Ġaccomp":3725,"Ġtrue":3726,"Ġbroadcast":3727,"Ġleukemia":3728,"Ġpraised":3729,"Ġsubsequently":3730,"ĠHuman":3731,"ĠArea":3732,"elligence":3733,"ao":3734,"ios":3735,"nest":3736,"sw":3737,"zz":3738,"Ġtakes":3739,"Ġactions":3740,"Ġsociety":3741,"aton":3742,"Ġcer":3743,"isters":3744,"Ġfru":3745,"alion":3746,"Ġpow":3747,"icago":3748,"Ġdomin":3749,"ĠAward":3750,"ĠAston":3751,"Ġthick":3752,"ĠSing":3753,"ĠCong":3754,"oli":3755,"ĠIron":3756,"ĠBass":3757,"imin":3758,"otte":3759,"uses":3760,"vert":3761,"ĠRad":3762,"ĠFern":3763,"illery":3764,"ĠOut":3765,"ocr":3766,"ipp":3767,"ells":3768,"ishment":3769,"Ġarts":3770,"ĠChicago":3771,"Ġunit":3772,"ĠVill":3773,"duction":3774,"Ġcompan":3775,"Ġparts":3776,"Ġmanaged":3777,"Ġagricult":3778,"arker":3779,"Ġremaining":3780,"Ġthemes":3781,"aily":3782,"Ġnewsp":3783,"Ġflight":3784,"Ġacqu":3785,"azer":3786,"Ġpolic":3787,"Ġbelow":3788,"Ġconstit":3789,"Ġslide":3790,"Ġdivided":3791,"Ġpromoted":3792,"Ġissues":3793,"Ġattacked":3794,"Ġrestaur":3795,"Ġchess":3796,"Ġbridge":3797,"Ġallowing":3798,"ĠPlay":3799,"Ġolder":3800,"Ġpurs":3801,"ĠCarol":3802,"Ġcourse":3803,"Ġforest":3804,"Ġreduced":3805,"Ġasked":3806,"Ġinformation":3807,"Ġtower":3808,"Ġaerodrom":3809,"Ġsilver":3810,"Ġimmediately":3811,"ĠColdrum":3812,"ĠJewish":3813,"Ġquestion":3814,"ĠCharlotte":3815,"Ġrapid":3816,"ĠLeonard":3817,"Ġlength":3818,"cers":3819,"men":3820,"oe":3821,"ris":3822,"ugh":3823,"Ġrom":3824,"here":3825,"Ġcat":3826,"ening":3827,"Ġinj":3828,"rog":3829,"Ġmorning":3830,"ĠSal":3831,"ĠCrit":3832,"ĠCare":3833,"Ġnorthern":3834,"amber":3835,"ĠMill":3836,"ĠMajor":3837,"ĠMax":3838,"ĠBos":3839,"ĠWork":3840,"ĠWater":3841,"ĠLive":3842,"ĠOmar":3843,"Ġvia":3844,"alled":3845,"allow":3846,"quare":3847,"ĠUT":3848,"ĠUrania":3849,"ogen":3850,"Ġdiss":3851,"Ġroom":3852,"Ġneg":3853,"eath":3854,"ĠArk":3855,"ference":3856,"Ġsecurity":3857,"Ġboard":3858,"Ġproducers":3859,"awa":3860,"Ġended":3861,"Ġwriters":3862,"Ġappl":3863,"Ġformation":3864,"Ġlocation":3865,"Ġdecision":3866,"ĠConf":3867,"pects":3868,"Ġepisodes":3869,"ĠFei":3870,"Ġextrem":3871,"ancy":3872,"Ġmedical":3873,"Ġbask":3874,"ĠPeople":3875,"ĠColumb":3876,"Ġ1960":3877,"Ġapproach":3878,"Ġapproximately":3879,"Ġarchaeology":3880,"Ġexperi":3881,"Ġexperience":3882,"Ġcovered":3883,"Ġeffects":3884,"ĠCenter":3885,"Ġinfluence":3886,"Ġpattern":3887,"Ġaccepted":3888,"Ġplanned":3889,"Ġefforts":3890,"Ġmanager":3891,"Ġeducation":3892,"ĠThomas":3893,"blazer":3894,"Ġparents":3895,"Ġnetwork":3896,"ittee":3897,"aut":3898,"hic":3899,"rd":3900,"ror":3901,"inity":3902,"Ġsal":3903,"Ġweather":3904,"itude":3905,"Ġfully":3906,"Ġtoward":3907,"Ġmolec":3908,"Ġmartial":3909,"Ġdyn":3910,"Ġhundred":3911,"ĠTri":3912,"Ġreject":3913,"Ġreinf":3914,"ĠSR":3915,"ado":3916,"ĠBook":3917,"igg":3918,"Ġstars":3919,"change":3920,"Ġaltern":3921,"ĠLatin":3922,"estival":3923,"ĠDist":3924,"umn":3925,"ĠEaton":3926,"anta":3927,"Ġchall":3928,"Ġleaving":3929,"Ġking":3930,"Ġaband":3931,"Ġadmin":3932,"Ġdism":3933,"Ġnumbers":3934,"aws":3935,"Ġcoins":3936,"Ġregime":3937,"Ġacting":3938,"Ġairport":3939,"ĠShort":3940,"Ġsurre":3941,"ĠGermany":3942,"Ġprison":3943,"Ġhighly":3944,"Ġ1942":3945,"Ġ1943":3946,"Ġsecondary":3947,"Ġmoving":3948,"ĠCont":3949,"Ġofficially":3950,"ĠClass":3951,"ĠAdd":3952,"ĠChris":3953,"Ġminutes":3954,"Ġcomplex":3955,"Ġconsider":3956,"Ġadvance":3957,"Ġsixth":3958,"Ġresulted":3959,"Ġconcent":3960,"Ġcultural":3961,"Ġprojects":3962,"Ġcombat":3963,"ĠAntimony":3964,"Ġactivity":3965,"Ġfrequ":3966,"Ġvocal":3967,"ĠGovernment":3968,"ĠHellblazer":3969,"Ġtransferred":3970,"Ġcyclone":3971,"Ġsurface":3972,"Ġfamilies":3973,"ĠHenry":3974,"Ġslightly":3975,"Ġbasketball":3976,"BC":3977,"gn":3978,"tic":3979,"uan":3980,"uated":3981,"ergy":3982,"nding":3983,"Ġcm":3984,"Ġfight":3985,"arters":3986,"Ġpair":3987,"Ġpurch":3988,"Ġtomb":3989,"rovers":3990,"Ġmut":3991,"Ġthous":3992,"ĠSaint":3993,"Ġlif":3994,"olithic":3995,"Ġgot":3996,"Ġstay":3997,"ĠPri":3998,"chan":3999,"ĠGreen":4000,"emed":4001,"ĠNations":4002,"ĠLand":4003,"ĠLos":4004,"ĠDem":4005,"ĠOff":4006,"ocated":4007,"Ġvoice":4008,"Ġshoot":4009,"ession":4010,"ĠChina":4011,"Ġability":4012,"Ġenough":4013,"Ġcompared":4014,"Ġ400":4015,"ibr":4016,"Ġjud":4017,"ĠItal":4018,"arked":4019,"Ġspir":4020,"Ġconsisted":4021,"Ġmeant":4022,"Ġquarter":4023,"ĠSha":4024,"Ġsinger":4025,"Ġemph":4026,"Ġlonger":4027,"Ġ1988":4028,"Ġnearby":4029,"ĠProte":4030,"Ġannual":4031,"Ġ1930":4032,"Ġdivision":4033,"Ġconflict":4034,"Ġfacilities":4035,"ĠAfrican":4036,"Ġfavor":4037,"Ġfigure":4038,"Ġvariety":4039,"Ġsummer":4040,"ĠGolden":4041,"Ġlyric":4042,"Ġaverage":4043,"ĠAlex":4044,"ĠFootball":4045,"ĠChronicles":4046,"Ġcerem":4047,"bb":4048,"break":4049,"ex":4050,"iest":4051,"kins":4052,"uff":4053,"Ġiron":4054,"Ġtim":4055,"Ġtax":4056,"Ġsus":4057,"Ġoil":4058,"Ġour":4059,"Ġwear":4060,"Ġbird":4061,"Ġbene":4062,"ano":4063,"anced":4064,"Ġpan":4065,"Ġtoll":4066,"Ġdance":4067,"ouston":4068,"ĠTime":4069,"ĠTrans":4070,"Ġreform":4071,"ĠSam":4072,"Ġnation":4073,"ĠMus":4074,"Ġgiving":4075,"ĠHouston":4076,"usband":4077,"ĠPet":4078,"ĠFour":4079,"ĠFlow":4080,"ĠGar":4081,"emic":4082,"ĠNS":4083,"Ġang":4084,"umed":4085,"ockey":4086,"Ġperf":4087,"ĠThrough":4088,"Ġimage":4089,"resses":4090,"Ġneigh":4091,"Ġboat":4092,"Ġinterp":4093,"Ġrare":4094,"erted":4095,"ĠClark":4096,"anks":4097,"Ġ179":4098,"ĠForce":4099,"Ġpromot":4100,"Ġdestroyers":4101,"Ġpoints":4102,"Ġmarket":4103,"Ġinfluenced":4104,"Ġtypically":4105,"ĠStef":4106,"Ġsources":4107,"Ġhigher":4108,"Ġgrowth":4109,"Ġvehic":4110,"ĠLady":4111,"ĠFIT":4112,"ĠBrooks":4113,"Ġmusical":4114,"Ġsurrounding":4115,"Ġtemper":4116,"Ġultimately":4117,"Ġenvironment":4118,"ĠBackground":4119,"Ġincorpor":4120,"ĠLewis":4121,"Ġfinancial":4122,"Ġrestaurant":4123,"ĠUTC":4124,"OT":4125,"mon":4126,"rate":4127,"rack":4128,"ĠÃ":4129,"onent":4130,"Ġsulf":4131,"oric":4132,"Ġcaves":4133,"Ġflow":4134,"Ġbodies":4135,"Ġpain":4136,"Ġpound":4137,"Ġpick":4138,"Ġmur":4139,"ĠSir":4140,"Ġlives":4141,"omer":4142,"Ġnormal":4143,"ĠTheatre":4144,"ĠBon":4145,"Ġgrew":4146,"irt":4147,"ĠHill":4148,"ĠHome":4149,"ĠHung":4150,"ows":4151,"Ġalone":4152,"ĠDay":4153,"ĠJes":4154,"Ġexpected":4155,"Ġshr":4156,"eller":4157,"Ġleave":4158,"Ġunable":4159,"ogue":4160,"Ġ39":4161,"ĠThak":4162,"Ġrecover":4163,"Ġroles":4164,"Ġroute":4165,"Ġnewly":4166,"Ġcharge":4167,"Ġwrite":4168,"Ġrecords":4169,"Ġentered":4170,"Ġcalling":4171,"ĠGermans":4172,"Ġprinc":4173,"ĠBlood":4174,"Ġstudies":4175,"Ġbroke":4176,"Ġfeaturing":4177,"Ġstrugg":4178,"Ġsupporting":4179,"Ġattacks":4180,"Ġ1920":4181,"Ġdemonst":4182,"Ġlisted":4183,"Ġmedia":4184,"Ġattempts":4185,"Ġshortly":4186,"ĠRomanian":4187,"Ġarchaeologist":4188,"Ġsituation":4189,"Ġbegins":4190,"Ġpresented":4191,"Ġbehav":4192,"Ġreferred":4193,"ĠPalest":4194,"Ġofficials":4195,"Ġviolence":4196,"ĠSecret":4197,"Ġidentified":4198,"Ġbecomes":4199,"Ġplanning":4200,"ĠCorps":4201,"Ġhomes":4202,"Ġrevealed":4203,"Ġproperty":4204,"ĠCrus":4205,"Ġmachine":4206,"Ġdetermined":4207,"Ġteacher":4208,"ĠSmith":4209,"ĠSunday":4210,"ĠCPS":4211,"ĠHobbs":4212,"ĠGirls":4213,"ĠFernand":4214,"Ġcompanies":4215,"Ġemphas":4216,"ĠStefani":4217,"eter":4218,"gam":4219,"gÃ©":4220,"joy":4221,"me":4222,"ney":4223,"rical":4224,"uous":4225,"Ġcle":4226,"Ġcave":4227,"Ġfear":4228,"Ġfashion":4229,"Ġbound":4230,"Ġple":4231,"ications":4232,"Ġmic":4233,"Ġdro":4234,"Ġrepe":4235,"iled":4236,"ĠSer":4237,"ĠSpe":4238,"standing":4239,"Ġnort":4240,"ĠIf":4241,"ĠBo":4242,"ĠBarker":4243,"utch":4244,"ĠPublic":4245,"ĠRam":4246,"ĠFast":4247,"ĠFair":4248,"ĠGulf":4249,"Ġalways":4250,"ema":4251,"Ġconver":4252,"ĠLl":4253,"Ġanalysis":4254,"osa":4255,"Ġheart":4256,"aging":4257,"Ġprohib":4258,"Ġselected":4259,"ĠEll":4260,"ortun":4261,"Ġchamber":4262,"order":4263,"ĠChild":4264,"Ġyour":4265,"aped":4266,"Ġcontrast":4267,"Ġcontrovers":4268,"Ġperman":4269,"Ġenergy":4270,"Ġ180":4271,"Ġtend":4272,"Ġtext":4273,"Ġparty":4274,"Ġplays":4275,"Ġspacing":4276,"ocks":4277,"ĠZoo":4278,"ĠArm":4279,"Ġassemb":4280,"Ġspecim":4281,"Ġcoin":4282,"Ġending":4283,"ansas":4284,"Ġmainly":4285,"Ġmonuments":4286,"Ġopin":4287,"Ġtransl":4288,"Ġprotect":4289,"annel":4290,"Ġarms":4291,"Ġbelong":4292,"Ġimpact":4293,"Ġartist":4294,"Ġartists":4295,"Ġalongside":4296,"Ġgrass":4297,"Ġ1939":4298,"Ġpersonnel":4299,"Ġhands":4300,"Ġbasis":4301,"Ġbelieve":4302,"Ġstanding":4303,"Ġmarked":4304,"ĠHaitian":4305,"Ġlevels":4306,"Ġhistoric":4307,"ĠMadison":4308,"Ġzomb":4309,"Ġwalls":4310,"Ġchanged":4311,"Ġrevolution":4312,"Ġindividuals":4313,"ĠBelg":4314,"ĠCreutz":4315,"ĠVictoria":4316,"Ġpremi":4317,"ĠNorman":4318,"Ġweapons":4319,"Ġwithdra":4320,"ĠDistrict":4321,"ĠItalian":4322,"Ġlyrics":4323,"50":4324,"OK":4325,"TV":4326,"bo":4327,"che":4328,"iant":4329,"lin":4330,"lim":4331,"mond":4332,"mission":4333,"press":4334,"vat":4335,"writ":4336,"Ġtask":4337,"Ġsout":4338,"Ġwing":4339,"Ġwild":4340,"Ġwounded":4341,"atur":4342,"itable":4343,"orter":4344,"orus":4345,"Ġcust":4346,"enge":4347,"Ġbott":4348,"Ġinner":4349,"ingu":4350,"asure":4351,"Ġmo":4352,"Ġmale":4353,"oud":4354,"ĠTra":4355,"Ġreception":4356,"Ġreaction":4357,"ĠSus":4358,"elph":4359,"ĠCorn":4360,"Ġnin":4361,"Ġnative":4362,"ĠMac":4363,"ĠMount":4364,"ĠBow":4365,"ĠBoth":4366,"Ġgives":4367,"igade":4368,"Ġstep":4369,"Ġstones":4370,"ĠRul":4371,"ula":4372,"ĠFurt":4373,"ĠNight":4374,"ĠLight":4375,"Ġcomic":4376,"iff":4377,"iforn":4378,"Ġextended":4379,"Ġshare":4380,"Ġrule":4381,"sec":4382,"ĠKn":4383,"Ġkind":4384,"Ġ32":4385,"Ġcontemporary":4386,"Ġ2016":4387,"ĠReview":4388,"ĠYe":4389,"Ġteaching":4390,"oyage":4391,"itting":4392,"Ġ1991":4393,"Ġincident":4394,"Ġacts":4395,"Ġsupply":4396,"Ġdoor":4397,"ĠAnother":4398,"Ġcreation":4399,"Ġcounty":4400,"Ġartillery":4401,"Ġcomplete":4402,"aiman":4403,"Ġresults":4404,"ĠPrime":4405,"Ġexplained":4406,"Ġsentence":4407,"Ġcollection":4408,"Ġvisited":4409,"ĠCommandos":4410,"Ġforeign":4411,"Ġgenus":4412,"Ġdollars":4413,"Ġdeclined":4414,"Ġpilot":4415,"emorial":4416,"ĠUpon":4417,"ĠNazaire":4418,"Ġwidely":4419,"Ġliterature":4420,"Ġprepared":4421,"ĠCaliforn":4422,"Ġversions":4423,"ĠMiddle":4424,"ĠTurner":4425,"agoda":4426,"Ġcasualties":4427,"ĠCongress":4428,"Ġsurrender":4429,"ĠFastra":4430,"ĠFurtado":4431,"FA":4432,"bon":4433,"house":4434,"ki":4435,"nown":4436,"ying":4437,"Ġir":4438,"Ġunk":4439,"Ġtall":4440,"Ġaim":4441,"Ġsense":4442,"Ġod":4443,"itar":4444,"itch":4445,"Ġcand":4446,"Ġfill":4447,"Ġfuel":4448,"Ġbrick":4449,"aling":4450,"Ġmem":4451,"Ġdu":4452,"Ġhired":4453,"Ġhusband":4454,"ĠTemple":4455,"Ġreally":4456,"ented":4457,"Ġlic":4458,"Ġeas":4459,"adelph":4460,"ĠBre":4461,"Ġgar":4462,"eth":4463,"ette":4464,"ĠPac":4465,"rab":4466,"ĠNH":4467,"ĠDÃŃ":4468,"ĠJay":4469,"Ġhero":4470,"ĠOx":4471,"ĠInt":4472,"ĠInter":4473,"oper":4474,"Ġriver":4475,"Ġupper":4476,"Ġleague":4477,"Ġnotes":4478,"Ġunique":4479,"ĠVir":4480,"perial":4481,"ĠRev":4482,"Ġscored":4483,"anging":4484,"ĠSea":4485,"Ġproduce":4486,"Ġbuoys":4487,"Ġsupplies":4488,"ertain":4489,"Ġindic":4490,"Ġsynthes":4491,"Ġelection":4492,"inese":4493,"Ġappears":4494,"Ġ1985":4495,"Ġreports":4496,"Ġowned":4497,"Ġgrant":4498,"Ġinside":4499,"Ġportray":4500,"Ġrequire":4501,"eltown":4502,"Ġstarting":4503,"ĠPeters":4504,"Ġcollect":4505,"ĠHergÃ©":4506,"Ġdebuted":4507,"ĠBlackie":4508,"ĠWeek":4509,"Ġinfluences":4510,"Ġrepresented":4511,"Ġwinning":4512,"Ġgreatest":4513,"Ġcriticized":4514,"Ġhistorical":4515,"Ġmiddle":4516,"Ġauthorities":4517,"Ġdiscovery":4518,"Ġera":4519,"ĠEnter":4520,"Ġsomething":4521,"Ġargued":4522,"Ġtreatment":4523,"Ġpotential":4524,"Ġeconomic":4525,"Ġburied":4526,"Ġcopies":4527,"Ġadapted":4528,"ceeded":4529,"Ġadopted":4530,"ĠBetween":4531,"ĠCampbeltown":4532,"Ġnecessary":4533,"Ġcannot":4534,"Ġstrength":4535,"Ġmentioned":4536,"ĠStrapping":4537,"ĠClarkson":4538,"vati":4539,"ĠCalifornia":4540,"adelphia":4541,"ĠDÃŃaz":4542,"NA":4543,"gl":4544,"ky":4545,"lines":4546,"Ġopt":4547,"itual":4548,"Ġcam":4549,"isers":4550,"Ġfres":4551,"Ġmaster":4552,"Ġded":4553,"Ġdata":4554,"lee":4555,"ĠTim":4556,"Ġreach":4557,"ĠAge":4558,"ĠSum":4559,"ĠCelt":4560,"ĠCourt":4561,"Ġlot":4562,"Ġlower":4563,"ols":4564,"ĠBob":4565,"ĠHam":4566,"ĠHow":4567,"Ġstating":4568,"uten":4569,"utions":4570,"rapped":4571,"ĠWil":4572,"ĠWay":4573,"ĠWales":4574,"anded":4575,"ĠNightingale":4576,"ĠDen":4577,"ĠJam":4578,"ĠJac":4579,"agle":4580,"Ġdepend":4581,"Ġexhib":4582,"Ġsha":4583,"Ġcho":4584,"Ġrights":4585,"quarters":4586,"arden":4587,"Ġplant":4588,"astic":4589,"ĠChap":4590,"ĠChinese":4591,"lands":4592,"Ġ33":4593,"Ġresemb":4594,"Ġcompos":4595,"Ġrecent":4596,"Ġrecomm":4597,"Ġ183":4598,"ibly":4599,"Ġscript":4600,"ĠDevelop":4601,"ĠDevin":4602,"Ġcancer":4603,"Ġ1993":4604,"Ġ1997":4605,"Ġflag":4606,"Ġamino":4607,"Ġcolor":4608,"Ġpoet":4609,"Ġdoing":4610,"Ġsymb":4611,"Ġtrain":4612,"Ġtraffic":4613,"Ġ1941":4614,"ĠAniston":4615,"Ġ1986":4616,"ĠAdam":4617,"Ġleader":4618,"Ġ1911":4619,"ĠForces":4620,"Ġlanding":4621,"ĠScot":4622,"ĠFranc":4623,"Ġpassing":4624,"stead":4625,"Ġsuccessfully":4626,"Ġviewers":4627,"Ġaffected":4628,"Ġhyg":4629,"Ġescort":4630,"Ġaudience":4631,"ructure":4632,"Ġmeasure":4633,"Ġcreator":4634,"ĠParvati":4635,"Ġseparate":4636,"Ġfigures":4637,"ĠRussian":4638,"Ġintensity":4639,"Ġflooding":4640,"nyi":4641,"ĠVillaret":4642,"Ġnewspaper":4643,"ĠArkansas":4644,"Ġthousands":4645,"Ġmurder":4646,"Ġcandid":4647,"ĠPacific":4648,"bury":4649,"fall":4650,"hist":4651,"hold":4652,"iat":4653,"iate":4654,"mical":4655,"ping":4656,"pire":4657,"pread":4658,"sy":4659,"ua":4660,"wh":4661,"ware":4662,"yth":4663,"Ġtrying":4664,"Ġsides":4665,"Ġox":4666,"Ġwides":4667,"Ġwatch":4668,"atings":4669,"Ġfans":4670,"Ġbone":4671,"Ġpay":4672,"Ġtoday":4673,"ros":4674,"roph":4675,"Ġmission":4676,"ĠTower":4677,"ĠApp":4678,"ĠCoun":4679,"Ġlived":4680,"olen":4681,"ĠMod":4682,"ĠMore":4683,"ĠMaster":4684,"ĠBC":4685,"ĠBart":4686,"Ġgates":4687,"acre":4688,"igration":4689,"tered":4690,"ĠHot":4691,"ĠPak":4692,"ĠPress":4693,"ĠPerson":4694,"ĠRail":4695,"ĠROK":4696,"uled":4697,"ĠGame":4698,"ĠLu":4699,"Ġcomes":4700,"udd":4701,"ĠKh":4702,"ĠStory":4703,"ĠStreet":4704,"clus":4705,"Ġunp":4706,"Ġunivers":4707,"ieuten":4708,"Ġ34":4709,"Ġcontains":4710,"Ġadvent":4711,"Ġenjoy":4712,"Ġdispl":4713,"Ġdisaster":4714,"ĠReception":4715,"Ġprec":4716,"Ġcommissioned":4717,"Ġsched":4718,"Ġscenes":4719,"Ġoutl":4720,"Ġoutbreak":4721,"Ġ800":4722,"Ġassass":4723,"Ġassault":4724,"Ġ600":4725,"Ġnumerous":4726,"Ġquality":4727,"Ġsym":4728,"Ġelement":4729,"Ġdefences":4730,"Ġmovement":4731,"ĠCommission":4732,"Ġexped":4733,"ĠBroad":4734,"Ġexplos":4735,"Ġgoal":4736,"Ġgoals":4737,"ĠOrder":4738,"Ġpowerful":4739,"Ġclaims":4740,"aught":4741,"Ġfarm":4742,"ĠStep":4743,"Ġreference":4744,"Ġdeliv":4745,"ĠImperial":4746,"Ġfactory":4747,"Ġsurviv":4748,"Ġescape":4749,"Ġcases":4750,"Ġvalue":4751,"Ġcollabor":4752,"Ġmeeting":4753,"Ġeconomy":4754,"Ġlosses":4755,"ĠSlayer":4756,"ĠRobyn":4757,"Ġmeaning":4758,"Ġrif":4759,"Ġpiece":4760,"Ġsubmarine":4761,"Ġfloor":4762,"Ġvessels":4763,"Ġseventh":4764,"ĠUlster":4765,"Ġrelatively":4766,"Ġmaximum":4767,"ĠCarolina":4768,"Ġperfect":4769,"ĠFITs":4770,"Ġnortheast":4771,"ĠRuler":4772,"ĠEntertain":4773,"ĠDevelopment":4774,"Ġtalk":4775,"erve":4776,"onents":4777,"rel":4778,"reement":4779,"Ġsquare":4780,"Ġworship":4781,"oration":4782,"orters":4783,"Ġcited":4784,"Ġbond":4785,"Ġparliament":4786,"asc":4787,"Ġmis":4788,"Ġhair":4789,"leph":4790,"ĠTre":4791,"ĠAp":4792,"ĠAst":4793,"ĠSch":4794,"ĠSand":4795,"ĠMen":4796,"ĠMike":4797,"ĠBoard":4798,"Ġaspects":4799,"ĠHurricane":4800,"ĠFer":4801,"ĠFred":4802,"ĠLord":4803,"estic":4804,"ĠDon":4805,"ĠJust":4806,"istry":4807,"aine":4808,"ocaust":4809,"Ġexit":4810,"Ġshared":4811,"Ġrate":4812,"asty":4813,"ĠKaiman":4814,"Ġkil":4815,"Ġkey":4816,"rupt":4817,"range":4818,"ultan":4819,"Ġcompounds":4820,"Ġrecently":4821,"ĠAlg":4822,"Ġpregn":4823,"ilding":4824,"Ġscient":4825,"Ġattra":4826,"ĠOnly":4827,"Ġearned":4828,"Ġcanc":4829,"ilyn":4830,"Ġproduct":4831,"Ġflights":4832,"Ġactive":4833,"Ġacid":4834,"Ġretired":4835,"ĠMarilyn":4836,"Ġfollows":4837,"Ġinvited":4838,"ernon":4839,"Ġdecades":4840,"Ġmoves":4841,"Ġcontinues":4842,"Ġcarved":4843,"Ġowners":4844,"Ġcharacteristics":4845,"Ġdescribes":4846,"Ġ1914":4847,"Ġdesignated":4848,"Ġserves":4849,"Ġprominent":4850,"Ġguard":4851,"Ġmodel":4852,"Ġaviation":4853,"Ġconfir":4854,"Ġorganized":4855,"Ġcollected":4856,"Ġwinter":4857,"Ġcombination":4858,"Ġjoin":4859,"Ġassociation":4860,"ĠIsraeli":4861,"Ġprimarily":4862,"Ġcyt":4863,"Ġcruiser":4864,"ĠHolocaust":4865,"Ġcoup":4866,"Ġcouple":4867,"apsed":4868,"Ġfocus":4869,"Ġexecutive":4870,"Ġparticipated":4871,"Ġlikely":4872,"Ġbattleships":4873,"ampionship":4874,"ĠGabbar":4875,"Ġlabel":4876,"Ġadminist":4877,"ĠFernandez":4878,"Ġunknown":4879,"ĠCeltic":4880,"Ġwidespread":4881,"ĠCouncil":4882,"ĠKaimanawa":4883,"cription":4884,"oh":4885,"rid":4886,"rong":4887,"uit":4888,"ufact":4889,"well":4890,"ygh":4891,"Ġess":4892,"Ġtaught":4893,"eru":4894,"Ġsquad":4895,"atives":4896,"itage":4897,"itiz":4898,"itals":4899,"Ġcraft":4900,"Ġcateg":4901,"anes":4902,"Ġpu":4903,"Ġpaid":4904,"Ġmine":4905,"Ġdom":4906,"Ġdating":4907,"Ġhabit":4908,"Ġreag":4909,"ils":4910,"iles":4911,"ĠSen":4912,"ĠSou":4913,"eless":4914,"Ġlo":4915,"aded":4916,"Ġge":4917,"acement":4918,"ĠHere":4919,"very":4920,"ĠRy":4921,"ĠFore":4922,"ĠFurther":4923,"ĠWash":4924,"ĠGate":4925,"Ġconcept":4926,"ĠDou":4927,"umber":4928,"ĠJer":4929,"agon":4930,"Ġseasons":4931,"ĠEastern":4932,"ĠOs":4933,"Ġorb":4934,"Ġexcept":4935,"Ġrural":4936,"sey":4937,"udget":4938,"ĠUygh":4939,"Ġkg":4940,"earch":4941,"ĠStar":4942,"ĠVoyage":4943,"oke":4944,"Ġcomposed":4945,"ĠAlbum":4946,"Ġ181":4947,"Ġmanufact":4948,"Ġjump":4949,"ressive":4950,"Ġspring":4951,"Ġnews":4952,"Ġ72":4953,"Ġ75":4954,"Ġ79":4955,"Ġcharges":4956,"Ġregional":4957,"Ġactor":4958,"Ġacids":4959,"Ġelected":4960,"ĠIndustry":4961,"Ġsingles":4962,"Ġperformances":4963,"rows":4964,"Ġfounded":4965,"ĠCommons":4966,"Ġreturning":4967,"ĠProject":4968,"Ġengage":4969,"Ġpublication":4970,"ancing":4971,"Ġallows":4972,"Ġcollege":4973,"Ġstandards":4974,"Ġdrawn":4975,"Ġarrival":4976,"Ġmyth":4977,"ĠExpress":4978,"Ġlegal":4979,"yme":4980,"ymes":4981,"Ġfunction":4982,"Ġtracks":4983,"Ġsteam":4984,"Ġstatus":4985,"Ġfunding":4986,"Ġencoun":4987,"Ġpeaked":4988,"Ġhonor":4989,"Ġthreatened":4990,"Ġpractice":4991,"ĠErnest":4992,"Ġconnect":4993,"Ġconnected":4994,"Ġhorse":4995,"Ġscholars":4996,"Ġincreasingly":4997,"Ġachieved":4998,"Ġcredited":4999,"ĠVeeru":5000,"Ġpurpose":5001,"ĠCastle":5002,"Ġlegislation":5003,"Ġdegree":5004,"Ġrapidly":5005,"Ġreinforce":5006,"ĠAddition":5007,"Ġbenef":5008,"ĠMuslim":5009,"ĠJesus":5010,"NL":5011,"aith":5012,"dess":5013,"iar":5014,"iated":5015,"mun":5016,"ras":5017,"rative":5018,"tt":5019,"wing":5020,"yles":5021,"Ġrough":5022,"Ġaired":5023,"iny":5024,"Ġtheory":5025,"rect":5026,"Ġsen":5027,"Ġsay":5028,"Ġsole":5029,"Ġocean":5030,"Ġways":5031,"isis":5032,"Ġfolk":5033,"arm":5034,"ario":5035,"Ġbed":5036,"Ġpen":5037,"Ġpal":5038,"Ġmort":5039,"Ġmob":5040,"Ġmoon":5041,"Ġdry":5042,"Ġdang":5043,"Ġdict":5044,"oured":5045,"ĠTour":5046,"ĠArab":5047,"ĠSav":5048,"ĠSound":5049,"omers":5050,"ctors":5051,"ading":5052,"amic":5053,"ĠMic":5054,"ĠMir":5055,"ĠMart":5056,"ĠMint":5057,"ĠBh":5058,"ĠBen":5059,"ĠBBC":5060,"ider":5061,"Ġfort":5062,"iments":5063,"ivity":5064,"ussion":5065,"ĠRel":5066,"ĠRAA":5067,"ĠWrapped":5068,"ĠGwe":5069,"ĠGreg":5070,"Ġattended":5071,"ĠJul":5072,"ĠJose":5073,"Ġheard":5074,"Ġheight":5075,"agn":5076,"Ġseek":5077,"rial":5078,"ĠOp":5079,"ĠOffic":5080,"Ġsuc":5081,"eway":5082,"antly":5083,"Ġchief":5084,"berg":5085,"ĠKur":5086,"Ġ35":5087,"Ġ37":5088,"Ġcompr":5089,"ĠThough":5090,"Ġ48":5091,"Ġdisplay":5092,"ĠReines":5093,"izes":5094,"Ġjoint":5095,"Ġagent":5096,"Ġ70":5097,"Ġamb":5098,"ended":5099,"Ġcolumn":5100,"Ġseverely":5101,"Ġindust":5102,"ifications":5103,"Ġenter":5104,"Ġmonit":5105,"ledge":5106,"Ġstudent":5107,"Ġcarrying":5108,"Ġdepth":5109,"Ġdisturb":5110,"ĠAllied":5111,"Ġdidn":5112,"Ġ1918":5113,"ĠFeel":5114,"Ġhumans":5115,"ĠScott":5116,"ĠOrig":5117,"ĠPoland":5118,"Ġbelief":5119,"Ġimportance":5120,"Ġinvolving":5121,"Ġmyel":5122,"Ġcombined":5123,"Ġsuffering":5124,"Ġsufficient":5125,"Ġtrip":5126,"ĠNeolithic":5127,"Ġglob":5128,"ĠPortug":5129,"ricket":5130,"Ġdeclared":5131,"Ġauthority":5132,"Ġobserved":5133,"ĠSuper":5134,"ĠResearch":5135,"Ġbrothers":5136,"ĠPhiladelphia":5137,"Ġscholar":5138,"Ġcommented":5139,"Ġmultiple":5140,"Ġphysical":5141,"ĠValley":5142,"ouraged":5143,"Ġeye":5144,"ĠDaniel":5145,"Ġaerodromes":5146,"ĠCritical":5147,"ĠAlexander":5148,"ĠVirgin":5149,"while":5150,"ĠPakist":5151,"ĠStephen":5152,"ĠAlgernon":5153,"ĠWashington":5154,"ĠRAAF":5155,"ĠGwend":5156,"SA":5157,"fort":5158,"iary":5159,"iences":5160,"jo":5161,"pass":5162,"track":5163,"wich":5164,"worth":5165,"Ã¨":5166,"erick":5167,"rec":5168,"Ġsunk":5169,"Ġsave":5170,"Ġsports":5171,"Ġouter":5172,"Ġwalk":5173,"Ġwords":5174,"orrow":5175,"Ġboy":5176,"Ġburn":5177,"Ġbudget":5178,"alle":5179,"iced":5180,"Ġdark":5181,"Ġholid":5182,"Ġrect":5183,"ilis":5184,"ĠSultan":5185,"stone":5186,"Ġeigh":5187,"Ġnor":5188,"lywood":5189,"ĠMal":5190,"iders":5191,"igan":5192,"oty":5193,"etric":5194,"ĠPen":5195,"ĠFort":5196,"ĠFame":5197,"ĠForm":5198,"ĠGram":5199,"Ġanaly":5200,"ĠDar":5201,"ĠDue":5202,"ĠDream":5203,"agan":5204,"Ġdeity":5205,"Ġsection":5206,"ĠEach":5207,"ĠEven":5208,"ĠOreg":5209,"ĠOcean":5210,"Ġsust":5211,"ĠInstead":5212,"ipal":5213,"Ġplain":5214,"text":5215,"ovil":5216,"ordin":5217,"Ġcontact":5218,"Ġ42":5219,"Ġ47":5220,"Ġ54":5221,"Ġ56":5222,"Ġ57":5223,"Ġserial":5224,"Ġimages":5225,"Ġspread":5226,"ĠSeason":5227,"ocked":5228,"ĠArsenal":5229,"Ġundert":5230,"Ġsecure":5231,"Ġweight":5232,"Ġweaken":5233,"Ġ1992":5234,"Ġsubstant":5235,"Ġinterse":5236,"Ġretire":5237,"Ġ98":5238,"Ġcausing":5239,"Ġtherefore":5240,"Ġ120":5241,"ĠIndepend":5242,"Ġpresence":5243,"Ġfamous":5244,"Ġprotected":5245,"Ġ1982":5246,"Ġdepression":5247,"Ġdistance":5248,"Ġartic":5249,"Ġdeveloping":5250,"Ġ1919":5251,"Ġresulting":5252,"Ġguitar":5253,"Ġorganization":5254,"Ġstarred":5255,"ĠBrack":5256,"Ġcaptain":5257,"Ġbreeding":5258,"Ġbegun":5259,"ĠGuard":5260,"ĠGuide":5261,"Ġopposed":5262,"Ġopportun":5263,"Ġorders":5264,"ĠEmpire":5265,"Ġneeded":5266,"ĠÂ°":5267,"Ġhyd":5268,"Ġtests":5269,"Ġcivilian":5270,"Ġcondition":5271,"Ġsoul":5272,"Ġgrowing":5273,"Ġcreating":5274,"ĠMoro":5275,"Ġmanagement":5276,"Ġmotor":5277,"Ġconduct":5278,"Ġvocals":5279,"Ġremainder":5280,"ĠPatrick":5281,"Ġcompetition":5282,"ĠArchaeological":5283,"ĠMoore":5284,"Ġbattery":5285,"Ġindependent":5286,"Ġcompletely":5287,"ĠMilitary":5288,"ĠVargas":5289,"Ġinitiative":5290,"Ġresponded":5291,"Ġfruit":5292,"Ġagricultural":5293,"ĠCarey":5294,"ĠConfeder":5295,"Ġrejected":5296,"Ġabandoned":5297,"ĠShortly":5298,"ĠHungarian":5299,"ĠCrusad":5300,"ĠLlosa":5301,"Ġsoutheast":5302,"ĠYeovil":5303,"Ġdedicated":5304,"Ġhygrom":5305,"ieutenant":5306,"Ġscheduled":5307,"ĠGwendolen":5308,"ĠOregon":5309,"actions":5310,"ding":5311,"ha":5312,"hi":5313,"mod":5314,"nell":5315,"rons":5316,"rument":5317,"sis":5318,"tical":5319,"ux":5320,"uge":5321,"war":5322,"xual":5323,"yond":5324,"Ġign":5325,"Ġtrou":5326,"Ġtried":5327,"Ġtemple":5328,"rets":5329,"Ġsle":5330,"Ġspl":5331,"Ġswe":5332,"Ġsales":5333,"Ġsought":5334,"itall":5335,"itness":5336,"Ġcab":5337,"Ġcitiz":5338,"Ġfly":5339,"Ġfought":5340,"Ġble":5341,"Ġbank":5342,"Ġborder":5343,"ana":5344,"Ġinn":5345,"Ġpark":5346,"Ġpath":5347,"Ġpsy":5348,"icop":5349,"Ġda":5350,"Ġdig":5351,"Ġdut":5352,"Ġdated":5353,"Ġha":5354,"Ġhill":5355,"Ġreign":5356,"Ġreaching":5357,"ĠSNL":5358,"eld":5359,"elle":5360,"ĠCec":5361,"ĠCAT":5362,"Ġlay":5363,"adier":5364,"Ġbeach":5365,"Ġbeyond":5366,"ĠBranch":5367,"ĠBrian":5368,"Ġgor":5369,"Ġgraph":5370,"Ġgrand":5371,"ims":5372,"aches":5373,"otes":5374,"uting":5375,"ceived":5376,"ether":5377,"ĠPop":5378,"ulate":5379,"ĠField":5380,"ĠGall":5381,"Ġalt":5382,"thur":5383,"Ġconne":5384,"ĠLaw":5385,"ĠLiber":5386,"Ġancient":5387,"osm":5388,"ĠDubl":5389,"ĠDyn":5390,"ĠJai":5391,"Ġhem":5392,"agement":5393,"ĠEagle":5394,"Ġvan":5395,"Ġplat":5396,"Ġplane":5397,"ellow":5398,"gend":5399,"Ġarrest":5400,"claim":5401,"Ġuniversity":5402,"apy":5403,"appe":5404,"Ġcontain":5405,"okes":5406,"Ġreconst":5407,"Ġdise":5408,"Ġ51":5409,"Ġoffers":5410,"ĠAlso":5411,"izing":5412,"Ġjun":5413,"ĠItaly":5414,"Ġspect":5415,"Ġscale":5416,"Ġspaces":5417,"inton":5418,"ĠZap":5419,"Ġ87":5420,"Ġmechan":5421,"Ġweak":5422,"Ġactually":5423,"Ġacute":5424,"Ġ97":5425,"Ġaccused":5426,"Ġindigo":5427,"Ġdefeat":5428,"Ġdefense":5429,"Ġ1944":5430,"Ġprotection":5431,"Ġ1984":5432,"ĠClinton":5433,"Ġdescription":5434,"Ġsetting":5435,"Ġcarry":5436,"ĠMean":5437,"Ġtermin":5438,"Ġbackground":5439,"Ġminute":5440,"Ġ1937":5441,"Ġhelicop":5442,"Ġextensive":5443,"Ġrunning":5444,"iscus":5445,"Ġpopularity":5446,"Ġappearances":5447,"Ġrelationships":5448,"ĠEgyptians":5449,"ĠEarth":5450,"Ġhistorian":5451,"Ġcommonly":5452,"Ġcertified":5453,"ĠMedway":5454,"Ġexcavations":5455,"Ġvalid":5456,"Ġlooking":5457,"onna":5458,"Ġpractices":5459,"ĠGovernor":5460,"Ġlearned":5461,"Ġimprov":5462,"III":5463,"Ġchemical":5464,"ĠSurvey":5465,"ĠDelano":5466,"Ġpieces":5467,"Ġemerg":5468,"Ġsculpture":5469,"Ġchapel":5470,"Ġrhyth":5471,"Ġnominated":5472,"ĠHospitall":5473,"Ġfrig":5474,"Ġworst":5475,"addock":5476,"Ġromantic":5477,"Ġexperienced":5478,"ĠOffice":5479,"ibrary":5480,"ĠSecretary":5481,"Ġconverted":5482,"Ġpermanent":5483,"Ġfresh":5484,"ĠEntertainment":5485,"Ġpuzz":5486,"etricus":5487,"Ġhygrometricus":5488,"Ġduties":5489,"ĠDublin":5490,"ban":5491,"come":5492,"chest":5493,"ection":5494,"ecess":5495,"eenth":5496,"gar":5497,"ients":5498,"ville":5499,"wide":5500,"Ġtry":5501,"Ġtrib":5502,"Ġawards":5503,"Ġsem":5504,"Ġsand":5505,"Ġsort":5506,"Ġwars":5507,"Ġcore":5508,"Ġcart":5509,"Ġbit":5510,"Ġben":5511,"Ġbig":5512,"alions":5513,"Ġpet":5514,"Ġpine":5515,"rosc":5516,"Ġmouth":5517,"Ġmatter":5518,"Ġdial":5519,"Ġdru":5520,"Ġdub":5521,"Ġdates":5522,"ĠTur":5523,"ĠTop":5524,"ĠCO":5525,"ĠCull":5526,"stances":5527,"ĠTheir":5528,"urches":5529,"lym":5530,"ĠMa":5531,"ĠMov":5532,"ĠBur":5533,"ĠBost":5534,"ĠBern":5535,"ĠBull":5536,"Ġgas":5537,"imal":5538,"irty":5539,"iths":5540,"ĠHib":5541,"ĠHaddock":5542,"Ġstra":5543,"Ġstores":5544,"ushed":5545,"ĠProm":5546,"ĠPass":5547,"ĠRos":5548,"ĠFox":5549,"ĠFestival":5550,"ĠWang":5551,"Ġconsequ":5552,"ĠNow":5553,"ĠLake":5554,"osure":5555,"ĠDest":5556,"ĠDaily":5557,"ĠDutch":5558,"ĠJim":5559,"aga":5560,"Ġdeck":5561,"Ġdeemed":5562,"Ġseat":5563,"Ġshore":5564,"Ġshape":5565,"Ġrating":5566,"Ġrival":5567,"ĠKe":5568,"ĠStones":5569,"ograp":5570,"ranged":5571,"Ġ38":5572,"ĠHead":5573,"Ġenl":5574,"Ġenz":5575,"ĠRebb":5576,"Ġ52":5577,"Ġoffensive":5578,"Ġshel":5579,"Ġspeak":5580,"inds":5581,"Ġconsist":5582,"Ġconsisting":5583,"Ġunderground":5584,"Ġ61":5585,"Ġknew":5586,"othing":5587,"Ġcentre":5588,"Ġcoach":5589,"Ġactors":5590,"ĠMarc":5591,"ĠMarge":5592,"otherapy":5593,"ĠJoe":5594,"Ġdirection":5595,"Ġdefence":5596,"Ġ1946":5597,"Ġ1949":5598,"airman":5599,"Ġdecor":5600,"Ġemot":5601,"Ġobtained":5602,"ĠMaya":5603,"Ġdiscip":5604,"Ġprovince":5605,"ccessful":5606,"Ġsets":5607,"Ġcargo":5608,"Ġdistribution":5609,"Ġdestruction":5610,"heless":5611,"Ġ1913":5612,"Ġgoddess":5613,"Ġbattalions":5614,"ĠProduction":5615,"ĠAndy":5616,"Ġguest":5617,"Ġcheck":5618,"Ġfinished":5619,"Ġedge":5620,"Ġrequires":5621,"Ġreplacement":5622,"Ġcapture":5623,"iques":5624,"Ġskills":5625,"Ġplanet":5626,"psons":5627,"ĠAirport":5628,"Ġyounger":5629,"Ġsoundtrack":5630,"Ġideas":5631,"Ġcircum":5632,"ĠBattalion":5633,"Ġtechniques":5634,"ĠCharact":5635,"Ġcollapsed":5636,"space":5637,"ĠNBC":5638,"ĠSimpsons":5639,"Ġrenamed":5640,"Ġvolume":5641,"Ġsettlement":5642,"ĠMagn":5643,"ĠLongacre":5644,"Ġpredecess":5645,"Ġletter":5646,"Ġemerged":5647,"ĠStudios":5648,"Ġdetails":5649,"Ġmethods":5650,"ĠHospital":5651,"Ġbriefly":5652,"Ġunsu":5653,"ĠAngeles":5654,"ĠEvans":5655,"Ġaccompany":5656,"ĠRadio":5657,"Ġceremony":5658,"Ġtemperature":5659,"Ġenvironmental":5660,"Ġopinion":5661,"ĠOxford":5662,"Ġflagship":5663,"Ġsurvivors":5664,"Ġkilomet":5665,"ĠAlbums":5666,"ĠJoseph":5667,"Ġholiday":5668,"ĠBracknell":5669,"Ġpsych":5670,"Ġdisease":5671,"roscop":5672,"ĠHibiscus":5673,"ĠRebbie":5674,"BN":5675,"RA":5676,"bed":5677,"cy":5678,"ias":5679,"la":5680,"mark":5681,"math":5682,"nes":5683,"pic":5684,"pond":5685,"rat":5686,"right":5687,"yal":5688,"Ġi":5689,"Ġid":5690,"Ġtub":5691,"Ġtact":5692,"erg":5693,"Ġsun":5694,"Ġsport":5695,"Ġsquadron":5696,"Ġsisters":5697,"ato":5698,"Ġcard":5699,"Ġcrop":5700,"isher":5701,"Ġfer":5702,"Ġfat":5703,"Ġfaith":5704,"Ġbass":5705,"anic":5706,"Ġpul":5707,"Ġmask":5708,"Ġdrum":5709,"lection":5710,"ĠTod":5711,"ĠTong":5712,"ĠTreat":5713,"iling":5714,"ĠAD":5715,"ĠSMS":5716,"ĠCro":5717,"ĠCop":5718,"ĠCab":5719,"ĠCard":5720,"ĠCAA":5721,"struction":5722,"omy":5723,"Ġec":5724,"ĠMoon":5725,"ĠBra":5726,"Ġgained":5727,"Ġgrown":5728,"herry":5729,"cend":5730,"ĠRet":5731,"ĠRem":5732,"ĠRog":5733,"ulations":5734,"rae":5735,"ĠWal":5736,"eman":5737,"ĠLar":5738,"ĠLabor":5739,"Ġpros":5740,"Ġproved":5741,"Ġcoming":5742,"ĠOnt":5743,"ateur":5744,"aka":5745,"Ġchose":5746,"Ġchurches":5747,"Ġrum":5748,"Ġratings":5749,"abled":5750,"teenth":5751,"ĠKim":5752,"Ġarsenal":5753,"Ġkings":5754,"ĠChief":5755,"clusion":5756,"Ġunion":5757,"Ġcontrib":5758,"Ġadult":5759,"Ġresign":5760,"ĠHeaven":5761,"Ġ46":5762,"Ġ49":5763,"Ġserve":5764,"Ġteen":5765,"Ġroof":5766,"Ġprefer":5767,"Ġscore":5768,"lesh":5769,"Ġconsists":5770,"ĠZr":5771,"Ġ85":5772,"Ġevac":5773,"ĠOnce":5774,"Ġ71":5775,"Ġunderst":5776,"Ġfilmed":5777,"ologist":5778,"Ġsubs":5779,"Ġrainf":5780,"Ġapparent":5781,"Ġsurvey":5782,"Ġsevere":5783,"Ġmaintained":5784,"Ġinvasion":5785,"Ġdefensive":5786,"Ġhighl":5787,"Ġ1947":5788,"Ġinstrument":5789,"Ġ1987":5790,"Ġarmored":5791,"Ġsignal":5792,"ĠAdvent":5793,"Ġexpanded":5794,"Ġleads":5795,"Ġowner":5796,"tona":5797,"Ġadvanced":5798,"Ġserving":5799,"ĠAustro":5800,"Ġstrateg":5801,"Ġexplains":5802,"Ġoccas":5803,"ĠOrtona":5804,"Ġ1952":5805,"Ġedition":5806,"Ġdestroyer":5807,"ĠMonument":5808,"Ġsystems":5809,"Ġsouthwest":5810,"Ġ250":5811,"Ġestablishment":5812,"Ġpolitics":5813,"Ġgreatly":5814,"ĠAircraft":5815,"Ġneeds":5816,"ourney":5817,"shire":5818,"Ġholding":5819,"Ġtechnique":5820,"Ġdepicts":5821,"Ġdepicting":5822,"Ġtrees":5823,"Ġaccompl":5824,"Ġtreaty":5825,"Ġreligion":5826,"Ġcoastal":5827,"Ġgradually":5828,"Ġcloser":5829,"Ġrenew":5830,"Ġseparated":5831,"Ġinspir":5832,"Ġpilots":5833,"ĠJean":5834,"Ġdefended":5835,"Ġchemotherapy":5836,"ĠArchaeology":5837,"ĠGoat":5838,"Ġsculptures":5839,"galiths":5840,"Ġpurposes":5841,"ĠOperation":5842,"Ġmoral":5843,"Ġpolygam":5844,"Ġwaters":5845,"ĠBuilding":5846,"Ġreactor":5847,"Ġmatches":5848,"Ġsafety":5849,"ĠType":5850,"ĠMaryland":5851,"Ġdocumentary":5852,"ught":5853,"Ġpurchased":5854,"Ġrecovery":5855,"Ġcontroversial":5856,"Ġzombies":5857,"Ġcamera":5858,"ĠSummer":5859,"ĠFrancisc":5860,"ĠSouthern":5861,"Ġplatform":5862,"ĠZapata":5863,"Ġunsuccessful":5864,"ĠOntario":5865,"Ġrainfall":5866,"ES":5867,"PA":5868,"PU":5869,"aak":5870,"aud":5871,"haps":5872,"lor":5873,"mit":5874,"power":5875,"wise":5876,"Ġtiss":5877,"Ġahead":5878,"inich":5879,"inema":5880,"Ġtherap":5881,"reted":5882,"Ġsin":5883,"Ġwarn":5884,"Ġcul":5885,"Ġcosm":5886,"Ġfreed":5887,"Ġfitted":5888,"Ġfiring":5889,"Ġflesh":5890,"anish":5891,"Ġpage":5892,"Ġtom":5893,"Ġmel":5894,"Ġmint":5895,"Ġmental":5896,"Ġdow":5897,"ĠTu":5898,"ĠTOT":5899,"Ġrend":5900,"Ġrever":5901,"entially":5902,"ĠSatur":5903,"ĠCreek":5904,"Ġeth":5905,"Ġnations":5906,"Ġnightingale":5907,"ĠIS":5908,"Ġones":5909,"Ġgreen":5910,"idden":5911,"acity":5912,"ĠHan":5913,"ĠHal":5914,"ĠHomer":5915,"Ġstages":5916,"Ġstyles":5917,"ĠPope":5918,"ĠFA":5919,"ĠFam":5920,"ĠFront":5921,"Ġwhy":5922,"ĠWat":5923,"ĠWing":5924,"ĠWall":5925,"ĠWalk":5926,"ĠGood":5927,"ĠGreek":5928,"ĠNor":5929,"ĠLas":5930,"ĠLieutenant":5931,"agu":5932,"agre":5933,"istance":5934,"ode":5935,"Ġseg":5936,"Ġselect":5937,"ĠOl":5938,"resents":5939,"ĠInit":5940,"Ġrace":5941,"essed":5942,"Ġplaces":5943,"ĠKPA":5944,"Ġnoting":5945,"ĠStan":5946,"Ġherself":5947,"Ġunless":5948,"Ġyl":5949,"Ġintelligence":5950,"Ġcontaining":5951,"Ġcontributed":5952,"Ġadj":5953,"Ġcomputer":5954,"Ġ43":5955,"Ġdisappe":5956,"Ġ182":5957,"Ġrob":5958,"Ġpreced":5959,"Ġagg":5960,"Ġcommission":5961,"anges":5962,"Ġattributed":5963,"enses":5964,"Ġconsult":5965,"Ġassumed":5966,"Ġknots":5967,"Ġcoal":5968,"Ġends":5969,"Ġactress":5970,"ansfield":5971,"ĠNews":5972,"Ġwhereas":5973,"Ġsomeone":5974,"ugby":5975,"Ġentry":5976,"Ġprint":5977,"Ġdefin":5978,"Ġdefined":5979,"isms":5980,"Ġmovie":5981,"Ġoperated":5982,"Ġarmor":5983,"ropri":5984,"Ġexpress":5985,"Ġdistrict":5986,"Ġdistingu":5987,"Ġ130":5988,"Ġengines":5989,"Ġ150":5990,"Ġ1972":5991,"Ġrestrict":5992,"Ġstorylines":5993,"Ġgoes":5994,"Ġruns":5995,"Ġheaded":5996,"Ġheadquarters":5997,"Ġdemon":5998,"ĠPolice":5999,"Ġorganiz":6000,"Ġsentences":6001,"Ġprogress":6002,"Ġstarring":6003,"ĠBrigade":6004,"Ġdebate":6005,"ographic":6006,"Ġpossibly":6007,"Ġreality":6008,"ĠCarter":6009,"Ġrepresentative":6010,"Ġfung":6011,"Ġfacing":6012,"hens":6013,"Ġdelay":6014,"ĠImport":6015,"Ġcrime":6016,"ĠXIII":6017,"Ġfactors":6018,"Ġpatrol":6019,"Ã¡n":6020,"Ġbaseball":6021,"Ġfunds":6022,"ĠEdward":6023,"ĠRecording":6024,"Ġdifficulty":6025,"Ġgetting":6026,"Ġresponsibility":6027,"Ġdrink":6028,"ÃŃnyi":6029,"ĠMorrison":6030,"Ġclosely":6031,"Ġdenied":6032,"Ġbombard":6033,"Ġsettle":6034,"Ġhospitals":6035,"Ġoccupied":6036,"ĠRussia":6037,"Ġproblem":6038,"Ġcurrently":6039,"ĠJeff":6040,"Ġadaptation":6041,"Ġnarrow":6042,"ĠDefence":6043,"Ġfellow":6044,"Ġhouses":6045,"Ġaccounts":6046,"Ġregarded":6047,"Ġsubmarines":6048,"Ġfragilis":6049,"Ġterritory":6050,"Ġsequence":6051,"Ġinstitutions":6052,"ĠLoose":6053,"Ġturrets":6054,"Ġbadly":6055,"Ġobservations":6056,"ĠLeonardo":6057,"ĠFlower":6058,"ĠBono":6059,"Ġshrine":6060,"Ġpleasure":6061,"writer":6062,"Ġbottom":6063,"ĠNHL":6064,"ĠRevolution":6065,"Ġsymbol":6066,"Ġenjoyed":6067,"Ġassassination":6068,"ĠFrederick":6069,"ĠDougl":6070,"Ġsenior":6071,"ĠCecily":6072,"Ġreconstruction":6073,"ĠMeanwhile":6074,"Ġemergency":6075,"Ġdrug":6076,"ĠCullen":6077,"ĠBoston":6078,"ĠZrÃŃnyi":6079,"ĠSaturday":6080,"CA":6081,"CO":6082,"Hg":6083,"NS":6084,"VD":6085,"aired":6086,"bles":6087,"cru":6088,"crib":6089,"don":6090,"eed":6091,"fare":6092,"ging":6093,"hum":6094,"ks":6095,"kes":6096,"like":6097,"oT":6098,"ply":6099,"pson":6100,"whel":6101,"xts":6102,"zed":6103,"Ġ+":6104,"Ġtable":6105,"inet":6106,"Ġtheat":6107,"onium":6108,"Ġsn":6109,"Ġsan":6110,"Ġsalv":6111,"Ġwives":6112,"itan":6113,"Ġciting":6114,"ishes":6115,"Ġfix":6116,"Ġinh":6117,"ĠinHg":6118,"alent":6119,"Ġpit":6120,"Ġpric":6121,"Ġpush":6122,"Ġmom":6123,"Ġduty":6124,"Ġhot":6125,"ouis":6126,"ĠTor":6127,"ĠAri":6128,"ĠAoT":6129,"Ġthr":6130,"ĠSon":6131,"ĠSpr":6132,"elen":6133,"ĠCD":6134,"Ġlaid":6135,"Ġload":6136,"Ġet":6137,"unte":6138,"aming":6139,"ĠMr":6140,"ĠMot":6141,"ĠMass":6142,"ĠBol":6143,"ĠBron":6144,"igr":6145,"othes":6146,"otilla":6147,"tery":6148,"ĠHockey":6149,"Ġstem":6150,"Ġstories":6151,"Ġisol":6152,"ĠPo":6153,"ĠPower":6154,"ĠRa":6155,"ĠRo":6156,"ĠRÃ©":6157,"ĠWrit":6158,"ĠWomen":6159,"ĠGr":6160,"ĠGil":6161,"ĠLouis":6162,"osis":6163,"ĠDah":6164,"ĠJos":6165,"ĠJenn":6166,"Ġ1900":6167,"Ġseems":6168,"rif":6169,"ĠEarn":6170,"ĠObs":6171,"ocal":6172,"Ġvirt":6173,"Ġexchange":6174,"Ġchoice":6175,"Ġritual":6176,"ipl":6177,"uda":6178,"astrum":6179,"ĠKit":6180,"iance":6181,"Ġnothing":6182,"ĠStone":6183,"ĠStansfield":6184,"ĠChannel":6185,"ĠVer":6186,"ĠVol":6187,"Ġtwin":6188,"iege":6189,"peror":6190,"Ġrecre":6191,"Ġ59":6192,"ĠAlan":6193,"ĠAlbert":6194,"Ġdesire":6195,"Ġrow":6196,"Ġroyal":6197,"Ġoverwhel":6198,"Ġagree":6199,"Ġspeaking":6200,"Ġscoring":6201,"Ġspons":6202,"osexual":6203,"ensus":6204,"Ġconsc":6205,"Ġevil":6206,"ĠArts":6207,"Ġsecured":6208,"Ġ62":6209,"Ġwebs":6210,"Ġflank":6211,"Ġcool":6212,"Ġammun":6213,"Ġairfield":6214,"Ġacad":6215,"ĠMarsh":6216,"cks":6217,"Ġsurpr":6218,"Ġrepresents":6219,"Ġdecade":6220,"Ġnoise":6221,"Ġperforming":6222,"Ġinstall":6223,"vention":6224,"Ġoperates":6225,"ĠCommittee":6226,"Ġimplement":6227,"Ġshowed":6228,"Ġanything":6229,"Ġcommanded":6230,"Ġmusicians":6231,"Ġ1910":6232,"Ġ1915":6233,"Ġdesigns":6234,"ĠGeastrum":6235,"Ġ110":6236,"Ġclassified":6237,"ĠBeing":6238,"Ġ1936":6239,"uese":6240,"Ġ1977":6241,"Ġpassage":6242,"Ġrefers":6243,"Ġdemol":6244,"ĠPolit":6245,"Ġcapacity":6246,"Ġlasted":6247,"Ġ1961":6248,"nergy":6249,"Ġexperiment":6250,"Ġeffective":6251,"Ġopponent":6252,"Ġsky":6253,"Ġskin":6254,"Ġcommunities":6255,"Ġdetect":6256,"Ġelimin":6257,"Ġpropos":6258,"Ġcriticised":6259,"Ġglass":6260,"Ġgeneration":6261,"ĠDesign":6262,"ĠAmun":6263,"Ġgenre":6264,"Ġdecline":6265,"Ġfinding":6266,"Ġaffect":6267,"Ġcrisis":6268,"Ġfailure":6269,"ĠHistoric":6270,"ĠEnn":6271,"Ġmagic":6272,"ĠSpain":6273,"ĠSpanish":6274,"Ġsurvived":6275,"ĠAtlanta":6276,"Ġprograms":6277,"ĠSupp":6278,"Ġtechnical":6279,"Ġentirely":6280,"ifying":6281,"ĠCrab":6282,"Ġbillion":6283,"Ġmeasures":6284,"urban":6285,"Ġrecognized":6286,"ĠBrowns":6287,"Ġdoub":6288,"ĠAngl":6289,"ĠCoast":6290,"Ġmotion":6291,"Ġmissions":6292,"Ġemployed":6293,"Ġoccupation":6294,"Ġelectric":6295,"going":6296,"Ġimmediate":6297,"ĠFIFA":6298,"Ġknowledge":6299,"Ġhappy":6300,"Ġconcerned":6301,"Ġrequested":6302,"ĠOperations":6303,"Ġslowly":6304,"Ġdiagn":6305,"Ġwatched":6306,"ĠAviation":6307,"ĠWoodhouse":6308,"Ġneutral":6309,"Ġterritories":6310,"ĠMeri":6311,"Ġshells":6312,"Ġboxing":6313,"ĠTrip":6314,"ĠClassic":6315,"ĠDemocr":6316,"Ġwearing":6317,"Ġvehicles":6318,"ĠFairies":6319,"Ġspecimen":6320,"ĠIntelligence":6321,"Ġgranted":6322,"ĠWeekly":6323,"ĠModern":6324,"Ġexpedition":6325,"Ġdomestic":6326,"ĠForest":6327,"Ġbenefit":6328,"ĠFeelings":6329,"ĠPortuguese":6330,"Ġsustained":6331,"Ġsubstantial":6332,"Ġretirement":6333,"ĠIndependent":6334,"Ġcitizens":6335,"ographer":6336,"Ġcircumstances":6337,"Ġkilometres":6338,"ĠISBN":6339,"ĠDouglas":6340,"ĠEarnest":6341,"Ġammunition":6342,"Pa":6343,"after":6344,"chel":6345,"een":6346,"eper":6347,"iot":6348,"iour":6349,"ners":6350,"named":6351,"sin":6352,"test":6353,"vement":6354,"wall":6355,"yer":6356,"Ã¶":6357,"Ġtort":6358,"Ġtree":6359,"Ġtied":6360,"Ġtonn":6361,"Ġath":6362,"Ġaware":6363,"real":6364,"Ġsom":6365,"Ġselling":6366,"Ġori":6367,"Ġwed":6368,"Ġward":6369,"ora":6370,"Ġcards":6371,"enque":6372,"isf":6373,"Ġbow":6374,"Ġpack":6375,"Ġpap":6376,"asters":6377,"asury":6378,"roz":6379,"Ġmist":6380,"Ġmbar":6381,"Ġdri":6382,"Ġdog":6383,"Ġhall":6384,"ĠhPa":6385,"Ġreasons":6386,"ĠActor":6387,"ĠSub":6388,"ĠCle":6389,"ĠCap":6390,"Ġloyal":6391,"omic":6392,"unch":6393,"unning":6394,"olis":6395,"olics":6396,"Ġbeat":6397,"uries":6398,"ĠMur":6399,"ĠBus":6400,"ĠBoy":6401,"ĠBald":6402,"Ġgift":6403,"ida":6404,"igation":6405,"ĠHon":6406,"Ġstations":6407,"Ġstalk":6408,"Ġstanz":6409,"usal":6410,"ĠPanz":6411,"ĠPagoda":6412,"ĠRand":6413,"ĠGamb":6414,"Ġalleg":6415,"Ġconsec":6416,"Ġcontext":6417,"ĠNich":6418,"ĠNiel":6419,"ĠLab":6420,"ĠDo":6421,"Ġitems":6422,"oded":6423,"rier":6424,"ĠEnergy":6425,"Ġvic":6426,"Ġvice":6427,"opher":6428,"Ġextend":6429,"Ġexisting":6430,"Ġrub":6431,"Ġrise":6432,"ips":6433,"iper":6434,"essions":6435,"ishop":6436,"Ġarcher":6437,"Ġarranged":6438,"Ġnote":6439,"Ġnotable":6440,"ĠStation":6441,"Ġunus":6442,"ĠVice":6443,"ultane":6444,"Ġadvert":6445,"Ġpermitted":6446,"Ġresistance":6447,"ĠHealth":6448,"Ġrecur":6449,"Ġrecru":6450,"Ġdisrupt":6451,"ĠReagan":6452,"ibbe":6453,"Ġtexts":6454,"Ġspear":6455,"Ġcommit":6456,"iously":6457,"Ġneither":6458,"ailand":6459,"Ġconservation":6460,"Ġ64":6461,"Ġ65":6462,"Ġ66":6463,"iction":6464,"Ġproducing":6465,"Ġincome":6466,"Ġflat":6467,"Ġairports":6468,"ĠMarg":6469,"Ġsupporters":6470,"Ġsoft":6471,"Ġelections":6472,"ĠAnn":6473,"Ġsinging":6474,"Ġdiff":6475,"Ġpreserved":6476,"ĠConn":6477,"Ġobl":6478,"Ġ1989":6479,"ĠClaws":6480,"anna":6481,"ĠAden":6482,"Ġexposed":6483,"onym":6484,"atherine":6485,"Ġvariation":6486,"Ġsuccessor":6487,"Ġ06":6488,"Ġclasses":6489,"Ġ1938":6490,"Ġdivorce":6491,"Ġdivisions":6492,"Ġphase":6493,"Ġcastles":6494,"Ġextens":6495,"Ġguid":6496,"Ġreflect":6497,"ĠOrgan":6498,"Ġportion":6499,"Ġ1926":6500,"Ġ1954":6501,"Ġeditor":6502,"Ġstarts":6503,"Ġcapable":6504,"Ġworldwide":6505,"Ġbasic":6506,"Ġprogn":6507,"Ġtitled":6508,"Ġpossibility":6509,"Ġcovers":6510,"Ġeffectively":6511,"Ġappearing":6512,"ĠExeter":6513,"Ġdetected":6514,"Ġelse":6515,"Ġelabor":6516,"ĠCaribbe":6517,"Ġstrongly":6518,"Ġtypical":6519,"Ġtenure":6520,"Ġdeaths":6521,"Ġkilling":6522,"encies":6523,"Ġviews":6524,"ĠHarrison":6525,"ĠPalenque":6526,"Ġkept":6527,"Ġtourist":6528,"Ġreader":6529,"ĠCatholics":6530,"Ġdepicted":6531,"Ġtreated":6532,"Ġrecognition":6533,"Ġfields":6534,"Ġleukemic":6535,"Ġobjective":6536,"poration":6537,"Ġburial":6538,"Ġhosted":6539,"Ġsubsequent":6540,"Ġrebu":6541,"Ġensure":6542,"Ġabsor":6543,"ĠVegas":6544,"Ġphotograph":6545,"Ġvessel":6546,"Ġvictory":6547,"Ġinternal":6548,"ranean":6549,"ĠMLs":6550,"Ġdiscussed":6551,"Ġbringing":6552,"Ġrescue":6553,"Ġpreparation":6554,"Ġleadership":6555,"Ġaccompan":6556,"Ġpowers":6557,"Ġpowered":6558,"ĠSingles":6559,"ĠBosi":6560,"ĠBosn":6561,"ĠColumbus":6562,"Ġalternative":6563,"Ġdismiss":6564,"Ġspirit":6565,"Ġtimber":6566,"ĠThroughout":6567,"ĠPalestine":6568,"Ġteachers":6569,"Ġrepeated":6570,"Ġpremiered":6571,"Ġwithdraw":6572,"Ġmemory":6573,"Ġgarrison":6574,"ĠJamie":6575,"ĠScotland":6576,"Ġcandidate":6577,"ĠPersonal":6578,"ĠKhan":6579,"Ġreagents":6580,"ĠUyghurs":6581,"ĠAdditionally":6582,"Ġindustrial":6583,"ĠVirginia":6584,"ĠPakistan":6585,"Ġweakened":6586,"ĠGuardian":6587,"Ġsleep":6588,"ĠLaboratory":6589,"Ġtombs":6590,"Ġdownt":6591,"ĠImportance":6592,"ĠEnnis":6593,"ĠCaribbean":6594,"AF":6595,"DS":6596,"cle":6597,"cation":6598,"dney":6599,"ech":6600,"hire":6601,"ien":6602,"iable":6603,"jan":6604,"nance":6605,"ridge":6606,"win":6607,"xis":6608,"zher":6609,"zog":6610,"Ã³":6611,"Ġere":6612,"Ġtick":6613,"inus":6614,"incess":6615,"Ġtheatre":6616,"Ġsaves":6617,"Ġwitness":6618,"ito":6619,"itled":6620,"itarian":6621,"orial":6622,"Ġcold":6623,"Ġcities":6624,"Ġcrow":6625,"iskey":6626,"Ġfan":6627,"Ġfal":6628,"Ġfle":6629,"Ġfold":6630,"Ġbul":6631,"Ġtouring":6632,"room":6633,"Ġmess":6634,"Ġmile":6635,"Ġdies":6636,"Ġdrew":6637,"Ġdiet":6638,"Ġdaily":6639,"lecom":6640,"ĠAA":6641,"ĠAround":6642,"Ġthirty":6643,"ĠSym":6644,"ĠCub":6645,"ĠCricket":6646,"stream":6647,"Ġlit":6648,"Ġnick":6649,"Ġnurs":6650,"unsw":6651,"olved":6652,"olitan":6653,"Ġonto":6654,"uri":6655,"uration":6656,"ĠMall":6657,"ĠMatt":6658,"ĠBa":6659,"ĠBi":6660,"ĠBore":6661,"ĠBank":6662,"ĠBrand":6663,"ĠBaby":6664,"ĠBalt":6665,"ĠBudd":6666,"Ġgang":6667,"Ġgross":6668,"Ġforth":6669,"iminal":6670,"ĠHur":6671,"Ġstore":6672,"utional":6673,"etics":6674,"ĠPier":6675,"ĠRow":6676,"ĠRay":6677,"rage":6678,"ĠFall":6679,"ĠFoli":6680,"ĠWu":6681,"ĠWars":6682,"ĠGully":6683,"emies":6684,"ĠLes":6685,"ĠDis":6686,"ĠDang":6687,"ĠDVD":6688,"ĠJun":6689,"Ġhere":6690,"agogue":6691,"Ġsector":6692,"ĠEp":6693,"ĠEdu":6694,"illing":6695,"ĠOroz":6696,"Ġsuitable":6697,"Ġexpect":6698,"Ġshif":6699,"Ġchance":6700,"ĠKa":6701,"ources":6702,"ĠStr":6703,"Ġuncon":6704,"Ġyouth":6705,"ĠVan":6706,"Ġintr":6707,"Ġclothing":6708,"Ġaboard":6709,"Ġcontained":6710,"Ġpermission":6711,"oked":6712,"ĠThailand":6713,"Ġ53":6714,"Ġ55":6715,"Ġpartly":6716,"Ġparties":6717,"acht":6718,"Ġjet":6719,"Ġoverl":6720,"Ġagreement":6721,"Ġcommittee":6722,"ĠUnit":6723,"ĠSeas":6724,"Ġ89":6725,"ĠDep":6726,"insula":6727,"Ġamph":6728,"Ġamateur":6729,"Ġsubst":6730,"Ġquake":6731,"Ġ900":6732,"ĠLeg":6733,"Ġthereafter":6734,"Ġentering":6735,"ĠWhat":6736,"ĠBlof":6737,"Ġrepairs":6738,"Ġdecides":6739,"Ġcrews":6740,"Ġgovernor":6741,"anned":6742,"Ġarmament":6743,"Ġexpans":6744,"Ġcarbon":6745,"Ġdistributed":6746,"pective":6747,"Ġbattalion":6748,"ĠProv":6749,"ĠProtest":6750,"Ġ118":6751,"Ġ1931":6752,"Ġlands":6753,"Ġlandfall":6754,"Ġ1979":6755,"Ġexplo":6756,"Ġoccasion":6757,"Ġdifferences":6758,"Ġ1929":6759,"istered":6760,"ĠTelevision":6761,"Ġislands":6762,"Ġbelieves":6763,"Ġ1964":6764,"ĠJackets":6765,"attered":6766,"ĠBrunsw":6767,"Ġmarks":6768,"Ġarchaeologists":6769,"Ġsitu":6770,"Ġsket":6771,"Ġelder":6772,"ĠHaitians":6773,"Ġtries":6774,"Ġtrials":6775,"ruments":6776,"ĠWithin":6777,"Ġstead":6778,"Ġbattlecru":6779,"Ġmounted":6780,"Ġmountains":6781,"ĠMinistry":6782,"ĠChemical":6783,"Ġstatistics":6784,"Ġparish":6785,"ĠGeorg":6786,"Ġsignificantly":6787,"ĠHollywood":6788,"ĠWilliams":6789,"Ġaccommod":6790,"Ġ1861":6791,"ĠCorporation":6792,"Ġbills":6793,"Ġharbour":6794,"Ġresear":6795,"Ġsuperv":6796,"Ġtransportation":6797,"Ġgraduated":6798,"Ġmaterials":6799,"ĠHighland":6800,"Ġhousehold":6801,"Ġengineers":6802,"Ġdenomin":6803,"Ġmissing":6804,"Ġlaunch":6805,"Ġdaughters":6806,"Ġreveals":6807,"Ġprotest":6808,"Ġprotests":6809,"ĠMagazine":6810,"Ġstationed":6811,"Ġfiction":6812,"Ġcopy":6813,"Ġfocused":6814,"ĠErzher":6815,"Ġcaliber":6816,"Ġnucle":6817,"ĠTerrit":6818,"Ġabsence":6819,"ĠAbout":6820,"Ġsecretary":6821,"Ġarchitecture":6822,"Ġrhyme":6823,"Ġderived":6824,"Ġstrike":6825,"ĠLiSA":6826,"Ġautom":6827,"Ġlinked":6828,"Ġstopped":6829,"Ġexistence":6830,"Ġnegative":6831,"Ġmolecules":6832,"Ġconsiderable":6833,"ĠPrior":6834,"Ġbirds":6835,"Ġpanel":6836,"Ġneighbor":6837,"Ġinterpret":6838,"Ġincorporated":6839,"ĠThakur":6840,"ĠThaksin":6841,"Ġbehaviour":6842,"Ġninth":6843,"Ġdisplaced":6844,"ĠBroadway":6845,"Ġconfirmed":6846,"Ġreinforcements":6847,"Ġroughly":6848,"ĠMartin":6849,"Ġarticle":6850,"Ġsplit":6851,"Ġrhythm":6852,"Ġsemi":6853,"Ġdecorated":6854,"Ġpredecessor":6855,"Ġaccompanying":6856,"ĠFrancisco":6857,"Ġculmin":6858,"ĠWatson":6859,"ĠGilbert":6860,"Ġwebsite":6861,"ĠTripoli":6862,"Ġtonnes":6863,"Ġaccompanied":6864,"ĠFoliot":6865,"ĠOrozco":6866,"ĠBlofeld":6867,"ĠBrunswick":6868,"ĠErzherzog":6869,"awn":6870,"bes":6871,"bal":6872,"born":6873,"friend":6874,"gen":6875,"gery":6876,"haust":6877,"nic":6878,"napp":6879,"normal":6880,"pat":6881,"rad":6882,"rase":6883,"uate":6884,"Ã¼":6885,"Ġ#":6886,"Ġic":6887,"Ġur":6888,"Ġrib":6889,"Ġtail":6890,"Ġturb":6891,"Ġtells":6892,"Ġtanks":6893,"herent":6894,"Ġast":6895,"inery":6896,"erc":6897,"rees":6898,"Ġsam":6899,"Ġsons":6900,"Ġsens":6901,"Ġsoci":6902,"Ġwolf":6903,"Ġwrong":6904,"ita":6905,"itated":6906,"orida":6907,"Ġfit":6908,"Ġfast":6909,"Ġfert":6910,"Ġfair":6911,"Ġfaced":6912,"Ġbrand":6913,"Ġbones":6914,"Ġpounds":6915,"rous":6916,"lete":6917,"lease":6918,"ĠTot":6919,"Ġthing":6920,"ĠSil":6921,"ĠSyn":6922,"elly":6923,"ĠCa":6924,"ĠCam":6925,"ĠCarl":6926,"Ġnest":6927,"Ġnorm":6928,"aments":6929,"ĠMel":6930,"ĠMood":6931,"ĠMix":6932,"ĠMuch":6933,"ĠMTV":6934,"ĠBas":6935,"Ġgather":6936,"iger":6937,"oting":6938,"ĠHit":6939,"ĠHind":6940,"ĠHaw":6941,"Ġstreet":6942,"ulu":6943,"ĠFound":6944,"ĠWeather":6945,"ĠGra":6946,"Ġalle":6947,"ersey":6948,"anda":6949,"andal":6950,"ĠLin":6951,"estone":6952,"ĠDC":6953,"ĠDu":6954,"ĠDor":6955,"ĠJr":6956,"ĠJon":6957,"ĠJason":6958,"ĠJournal":6959,"ager":6960,"Ġdeleg":6961,"Ġprove":6962,"ĠEleph":6963,"ĠOlym":6964,"respond":6965,"Ġvoted":6966,"Ġexclud":6967,"Ġexisted":6968,"Ġexclus":6969,"anti":6970,"Ġshar":6971,"Ġru":6972,"Ġrig":6973,"Ġrich":6974,"Ġrising":6975,"ĠUr":6976,"ĠKenn":6977,"ella":6978,"ĠStu":6979,"iao":6980,"ĠChampionship":6981,"apes":6982,"uble":6983,"ieval":6984,"Ġclin":6985,"Ġabnormal":6986,"Ġencl":6987,"ĠThing":6988,"ĠThai":6989,"ĠAlong":6990,"Ġotherwise":6991,"Ġpartial":6992,"Ġimag":6993,"Ġimpl":6994,"ĠUnivers":6995,"Ġsche":6996,"Ġscience":6997,"phy":6998,"Ġremark":6999,"Ġremember":7000,"Ġrelative":7001,"ĠZagre":7002,"Ġ82":7003,"Ġ84":7004,"Ġ86":7005,"Ġ88":7006,"veland":7007,"Ġ77":7008,"Ġunderw":7009,"ĠDev":7010,"Ġcharity":7011,"Ġasserted":7012,"Ġ63":7013,"icture":7014,"Ġcenturies":7015,"Ġregions":7016,"Ġactual":7017,"Ġairspace":7018,"Ġraise":7019,"ĠWhere":7020,"Ġqual":7021,"Ġformal":7022,"aza":7023,"Ġmaint":7024,"Ġmaintain":7025,"Ġinvent":7026,"ĠAsian":7027,"Ġelev":7028,"Ġtrained":7029,"Ġ1945":7030,"Ġdecre":7031,"ĠJohnson":7032,"Ġinstance":7033,"Ġinstruments":7034,"ĠCommon":7035,"ĠCommun":7036,"Ġbrown":7037,"Ġcounties":7038,"Ġproviding":7039,"Ġmillime":7040,"Ġreceives":7041,"Ġinfantry":7042,"Ġinfrast":7043,"Ġminister":7044,"Ġminimum":7045,"Ġdescribe":7046,"Ġ1917":7047,"Ġreturns":7048,"Ġ1973":7049,"Ġprompt":7050,"Ġextrat":7051,"Ġguides":7052,"ĠChristine":7053,"ĠChristopher":7054,"ĠUSS":7055,"Ġmoder":7056,"Ġ1925":7057,"Ġdemand":7058,"ĠTeam":7059,"Ġwilling":7060,"Ġorganised":7061,"Ġcampus":7062,"Ġnorthwest":7063,"ĠBridge":7064,"ometric":7065,"Ġapproached":7066,"Ġturns":7067,"Ġtitles":7068,"Ġsitcom":7069,"Ġcellular":7070,"Ġoppos":7071,"Ġtowns":7072,"Ġpolitic":7073,"Ġrepresenting":7074,"Ġlimit":7075,"ĠSteve":7076,"Ġsolid":7077,"Ġreferences":7078,"ĠAntiqu":7079,"Ġsuggests":7080,"ĠImp":7081,"ĠEmperor":7082,"Ġeverything":7083,"Ġclubs":7084,"Ġmagn":7085,"Ġintroduction":7086,"ĠMcG":7087,"ĠMedical":7088,"Ġaudition":7089,"Ġcruisers":7090,"Ġtrend":7091,"Ġencouraged":7092,"Ġharm":7093,"ĠBeyond":7094,"Ġmeasuring":7095,"Ġswallow":7096,"ĠBarrow":7097,"Ġrecognised":7098,"Ġ1889":7099,"ĠFlorida":7100,"ĠSimilar":7101,"ĠParis":7102,"Ġdevast":7103,"Ġveget":7104,"Ġcouncil":7105,"Ġtowers":7106,"Ġfalling":7107,"ĠMagic":7108,"Ġsailors":7109,"Ġequipped":7110,"Ġmerch":7111,"Ġlearning":7112,"Ġimproved":7113,"Ġrules":7114,"Ġclearly":7115,"Ġvisitors":7116,"Ġkeeping":7117,"Ġhappened":7118,"Ġabsol":7119,"ĠPerform":7120,"Ġanimal":7121,"Ġanimals":7122,"Ġadopt":7123,"Ġsurrounded":7124,"Ġtemples":7125,"Ġcrossed":7126,"Ġcredit":7127,"Ġbattleship":7128,"ĠMontreal":7129,"ĠVictorian":7130,"Ġhousing":7131,"Ġsearching":7132,"ĠUNES":7133,"Ġarchitectural":7134,"Ġteaches":7135,"Ġregarding":7136,"Ġsacred":7137,"ĠSoir":7138,"Ġexamples":7139,"Ġwooden":7140,"ĠCampbell":7141,"Ġstrik":7142,"Ġfeelings":7143,"Ġjournalist":7144,"Ġsafe":7145,"Ġrailroad":7146,"Ġcompletion":7147,"Ġhoped":7148,"Ġlaboratory":7149,"Ġconvention":7150,"Ġpunishment":7151,"Ġdeployed":7152,"Ġpreparing":7153,"Ġassistant":7154,"Ġdominant":7155,"Ġdissip":7156,"Ġextreme":7157,"Ġextremely":7158,"ĠBooks":7159,"Ġchalleng":7160,"Ġfrequently":7161,"Ġquarterback":7162,"ĠTransport":7163,"Ġinterpreted":7164,"Ġvehicle":7165,"Ġbehavior":7166,"ĠPalestin":7167,"Ġclean":7168,"Ġdropped":7169,"ĠChildren":7170,"Ġduo":7171,"Ġshares":7172,"Ġpoetry":7173,"iatus":7174,"Ġwatching":7175,"Ġrifle":7176,"ĠTreasury":7177,"Ġattracted":7178,"Ġcytogen":7179,"Ġessential":7180,"ĠRyan":7181,"ĠExpressway":7182,"Ġdisturbance":7183,"ĠGrammy":7184,"ĠCrusader":7185,"Ġconnection":7186,"Ġterminus":7187,"chestra":7188,"ĠCOs":7189,"ĠDestroy":7190,"Ġcrops":7191,"ĠToday":7192,"ĠReturn":7193,"Ġfungus":7194,"ĠCleveland":7195,"Ġdowntown":7196,"Ġcrowd":7197,"ĠBoreas":7198,"ĠHuron":7199,"ĠMoody":7200,"ĠZagreb":7201,"Ġextratropical":7202,"ĠUNESCO":7203,"BS":7204,"din":7205,"gu":7206,"gers":7207,"hy":7208,"har":7209,"ji":7210,"lers":7211,"lock":7212,"lings":7213,"met":7214,"mates":7215,"pes":7216,"pent":7217,"pir":7218,"rator":7219,"rino":7220,"ture":7221,"Ġurban":7222,"Ġtale":7223,"Ġtank":7224,"Ġtempor":7225,"hetic":7226,"ini":7227,"Ġthesis":7228,"eria":7229,"erry":7230,"onies":7231,"reets":7232,"Ġske":7233,"Ġsoph":7234,"Ġsession":7235,"ede":7236,"Ġoct":7237,"Ġwave":7238,"Ġworth":7239,"atab":7240,"itia":7241,"orced":7242,"Ġcup":7243,"Ġfur":7244,"Ġfunk":7245,"Ġfestival":7246,"Ġbra":7247,"Ġbranch":7248,"Ġindu":7249,"Ġinduction":7250,"Ġpure":7251,"Ġpaint":7252,"asco":7253,"Ġtourn":7254,"Ġma":7255,"Ġdie":7256,"Ġdens":7257,"Ġdread":7258,"Ġhier":7259,"Ġhiatus":7260,"leton":7261,"ĠTess":7262,"ĠTell":7263,"Ġreven":7264,"ilst":7265,"Ġthin":7266,"ĠSay":7267,"ĠSab":7268,"ĠSomers":7269,"ĠSelen":7270,"ĠCult":7271,"ĠCape":7272,"ĠCamb":7273,"ĠCBS":7274,"sted":7275,"Ġlov":7276,"Ġliqu":7277,"Ġlayer":7278,"Ġwasn":7279,"olia":7280,"ĠMes":7281,"ĠMut":7282,"ĠMach":7283,"ĠMys":7284,"ĠBad":7285,"ĠBang":7286,"ĠBelf":7287,"Ġforb":7288,"Ġforcing":7289,"acent":7290,"Ġash":7291,"ĠHor":7292,"ĠHun":7293,"ĠHay":7294,"ĠHart":7295,"ĠHard":7296,"ĠPil":7297,"ĠPot":7298,"ĠPiper":7299,"ĠRoc":7300,"ĠRoll":7301,"ĠRhod":7302,"ĠRAF":7303,"ĠFear":7304,"ĠFood":7305,"ĠGM":7306,"ĠGPU":7307,"ĠNY":7308,"ĠNash":7309,"ĠLt":7310,"ĠLy":7311,"ĠLact":7312,"ĠLyn":7313,"Ġanch":7314,"osen":7315,"ĠDam":7316,"ĠDark":7317,"uma":7318,"Ġhear":7319,"ĠEst":7320,"illes":7321,"illas":7322,"illance":7323,"ĠOh":7324,"Ġsure":7325,"ifer":7326,"iful":7327,"ifest":7328,"iform":7329,"ocation":7330,"Ġvo":7331,"opl":7332,"ighter":7333,"Ġexception":7334,"Ġexhaust":7335,"Ġexerc":7336,"aked":7337,"Ġshots":7338,"Ġshaped":7339,"Ġchosen":7340,"Ġrays":7341,"ables":7342,"ĠUs":7343,"ĠUnt":7344,"asts":7345,"ĠKent":7346,"ĠKev":7347,"Ġlegend":7348,"Ġunf":7349,"ĠVern":7350,"ignment":7351,"Ġcontent":7352,"oking":7353,"Ġcomprom":7354,"Ġdisband":7355,"Ġmanner":7356,"Ġagency":7357,"Ġspend":7358,"Ġspeaker":7359,"Ġups":7360,"Ġupgr":7361,"ĠSevent":7362,"ĠSeven":7363,"fting":7364,"Ġrelocated":7365,"gans":7366,"Ġconsent":7367,"veillance":7368,"Ġ73":7369,"Ġ700":7370,"Ġassess":7371,"inson":7372,"Ġfled":7373,"Ġregiment":7374,"Ġamid":7375,"Ġinterchange":7376,"Ġacclaim":7377,"Ġrain":7378,"Ġsupposed":7379,"Ġappropri":7380,"Ġ95":7381,"ĠLee":7382,"tenance":7383,"Ġmainland":7384,"Ġmaintenance":7385,"Ġapart":7386,"Ġcalls":7387,"ĠAsh":7388,"Ġrepair":7389,"Ġtransition":7390,"Ġmetall":7391,"Ġinstalled":7392,"Ġ1981":7393,"Ġoperational":7394,"Ġoperating":7395,"iversary":7396,"Ġprovisions":7397,"Ġadding":7398,"Ġcontinental":7399,"Ġreceiving":7400,"Ġdestination":7401,"ĠProg":7402,"Ġannually":7403,"ĠFeast":7404,"ĠBefore":7405,"Ġmarrow":7406,"Ġlanded":7407,"ooking":7408,"Ġ1971":7409,"Ġ1974":7410,"Ġ1975":7411,"Ġuseful":7412,"Ġrefuge":7413,"Ġheads":7414,"Ġ1921":7415,"Ġ1922":7416,"Ġ1959":7417,"Ġlisten":7418,"Ġlisting":7419,"Ġmedal":7420,"Ġmedium":7421,"Ġreviewed":7422,"empo":7423,"Ġsimply":7424,"Ġbasin":7425,"Ġnorthward":7426,"ĠPlot":7427,"Ġestablish":7428,"Ġestablishing":7429,"archy":7430,"ĠHeritage":7431,"Ġevening":7432,"Ġvisual":7433,"ĠCentre":7434,"Ġskull":7435,"Ġwindows":7436,"Ġequal":7437,"ĠTwins":7438,"Ġwinner":7439,"Ġbarrow":7440,"Ġcriticism":7441,"Ġfacility":7442,"Ġnovels":7443,"ĠAmong":7444,"Ġfailing":7445,"Ġstatute":7446,"Ġprofession":7447,"Ġerr":7448,"iterranean":7449,"ĠPalace":7450,"Ġgoods":7451,"Ġcirculation":7452,"Ġfundament":7453,"Ġviolent":7454,"ĠMcC":7455,"Ġsurvive":7456,"Ġcivilians":7457,"ĠMediterranean":7458,"Ġacceptable":7459,"Ġidentity":7460,"Ġidentify":7461,"Ġearliest":7462,"Ġcorrect":7463,"Ġcorrespond":7464,"ĠHoly":7465,"reme":7466,"Ġfreeway":7467,"ASA":7468,"Ġsuperior":7469,"Ġ1880":7470,"chers":7471,"Ġroads":7472,"Ġengineering":7473,"ĠQueens":7474,"Ġhomosexual":7475,"Ġrenov":7476,"Ġobjects":7477,"Ġsailing":7478,"Ġpraise":7479,"Ġpersons":7480,"Ġimprove":7481,"Ġcalc":7482,"Ġseriously":7483,"Ġrebell":7484,"Ġnarrative":7485,"Ġconcerns":7486,"ĠNazi":7487,"Ġpoorly":7488,"Ġsatell":7489,"Ġdispat":7490,"Ġprepare":7491,"Ġtargets":7492,"Ġframe":7493,"Ġdeparted":7494,"ĠParty":7495,"Ġinstitution":7496,"ĠCharts":7497,"ĠSingh":7498,"Ġagriculture":7499,"Ġacquired":7500,"Ġpolicy":7501,"Ġinjured":7502,"Ġmolecular":7503,"Ġhundreds":7504,"ĠProteins":7505,"Ġfavorite":7506,"Ġ1794":7507,"ĠSpecial":7508,"ĠBelgium":7509,"Ġpremiere":7510,"Ġmoored":7511,"ĠCornwall":7512,"ĠKnights":7513,"Ġlicens":7514,"ĠBreese":7515,"Ġindicate":7516,"Ġsynthesis":7517,"Ġdelivered":7518,"ĠAppe":7519,"Ġpregnancy":7520,"ĠJulian":7521,"Ġsucceeded":7522,"Ġcolumns":7523,"ĠScottish":7524,"ĠOrigin":7525,"Ġhemm":7526,"roscopic":7527,"ĠTreaty":7528,"ĠCabral":7529,"Ġinspiration":7530,"Ġtissue":7531,"Ġtherapy":7532,"Ġethnic":7533,"Ġorganizations":7534,"Ġsettlements":7535,"ĠSpring":7536,"ĠDahl":7537,"Ġrituals":7538,"Ġairfields":7539,"ĠAnglo":7540,"Ã¶n":7541,"Ġsomew":7542,"Ġwedding":7543,"ĠMurphy":7544,"Ġconsecutive":7545,"ultaneously":7546,"Ġdismissed":7547,"ĠRowson":7548,"ĠDangerous":7549,"ĠEducation":7550,"Ġexpansion":7551,"Ġnormally":7552,"ĠFoundation":7553,"Ġalleged":7554,"ĠStuart":7555,"Ġinfrastructure":7556,"Ġtemporarily":7557,"ĠTessa":7558,"ĠSomerset":7559,"ĠBelfast":7560,"ĠKevin":7561,"CL":7562,"ID":7563,"TA":7564,"aÃ":7565,"body":7566,"cest":7567,"ever":7568,"fire":7569,"hat":7570,"hua":7571,"ls":7572,"load":7573,"mes":7574,"pah":7575,"rates":7576,"rint":7577,"sogn":7578,"the":7579,"vant":7580,"Ã¤":7581,"Ġut":7582,"Ġurg":7583,"Ġtun":7584,"Ġtut":7585,"Ġtone":7586,"Ġtemporary":7587,"hem":7588,"hew":7589,"inated":7590,"inary":7591,"atically":7592,"Ġcod":7593,"Ġcry":7594,"Ġcatch":7595,"Ġcrown":7596,"Ġfishing":7597,"arant":7598,"aria":7599,"arius":7600,"Ġbind":7601,"Ġbull":7602,"Ġpup":7603,"Ġpagoda":7604,"asy":7605,"Ġtools":7606,"icide":7607,"Ġham":7608,"Ġhol":7609,"Ġhind":7610,"Ġhockey":7611,"ĠTan":7612,"ĠTenn":7613,"Ġrevers":7614,"ĠAk":7615,"Ġthrow":7616,"ĠCu":7617,"ĠColl":7618,"ĠCateg":7619,"Ġnob":7620,"ĠThen":7621,"ĠId":7622,"Ġongoing":7623,"ĠMu":7624,"ĠMort":7625,"ĠBat":7626,"ĠBir":7627,"ĠBurn":7628,"ĠBeller":7629,"Ġgust":7630,"Ġgets":7631,"ĠHu":7632,"ĠHorus":7633,"utation":7634,"ĠPC":7635,"ĠPers":7636,"ĠPigg":7637,"ĠRon":7638,"ĠRear":7639,"ĠRap":7640,"Ġwhiskey":7641,"ĠWiz":7642,"ĠWels":7643,"ĠGem":7644,"Ġalter":7645,"Ġcong":7646,"ĠNote":7647,"ĠLate":7648,"ĠLine":7649,"ĠLiz":7650,"ĠLamb":7651,"Ġanime":7652,"Ġanger":7653,"ĠDave":7654,"ĠDisc":7655,"ĠJersey":7656,"agues":7657,"Ġproc":7658,"Ġproceed":7659,"Ġproceeded":7660,"peare":7661,"ĠEight":7662,"ĠEvery":7663,"ĠEASA":7664,"ĠOak":7665,"Ġvac":7666,"Ġvow":7667,"Ġvary":7668,"Ġvote":7669,"Ġorn":7670,"Ġchrom":7671,"Ġchronic":7672,"Ġchannel":7673,"Ġchorus":7674,"abil":7675,"pty":7676,"pton":7677,"ipel":7678,"udes":7679,"Ġplate":7680,"aste":7681,"ĠKar":7682,"ĠKir":7683,"acks":7684,"Ġlect":7685,"Ġker":7686,"Ġuniform":7687,"ĠVert":7688,"Ġabol":7689,"Ġperceived":7690,"Ġperhaps":7691,"Ġresources":7692,"Ġcompar":7693,"Ġcomponents":7694,"hedral":7695,"ĠThird":7696,"ĠAlf":7697,"Ġaftermath":7698,"Ġjew":7699,"Ġrose":7700,"Ġroll":7701,"oyd":7702,"Ġcommemor":7703,"angular":7704,"Ġspot":7705,"Ġremn":7706,"renadier":7707,"formation":7708,"ĠArthur":7709,"Ġshipping":7710,"Ġboil":7711,"Ġproduces":7712,"Ġwealth":7713,"Ġincom":7714,"Ġbuoy":7715,"Ġflu":7716,"Ġinterior":7717,"Ġretreat":7718,"terson":7719,"Ġtruth":7720,"Ġquant":7721,"Ġ99":7722,"ĠShakes":7723,"Ġdoors":7724,"Ġcaught":7725,"Ġsurge":7726,"ĠLeban":7727,"Ġsoil":7728,"ugg":7729,"ĠAtt":7730,"Ġentertain":7731,"Ġlocally":7732,"ĠAsia":7733,"Ġelegans":7734,"Ġtrav":7735,"Ġ122":7736,"Ġ1948":7737,"Ġdecomm":7738,"ĠAnup":7739,"fully":7740,"ĠConference":7741,"Ġobst":7742,"emble":7743,"Ġstudied":7744,"Ġoperate":7745,"Ġestuary":7746,"anning":7747,"annah":7748,"Ġaddress":7749,"Ġimprison":7750,"Ġexposure":7751,"ĠMegaliths":7752,"Ġterror":7753,"Ġreceive":7754,"Ġconstruct":7755,"erves":7756,"Ġopenings":7757,"Ġfeed":7758,"Ġ176":7759,"Ġ03":7760,"Ġanniversary":7761,"Ġ114":7762,"Ġ117":7763,"Ġ1935":7764,"Ġpromote":7765,"ĠPrism":7766,"ĠPrivate":7767,"uthor":7768,"Ġpasses":7769,"ĠOrsogn":7770,"Ġports":7771,"Ġ1927":7772,"Ġ1957":7773,"ĠTechn":7774,"Ġattempting":7775,"Ġconfront":7776,"ĠPlan":7777,"ĠPlayer":7778,"Ġ1968":7779,"Ġstands":7780,"ĠRomania":7781,"Ġdebris":7782,"Ġreplied":7783,"Ġapproved":7784,"Ġperiods":7785,"Ġmarking":7786,"Ġcommunication":7787,"Ġwindow":7788,"Ġfunctions":7789,"Ġpropag":7790,"Ġsuggesting":7791,"ĠAmend":7792,"Ġcharts":7793,"Ġmounts":7794,"Ġfinds":7795,"Ġcriminal":7796,"Ġrocks":7797,"ĠXin":7798,"Ġassociations":7799,"Ġinterests":7800,"Ġsignificance":7801,"ambers":7802,"coming":7803,"cope":7804,"Ġcircle":7805,"Ġchanging":7806,"Ġconvin":7807,"Ġcondem":7808,"Ġescaped":7809,"Ġholds":7810,"Ġmassive":7811,"Ġharbor":7812,"Ġ1870":7813,"Ġveter":7814,"Ġmissile":7815,"Ġhonour":7816,"Ġbombers":7817,"ĠMexican":7818,"Ġprevented":7819,"ĠPatterson":7820,"Ġruling":7821,"ĠGlas":7822,"ĠSwed":7823,"Ġregularly":7824,"Ġanimated":7825,"ĠDefense":7826,"Ġinvestigation":7827,"ĠStudio":7828,"Ġimmigration":7829,"cientious":7830,"Ġhoused":7831,"Ġblockade":7832,"Ġillust":7833,"ĠCivilian":7834,"Ġunclear":7835,"Ġ1849":7836,"Ġremixed":7837,"ĠGabri":7838,"Ġcelebrated":7839,"ĠSystem":7840,"Ġconventional":7841,"Ġjobs":7842,"Ġaerodrome":7843,"Ġapplied":7844,"Ġpatterns":7845,"Ġchallenge":7846,"Ġprisoners":7847,"Ġshooting":7848,"ĠProtein":7849,"Ġreforms":7850,"Ġrarely":7851,"Ġsulfide":7852,"ĠBloody":7853,"Ġassembled":7854,"Ġspecimens":7855,"ĠSusan":7856,"Ġeasy":7857,"Ġportrayed":7858,"Ġshaft":7859,"Ġdelivery":7860,"ĠAstrae":7861,"ĠFerdin":7862,"Ġproducts":7863,"ĠJerusal":7864,"ĠMichel":7865,"Ġmyeloid":7866,"Ġglobal":7867,"ĠPeninsula":7868,"Ġdigital":7869,"ĠDynasty":7870,"Ġjunior":7871,"Ġ878":7872,"Ġhelicopters":7873,"Ġfrigates":7874,"Ġenlisted":7875,"ergrenadier":7876,"ĠFamily":7877,"Ġsegment":7878,"ĠInitially":7879,"Ġylide":7880,"ĠBronx":7881,"Ġacademic":7882,"Ġproposal":7883,"ĠSupport":7884,"Ġathlet":7885,"Ġstanza":7886,"ĠPanzergrenadier":7887,"Ġunusual":7888,"Ġfalse":7889,"ĠProtestant":7890,"Ġoccasionally":7891,"Ġsketch":7892,"Ġopposite":7893,"ĠDestroyer":7894,"ĠMysore":7895,"ĠRhode":7896,"ĠLactarius":7897,"ĠCategory":7898,"ĠPiggott":7899,"ĠWelsh":7900,"ĠVertigo":7901,"ĠShakespeare":7902,"ĠOrsogna":7903,"ĠAstraeus":7904,"ĠFerdinand":7905,"ĠJerusalem":7906,"PL":7907,"cript":7908,"eu":7909,"eke":7910,"gon":7911,"gow":7912,"hler":7913,"iob":7914,"iÃ¨":7915,"more":7916,"mosp":7917,"na":7918,"oen":7919,"rating":7920,"tation":7921,"tah":7922,"vity":7923,"ya":7924,"yard":7925,"ycl":7926,"Ġice":7927,"heastern":7928,"Ġacted":7929,"iner":7930,"onel":7931,"onial":7932,"rep":7933,"Ġsib":7934,"Ġsitting":7935,"Ġsiege":7936,"Ġoption":7937,"Ġwre":7938,"Ġwel":7939,"Ġwait":7940,"Ġwants":7941,"Ġwaves":7942,"atively":7943,"itchel":7944,"organ":7945,"Ġcinema":7946,"enger":7947,"Ġfir":7948,"Ġfra":7949,"Ġfranch":7950,"Ġblow":7951,"Ġinte":7952,"ala":7953,"Ġpier":7954,"Ġphen":7955,"ashed":7956,"Ġtouch":7957,"icate":7958,"Ġmun":7959,"Ġmales":7960,"Ġduration":7961,"Ġhun":7962,"Ġhip":7963,"ĠTen":7964,"ĠTay":7965,"ĠTax":7966,"ĠTai":7967,"Ġreun":7968,"Ġrender":7969,"ilation":7970,"ilian":7971,"ĠAI":7972,"ĠAz":7973,"ĠAmy":7974,"ĠAuthor":7975,"ĠSet":7976,"ĠSri":7977,"ĠSign":7978,"ĠSix":7979,"ĠSuch":7980,"ĠSipp":7981,"eli":7982,"eloc":7983,"elve":7984,"ĠCas":7985,"ĠCel":7986,"ĠCroy":7987,"ĠClear":7988,"ĠClement":7989,"ĠCoty":7990,"Ġlob":7991,"Ġlane":7992,"Ġlosing":7993,"Ġnut":7994,"Ġnav":7995,"unes":7996,"unction":7997,"amm":7998,"amos":7999,"olin":8000,"Ġbeam":8001,"ĠMun":8002,"ĠMand":8003,"ĠMack":8004,"ĠMah":8005,"ĠMitchel":8006,"ĠBal":8007,"ĠBig":8008,"ĠBall":8009,"ĠBru":8010,"ĠBann":8011,"ĠBoys":8012,"Ġgain":8013,"Ġgone":8014,"Ġgamb":8015,"Ġgolf":8016,"Ġforty":8017,"imer":8018,"imens":8019,"acle":8020,"acles":8021,"irts":8022,"othe":8023,"ĠHa":8024,"ĠHop":8025,"ĠHaving":8026,"ĠHoms":8027,"Ġstim":8028,"Ġstream":8029,"ĠPitt":8030,"ĠPoint":8031,"ĠRom":8032,"ĠRivers":8033,"char":8034,"ĠFre":8035,"ĠFive":8036,"ĠFact":8037,"ĠFisc":8038,"ĠWin":8039,"ĠGen":8040,"ĠGround":8041,"ĠGael":8042,"ĠGaga":8043,"empl":8044,"Ġconj":8045,"Ġconclusion":8046,"ĠLim":8047,"ĠLank":8048,"Ġanth":8049,"ĠDown":8050,"ĠDeath":8051,"ĠDNA":8052,"ĠDarden":8053,"umes":8054,"ĠJen":8055,"ĠJup":8056,"ĠJones":8057,"ags":8058,"Ġproport":8059,"rific":8060,"ĠEve":8061,"ĠElect":8062,"Ġcomed":8063,"Ġcomments":8064,"Ġcomfort":8065,"ĠOcc":8066,"ifically":8067,"Ġexact":8068,"Ġexcess":8069,"Ġram":8070,"ardo":8071,"iph":8072,"Ġplants":8073,"ĠKarl":8074,"ĠKatherine":8075,"iang":8076,"Ġleaves":8077,"Ġarrang":8078,"ighted":8079,"ureau":8080,"ouses":8081,"Ġunrest":8082,"oguan":8083,"Ġyellow":8084,"apers":8085,"ignity":8086,"Ġclothes":8087,"assad":8088,"Ġadul":8089,"Ġadmitted":8090,"Ġperc":8091,"Ġresigned":8092,"Ġenemies":8093,"Ġcomposition":8094,"Ġrecalled":8095,"Ġ41":8096,"Ġdisag":8097,"Ġdisabled":8098,"ĠAlamos":8099,"Ġdescend":8100,"achute":8101,"Ġmanual":8102,"Ġafterwards":8103,"Ġjourney":8104,"Ġovert":8105,"Ġoverse":8106,"Ġspending":8107,"ĠUnlike":8108,"anged":8109,"Ġspur":8110,"Ġneck":8111,"Ġattached":8112,"weig":8113,"reath":8114,"rible":8115,"ĠArd":8116,"icted":8117,"Ġfilming":8118,"oba":8119,"aware":8120,"Ġflint":8121,"Ġflash":8122,"Ġcoined":8123,"Ġcooper":8124,"Ġregul":8125,"Ġregulation":8126,"Ġendors":8127,"Ġsubty":8128,"Ġinteraction":8129,"Ġacres":8130,"Ġwrites":8131,"Ġwritings":8132,"Ġquite":8133,"Ġquoted":8134,"Ġapprec":8135,"Ġformally":8136,"icks":8137,"Ġ91":8138,"Ġ93":8139,"Ġverse":8140,"Ġdoctor":8141,"Ġsurgery":8142,"Ġreleases":8143,"Ġindicated":8144,"Ġrecordings":8145,"Ġentitled":8146,"Ġlocations":8147,"Ġpriv":8148,"Ġrepet":8149,"Ġrepublic":8150,"Ġreputation":8151,"Ġtransform":8152,"ĠAnth":8153,"ĠAncient":8154,"Ġmilitia":8155,"Ġfoundation":8156,"roll":8157,"ĠManual":8158,"Ġdiscussion":8159,"Ġwarfare":8160,"Ġgameplay":8161,"Ġmusician":8162,"Ã©t":8163,"Ġ09":8164,"Ġgrade":8165,"ĠProf":8166,"ĠProto":8167,"ossible":8168,"Ġannoy":8169,"Ġconsiders":8170,"ĠBeach":8171,"ĠScience":8172,"aha":8173,"Ġchef":8174,"Ġbrig":8175,"Ġ1958":8176,"ĠMonica":8177,"Ġbelieving":8178,"ĠPlaying":8179,"Ġ1967":8180,"ĠBrad":8181,"Ġturning":8182,"Ġfootage":8183,"ivalent":8184,"Ġlatex":8185,"Ġopponents":8186,"Ġauthors":8187,"Ġskill":8188,"pended":8189,"ĠPhys":8190,"ĠTwice":8191,"Ġstronger":8192,"Ġstructural":8193,"encing":8194,"ĠRepublican":8195,"ĠAnton":8196,"oxide":8197,"ĠImm":8198,"ĠEmily":8199,"Ġviewed":8200,"Ġeveryone":8201,"Ġpatron":8202,"ĠChess":8203,"Ġstatement":8204,"ĠHarvey":8205,"Ġinterested":8206,"Ġprofessor":8207,"Ġearthst":8208,"Ġmixing":8209,"ĠPalin":8210,"ĠMichigan":8211,"Ġradius":8212,"Ġzone":8213,"Ġzoo":8214,"Ġannounce":8215,"Ġviolation":8216,"Ġsurviving":8217,"Ġdifficulties":8218,"ĠMedia":8219,"Ġargues":8220,"Ġpoems":8221,"ĠIslands":8222,"Ġ1890":8223,"Ġestimates":8224,"ĠCooper":8225,"ĠHighway":8226,"Ġdonations":8227,"Ġvolunte":8228,"Ġemployment":8229,"Ġpotentially":8230,"Ġasks":8231,"Ġseeing":8232,"Ġinformed":8233,"Ġreveal":8234,"Ġprotagon":8235,"Ġvariations":8236,"ĠKorea":8237,"Ġremoval":8238,"Ġfallen":8239,"Ġsailed":8240,"Ġintensified":8241,"atinum":8242,"Ġruled":8243,"ĠPrinceton":8244,"Ġlying":8245,"Ġconcerning":8246,"Ġceleb":8247,"Ġmuseums":8248,"Ġsatisf":8249,"ĠArtist":8250,"Ġgirls":8251,"Ġdiame":8252,"Ġnominations":8253,"utzpah":8254,"Ġphysic":8255,"Ġbatteries":8256,"Ġuncertain":8257,"Ġweapon":8258,"Ġsynagogue":8259,"Ġembarked":8260,"Ġdeparture":8261,"Ġcelebrate":8262,"ĠSydney":8263,"Ġunlike":8264,"Ġassistance":8265,"Ġdominated":8266,"ĠPlayers":8267,"Ġpursue":8268,"Ġquestioned":8269,"Ġinjury":8270,"ĠWorks":8271,"ĠColumbia":8272,"Ġdynamic":8273,"Ġkingdom":8274,"Ġmutual":8275,"ĠShaoguan":8276,"ĠGarth":8277,"Ġneighbour":8278,"Ġpromotion":8279,"Ġpicked":8280,"Ġprincipal":8281,"Ġstruggle":8282,"Ġemphasis":8283,"ĠEllis":8284,"Ġrevolutionary":8285,"ĠMountain":8286,"Ġsteps":8287,"Ġfilled":8288,"ĠHoward":8289,"ĠJacob":8290,"ĠChapat":8291,"Ġrecommended":8292,"ĠAdams":8293,"ĠRailway":8294,"ĠRailroad":8295,"Ġadventure":8296,"Ġcollaboration":8297,"Ġrifles":8298,"Ġpregnant":8299,"Ġadministration":8300,"Ġhabitat":8301,"Ġencountered":8302,"Ġdictator":8303,"ĠSavannah":8304,"ĠOpen":8305,"ĠOfficer":8306,"Ġanalyzed":8307,"ĠDarwin":8308,"Ġopportunity":8309,"ĠConfederate":8310,"ĠHospitallers":8311,"Ġpuzzles":8312,"Ġwarships":8313,"Ġenzymes":8314,"ĠCharacters":8315,"ĠMagnolia":8316,"Ġtubes":8317,"Ġpulled":8318,"Ġmaskray":8319,"ĠRemix":8320,"Ġinstrumental":8321,"Ġoccasions":8322,"Ġbombardment":8323,"Ġfixed":8324,"Ġmoment":8325,"igrants":8326,"Ġisolated":8327,"ĠObserv":8328,"Ġeliminate":8329,"ĠNielsen":8330,"Ġerected":8331,"ĠBuddhist":8332,"Ġsituations":8333,"ĠHighlanders":8334,"Ġdenomination":8335,"ĠElephanta":8336,"ĠDevon":8337,"Ġmerchant":8338,"ĠPalestinian":8339,"Ġdensity":8340,"Ġdreadn":8341,"ĠVerne":8342,"ĠSeventeenth":8343,"Ġfundamental":8344,"Ġrebellion":8345,"Ġsatellite":8346,"Ġdispatched":8347,"ĠOriginally":8348,"Ġsomewhat":8349,"ĠTennant":8350,"ĠWizards":8351,"ĠGemma":8352,"ĠLambton":8353,"Ġentertainment":8354,"Ġconvinced":8355,"ĠGlasgow":8356,"ekend":8357,"oenix":8358,"ĠTaylor":8359,"ĠSippy":8360,"ĠCroydon":8361,"Ġgambling":8362,"ĠFischer":8363,"82":8364,"EC":8365,"VP":8366,"cel":8367,"ih":8368,"ioc":8369,"iations":8370,"iants":8371,"je":8372,"jÃ¡n":8373,"know":8374,"mn":8375,"mouth":8376,"nal":8377,"ooth":8378,"pan":8379,"rich":8380,"tinent":8381,"uv":8382,"uating":8383,"wan":8384,"xi":8385,"ye":8386,"yi":8387,"za":8388,"Ã¢":8389,"Ġtape":8390,"Ġtelling":8391,"Ġtenth":8392,"het":8393,"Ġaided":8394,"inations":8395,"indu":8396,"insey":8397,"eral":8398,"onic":8399,"onomy":8400,"rete":8401,"Ġsad":8402,"Ġsell":8403,"Ġsung":8404,"Ġwore":8405,"atus":8406,"itely":8407,"itively":8408,"orer":8409,"orjÃ¡n":8410,"isations":8411,"Ġfault":8412,"Ġfasc":8413,"arity":8414,"Ġbin":8415,"Ġbes":8416,"Ġbal":8417,"Ġbought":8418,"Ġborrow":8419,"Ġinland":8420,"Ġinfer":8421,"Ġinhib":8422,"alty":8423,"Ġpump":8424,"ingal":8425,"icial":8426,"Ġmal":8427,"Ġmound":8428,"Ġmind":8429,"Ġmock":8430,"Ġmush":8431,"Ġmemor":8432,"Ġdress":8433,"Ġdrop":8434,"Ġdipl":8435,"Ġdignity":8436,"Ġhang":8437,"ĠTurt":8438,"Ġreop":8439,"illy":8440,"ĠAer":8441,"ĠAway":8442,"ĠSite":8443,"ĠSpec":8444,"ela":8445,"eline":8446,"ĠCat":8447,"ĠCur":8448,"ĠCome":8449,"ĠCase":8450,"ĠCarn":8451,"Ġlat":8452,"Ġlists":8453,"Ġloud":8454,"Ġlibrary":8455,"Ġegg":8456,"adic":8457,"olt":8458,"ĠIV":8459,"ĠIll":8460,"urer":8461,"uris":8462,"lyn":8463,"lyph":8464,"ĠMG":8465,"ĠMI":8466,"ĠMaur":8467,"ĠMumb":8468,"ĠMVP":8469,"ĠBand":8470,"ĠBask":8471,"ivated":8472,"ivals":8473,"ota":8474,"otic":8475,"ĠHunt":8476,"ĠHindu":8477,"Ġstyl":8478,"Ġstrict":8479,"eto":8480,"etts":8481,"ĠPay":8482,"ĠRav":8483,"ĠRome":8484,"ĠFar":8485,"ĠFle":8486,"ĠFree":8487,"ĠFlying":8488,"ĠWily":8489,"ĠWelling":8490,"ĠGot":8491,"ĠGama":8492,"ĠGarden":8493,"ĠGiants":8494,"thi":8495,"Ġconve":8496,"Ġconference":8497,"ĠNi":8498,"ĠNat":8499,"ĠNear":8500,"ĠLud":8501,"ĠLast":8502,"ĠLane":8503,"ĠLibrary":8504,"ĠLocal":8505,"ĠLulu":8506,"Ġancest":8507,"Ġatmosp":8508,"oso":8509,"osy":8510,"osion":8511,"ĠDw":8512,"ĠDet":8513,"ĠDiss":8514,"ĠDuck":8515,"umption":8516,"ĠJill":8517,"ĠJud":8518,"Ġhen":8519,"agen":8520,"istol":8521,"aved":8522,"odore":8523,"Ġsees":8524,"Ġseemed":8525,"ĠEigh":8526,"ortion":8527,"Ġvent":8528,"Ġvul":8529,"Ġvide":8530,"Ġvision":8531,"Ġvital":8532,"ĠInc":8533,"oples":8534,"ewhere":8535,"ighters":8536,"Ġexch":8537,"Ġshift":8538,"Ġchampionship":8539,"Ġrated":8540,"Ġracing":8541,"ipede":8542,"Ġpled":8543,"Ġplatinum":8544,"mented":8545,"tees":8546,"ĠKen":8547,"ĠKnow":8548,"orders":8549,"elli":8550,"ruption":8551,"ĠStand":8552,"ĠChas":8553,"ĠChairman":8554,"ĠChutzpah":8555,"ostic":8556,"cles":8557,"Ġunnamed":8558,"apse":8559,"ĠVers":8560,"ĠVenge":8561,"ĠVasco":8562,"Ġtwice":8563,"Ġintention":8564,"Ġcontest":8565,"Ġcontribution":8566,"Ġreserve":8567,"ĠHend":8568,"outs":8569,"Ġenh":8570,"Ġcomponent":8571,"ĠRecon":8572,"ĠReaction":8573,"ricted":8574,"ĠAlb":8575,"ibious":8576,"ĠYu":8577,"Ġmanip":8578,"Ġmanifest":8579,"Ġroots":8580,"Ġages":8581,"Ġscar":8582,"Ġscra":8583,"Ġscope":8584,"Ġattitude":8585,"inder":8586,"ĠZion":8587,"ĠZweig":8588,"Ġunderstanding":8589,"issance":8590,"Ġ69":8591,"Ġmegal":8592,"ĠComb":8593,"ĠComedy":8594,"Ġpeaking":8595,"Ġregistered":8596,"Ġacknow":8597,"Ġraising":8598,"Ġretained":8599,"ĠMaria":8600,"Ġsuppl":8601,"Ġformat":8602,"Ġ92":8603,"Ġdoz":8604,"Ġfourteen":8605,"Ġsurveillance":8606,"Ġpoll":8607,"Ġmainstream":8608,"ĠAmericans":8609,"Ġrepaired":8610,"Ġ121":8611,"Ġpresents":8612,"ĠConstruction":8613,"Ġlongest":8614,"Ġobtain":8615,"Ġ1983":8616,"ĠManagement":8617,"ĠIsis":8618,"Ġprovides":8619,"Ġsigns":8620,"Ġimpression":8621,"Ġimpossible":8622,"ĠAdorjÃ¡n":8623,"Ġexpression":8624,"Ġcharacterized":8625,"Ġefficient":8626,"ervative":8627,"pector":8628,"Ġsuccession":8629,"Ġ1912":8630,"Ġ1916":8631,"Ġcompleting":8632,"Ġmayor":8633,"Ġengagement":8634,"Ġantib":8635,"Ġantiqu":8636,"Ġconsidering":8637,"ĠJanelle":8638,"Ġclassic":8639,"Ġclassical":8640,"Ġadvice":8641,"Ġadvancing":8642,"ĠBeh":8643,"ĠBegin":8644,"ashi":8645,"Ġphara":8646,"Ġphrase":8647,"ĠTownship":8648,"Ġextent":8649,"Ġpublications":8650,"Ġpasseng":8651,"Ġbrigade":8652,"Ġportico":8653,"Ġdifference":8654,"Ġ1923":8655,"Ġ1928":8656,"Ġ1953":8657,"Ġmedian":8658,"Ġmedieval":8659,"Ġcaps":8660,"Ġsimple":8661,"Ġbasement":8662,"ĠColer":8663,"Ġcollections":8664,"Ġoldest":8665,"Ġpublisher":8666,"ĠBristol":8667,"Ġbreed":8668,"Ġbreaking":8669,"Ġjustice":8670,"Ġinvolves":8671,"Ġinvolvement":8672,"Ġopposition":8673,"Ġrealized":8674,"ĠCentipede":8675,"Ġequivalent":8676,"Ġtraded":8677,"ĠPhoenix":8678,"aughter":8679,"Ġstrongest":8680,"Ġformerly":8681,"Ġfriendship":8682,"Ġlowest":8683,"ĠNevert":8684,"Ġbands":8685,"Ġlimestone":8686,"Ġputting":8687,"Ġgenes":8688,"Ġjoining":8689,"Ġpatients":8690,"ĠHistor":8691,"Ġmixture":8692,"Ġhelping":8693,"Ġhyp":8694,"ĠMcD":8695,"Ġtested":8696,"ĠRecord":8697,"Ġready":8698,"Ġaudiences":8699,"Ġtechnology":8700,"Ġcutting":8701,"Ġlooked":8702,"Ġ1897":8703,"Ġ1862":8704,"ĠTrack":8705,"Ġlanguages":8706,"Ġbusinesses":8707,"Ġfemales":8708,"ĠFlight":8709,"ĠSimpson":8710,"Ġmeetings":8711,"Ġfifty":8712,"Ġ1909":8713,"fficient":8714,"parts":8715,"Ġhonours":8716,"Ġasking":8717,"Ġdealing":8718,"bee":8719,"ĠAgust":8720,"Ġaerial":8721,"ĠRussell":8722,"ĠRichmond":8723,"Ġpercentage":8724,"Ġdrawing":8725,"Ġbiological":8726,"Ġpredomin":8727,"ettes":8728,"Ġsubjects":8729,"Ġdefending":8730,"ĠQuite":8731,"Ġcrossing":8732,"Ġachieve":8733,"Ġchapter":8734,"Ġdispute":8735,"Ġquestions":8736,"Ġdetailed":8737,"Ġexamined":8738,"Ġvictims":8739,"Ġwithdrew":8740,"Ġtypeset":8741,"ĠConservation":8742,"Ġjournalists":8743,"Ġrelatives":8744,"Ġindependence":8745,"Ġeyes":8746,"Ġgrave":8747,"Ġgravity":8748,"hoods":8749,"Ġbridgehead":8750,"Ġforests":8751,"rogen":8752,"Ġnegot":8753,"autiful":8754,"Ġconcentration":8755,"Ġconcentrated":8756,"Ġfrequent":8757,"Ġpurchase":8758,"Ġjudge":8759,"Ġpainted":8760,"Ġpounder":8761,"Ġprincip":8762,"Ġmicrol":8763,"Ġtranslation":8764,"Ġbelonging":8765,"Ġzombie":8766,"ĠBelgian":8767,"Ġoptions":8768,"historic":8769,"Ġuniversities":8770,"ĠDonald":8771,"Ġcrafts":8772,"Ġcategories":8773,"ĠHereford":8774,"ĠOfficial":8775,"Ġmonitors":8776,"Ġrectangular":8777,"Ġeighteen":8778,"Ġopportunities":8779,"Ġignored":8780,"Ġgorilla":8781,"Ġgraphic":8782,"Ġaltar":8783,"Ġimprovements":8784,"Ġstraight":8785,"Ġconsequence":8786,"Ġtactics":8787,"Ġfatal":8788,"Ġadults":8789,"ĠAdventures":8790,"Ġstrategic":8791,"Ġaccomplish":8792,"ĠStanley":8793,"Ġpreceding":8794,"Ġdrinking":8795,"cribed":8796,"ĠWriting":8797,"Ġrecreational":8798,"Ġconscious":8799,"Ġdrifting":8800,"Ġvicinity":8801,"Ġarchery":8802,"Ġextensively":8803,"Ġguidance":8804,"ĠOrganization":8805,"ĠRaymond":8806,"Ġamphibious":8807,"Ġsharp":8808,"ĠTransportation":8809,"atabase":8810,"ĠCambridge":8811,"ĠUntil":8812,"ĠProgram":8813,"ĠDangerously":8814,"ĠMortimer":8815,"ipelago":8816,"ĠAlfred":8817,"Ġdecommissioned":8818,"iobook":8819,"Ġsiblings":8820,"Ġfranchise":8821,"Ġphenomen":8822,"ĠGaelic":8823,"ĠJenkins":8824,"iphany":8825,"Ġpercussion":8826,"Ġdiameter":8827,"Ġdiplom":8828,"ĠMaurice":8829,"ĠMumbai":8830,"ĠBasketball":8831,"Ġvideos":8832,"Ġpassengers":8833,"ĠNevertheless":8834,"Ar":8835,"Conn":8836,"GS":8837,"RE":8838,"RI":8839,"RNA":8840,"aver":8841,"aug":8842,"ba":8843,"bro":8844,"bound":8845,"book":8846,"case":8847,"dden":8848,"eor":8849,"ees":8850,"equ":8851,"gom":8852,"iac":8853,"kok":8854,"lan":8855,"mo":8856,"mat":8857,"miss":8858,"natural":8859,"neath":8860,"oir":8861,"put":8862,"rin":8863,"rim":8864,"ucc":8865,"under":8866,"uable":8867,"Ġtip":8868,"Ġtrough":8869,"Ġtens":8870,"Ġtrick":8871,"Ġtalent":8872,"Ġtempo":8873,"Ġax":8874,"Ġaro":8875,"inals":8876,"ona":8877,"rez":8878,"Ġsic":8879,"Ġsoc":8880,"Ġstern":8881,"Ġsars":8882,"Ġode":8883,"Ġwet":8884,"atoes":8885,"Ġfant":8886,"Ġfusion":8887,"Ġbore":8888,"Ġbah":8889,"Ġboys":8890,"Ġbanks":8891,"Ġbanned":8892,"Ġpull":8893,"Ġpages":8894,"Ġpushed":8895,"Ġpicture":8896,"Ġtopped":8897,"icit":8898,"icity":8899,"roc":8900,"rox":8901,"roke":8902,"Ġmac":8903,"Ġmand":8904,"Ġmathe":8905,"Ġmemorial":8906,"Ġdish":8907,"Ġdual":8908,"Ġhorn":8909,"Ġhaz":8910,"leted":8911,"ĠTest":8912,"ĠTang":8913,"ĠToso":8914,"Ġreactions":8915,"Ġreorgan":8916,"entions":8917,"ilton":8918,"ĠAut":8919,"ĠAch":8920,"ĠAqu":8921,"ĠAud":8922,"ĠAren":8923,"ĠAges":8924,"ĠAki":8925,"ĠSister":8926,"ĠSports":8927,"ĠSquare":8928,"eled":8929,"eles":8930,"ĠCred":8931,"ĠCurt":8932,"ĠCherry":8933,"ĠCNS":8934,"sts":8935,"Ġlun":8936,"Ġliv":8937,"Ġlig":8938,"Ġlies":8939,"omal":8940,"omical":8941,"Ġnons":8942,"Ġnaut":8943,"ada":8944,"aden":8945,"amin":8946,"ĠIow":8947,"Ġbeats":8948,"urance":8949,"ĠMem":8950,"ĠMos":8951,"ĠMission":8952,"ĠMemorial":8953,"ĠBarn":8954,"ĠBird":8955,"ĠBened":8956,"Ġgall":8957,"Ġgap":8958,"Ġgathe":8959,"Ġgrain":8960,"idges":8961,"imet":8962,"imore":8963,"acon":8964,"ĠHel":8965,"ĠHud":8966,"ĠHamp":8967,"ĠHorn":8968,"ĠHans":8969,"Ġstib":8970,"Ġstreets":8971,"usetts":8972,"ĠPu":8973,"ĠPoe":8974,"ĠRh":8975,"ĠRang":8976,"ĠRCA":8977,"ulous":8978,"ĠFather":8979,"ĠFingal":8980,"ĠWorth":8981,"ĠWick":8982,"ĠWarn":8983,"ĠWander":8984,"ĠWinds":8985,"ĠGa":8986,"ĠGer":8987,"ĠGary":8988,"ĠGib":8989,"ĠGonna":8990,"Ġalien":8991,"emeter":8992,"Ġconqu":8993,"ĠNet":8994,"ĠNights":8995,"ĠNaval":8996,"ĠNether":8997,"ĠLic":8998,"ĠLowe":8999,"ĠLuc":9000,"Ġansw":9001,"ĠJess":9002,"ĠJell":9003,"ĠJoy":9004,"Ġheat":9005,"agne":9006,"agiar":9007,"Ġdeals":9008,"Ġdeeper":9009,"Ġsect":9010,"Ġseize":9011,"illon":9012,"ĠOil":9013,"ocent":9014,"Ġvint":9015,"Ġvault":9016,"opy":9017,"ewart":9018,"ategy":9019,"Ġexists":9020,"Ġshut":9021,"Ġchast":9022,"Ġchair":9023,"Ġchairman":9024,"Ġchambers":9025,"Ġring":9026,"Ġrugby":9027,"abeth":9028,"sex":9029,"ipitation":9030,"ĠUpper":9031,"asting":9032,"ĠKum":9033,"ĠKong":9034,"ĠKap":9035,"ĠKail":9036,"ĠKras":9037,"Ġarsen":9038,"Ġnotably":9039,"ĠStrand":9040,"ĠStyle":9041,"ĠStewart":9042,"Ġheritage":9043,"ĠChampions":9044,"Ġunst":9045,"ogether":9046,"Ġyield":9047,"Ġyards":9048,"apa":9049,"uster":9050,"ĠVai":9051,"Ġtwelve":9052,"perate":9053,"Ġclim":9054,"Ġclimate":9055,"Ġabilities":9056,"pled":9057,"ported":9058,"Ġreconna":9059,"ĠRelease":9060,"Ġoffering":9061,"mercial":9062,"overe":9063,"Ġ1800":9064,"ibilities":9065,"Ġteach":9066,"Ġpartially":9067,"achan":9068,"achusetts":9069,"Ġmaneu":9070,"Ġplayoff":9071,"Ġrooms":9072,"Ġagents":9073,"Ġagencies":9074,"Ġscr":9075,"Ġscattered":9076,"Ġoutf":9077,"Ġouts":9078,"Ġspo":9079,"ĠSee":9080,"Ġremarked":9081,"Ġattrib":9082,"Ġattract":9083,"Ġ74":9084,"Ġ78":9085,"Ġsecuring":9086,"Ġboom":9087,"ampion":9088,"ĠCommercial":9089,"Ġfilmm":9090,"obe":9091,"ologies":9092,"Ġincred":9093,"Ġflav":9094,"Ġendang":9095,"Ġsubcon":9096,"Ġsubstit":9097,"Ġsubmitted":9098,"ĠMargin":9099,"olev":9100,"Ġsupporter":9101,"ertiary":9102,"ĠJoan":9103,"Ġnumbered":9104,"ĠLev":9105,"ĠLead":9106,"Ġindeed":9107,"ificial":9108,"erner":9109,"Ġenth":9110,"Ġeleven":9111,"Ġblown":9112,"Ġtraw":9113,"Ġdefe":9114,"Ġopined":9115,"ĠAncon":9116,"ĠAnne":9117,"Ġ102":9118,"Ġmovies":9119,"Ġappeal":9120,"Ġoffices":9121,"Ġgovernments":9122,"Ġorigins":9123,"ĠClair":9124,"Ġopera":9125,"ĠIsles":9126,"Ġarmoured":9127,"Ġcontinuous":9128,"Ġexpensive":9129,"Ġterr":9130,"Ġdepos":9131,"ĠAllen":9132,"Ġconstantly":9133,"Ġbacked":9134,"ĠWarren":9135,"Ġcommandos":9136,"Ġinfl":9137,"Ġinfilt":9138,"Ġvaried":9139,"Ġartwork":9140,"Ġfeud":9141,"Ġfeels":9142,"Ġ170":9143,"Ġminimal":9144,"Ġdescribing":9145,"Ġgray":9146,"Ġslip":9147,"Ġannex":9148,"Ġchildhood":9149,"ĠAndr":9150,"Ġ1933":9151,"Ġpersonality":9152,"ĠForbes":9153,"Ġ1976":9154,"Ġconcrete":9155,"ĠSche":9156,"enny":9157,"ennis":9158,"Ġpassenger":9159,"Ġstring":9160,"Ġstrategy":9161,"Ġdownload":9162,"Ġrefuses":9163,"ĠOrd":9164,"Ġfinishing":9165,"Ġmodified":9166,"Ġmodels":9167,"Ġ160":9168,"Ġ1924":9169,"Ġdemocr":9170,"Ġhanded":9171,"Ġconfused":9172,"Ġsimultaneously":9173,"Ġ1969":9174,"Ġhumanitarian":9175,"Ġdraws":9176,"Ġreplace":9177,"Ġprofile":9178,"Ġmembrane":9179,"nerable":9180,"Ġmarkers":9181,"Ġclaiming":9182,"Ġexpert":9183,"Ġexperts":9184,"Ġexperiments":9185,"Ġcovering":9186,"ĠRepresent":9187,"ĠGuang":9188,"Ġopposing":9189,"minster":9190,"Ġelite":9191,"Ġordnance":9192,"Ġordinary":9193,"Ġwestward":9194,"Ġfunn":9195,"Ġbarometric":9196,"Ġsuffer":9197,"Ġfarms":9198,"ĠNeil":9199,"Ġfaces":9200,"Ġgliders":9201,"ĠDescription":9202,"Ġfewer":9203,"Ġfleets":9204,"Ġdelays":9205,"Ġgenetic":9206,"Ġcharted":9207,"Ġdeclaring":9208,"rieze":9209,"ieth":9210,"Ġlessons":9211,"Ġinteresting":9212,"Ġerosion":9213,"sequently":9214,"Ġparalle":9215,"ĠTrust":9216,"Ġfrontal":9217,"aska":9218,"Ġcircular":9219,"Ġcircuit":9220,"icoe":9221,"Ġlaws":9222,"Ġappointment":9223,"shore":9224,"Ġtesting":9225,"Ġrevised":9226,"Ġreading":9227,"Ġarguments":9228,"Ġstudying":9229,"Ġdoesn":9230,"Ġdepiction":9231,"bridge":9232,"Ġranks":9233,"Ġ1895":9234,"ĠTrinity":9235,"ĠTrinsey":9236,"Ġtrucks":9237,"Ġmeasured":9238,"Ġcreative":9239,"mediate":9240,"Ġinterviews":9241,"Ġinterviewed":9242,"Ġpastor":9243,"ĠSimon":9244,"Ġengineer":9245,"Ġdonation":9246,"Ġ1903":9247,"Ġfavour":9248,"Ġmissiles":9249,"legraph":9250,"Ġdealt":9251,"Ġcorner":9252,"Ġpersu":9253,"Ġpersisted":9254,"Ġintensify":9255,"Ġdramatic":9256,"ĠSlide":9257,"ĠRobinson":9258,"Ġelectron":9259,"Ġelectronic":9260,"Ġhostile":9261,"ĠJeep":9262,"Ġblacks":9263,"ucky":9264,"Ġbiography":9265,"ĠSwamp":9266,"Ġheavier":9267,"Ġeducational":9268,"Ġensuring":9269,"Ġensemble":9270,"ĠTerri":9271,"Ġexecuted":9272,"scape":9273,"Ġmachinery":9274,"Ġthinking":9275,"Ġinvestigate":9276,"Ġwider":9277,"ĠStudies":9278,"Ġtraveled":9279,"Ġpresidential":9280,"Ġchapters":9281,"ĠMontgom":9282,"ĠBerlin":9283,"Ġamounts":9284,"ĠAva":9285,"Ġseventeen":9286,"Ġneutrino":9287,"Ġdepartment":9288,"Ġcounteratt":9289,"ourage":9290,"ĠTomorrow":9291,"Ġsequences":9292,"ĠFinn":9293,"Ġunlik":9294,"Ġinitiated":9295,"Ġdistinctive":9296,"Ġpolicies":9297,"Ġconstitution":9298,"ĠCareer":9299,"Ġdynasty":9300,"Ġabandon":9301,"ĠContemporary":9302,"Ġlifted":9303,"ĠPrize":9304,"ĠShaolin":9305,"ĠÃĹ":9306,"Ġdemonstrated":9307,"Ġcleared":9308,"Ġprohibited":9309,"Ġcontroversy":9310,"Ġopinions":9311,"boat":9312,"chester":9313,"Ġaimed":9314,"Ġodd":9315,"Ġeasily":9316,"Ġrequirements":9317,"ĠJacqu":9318,"Ġdepending":9319,"Ġresemble":9320,"Ġcomposer":9321,"Ġrecommend":9322,"Ġmeasurements":9323,"Ġoutlaw":9324,"Ġsympt":9325,"lephone":9326,"ĠJustice":9327,"Ġcancelled":9328,"Ġownership":9329,"ĠOsato":9330,"Ġscholarship":9331,"Ġbeds":9332,"Ġmobil":9333,"Ġdanger":9334,"ĠRelig":9335,"Ġseeking":9336,"Ġdisplayed":9337,"Ġburned":9338,"ĠConfederacy":9339,"Ġtrouble":9340,"Ġcabinet":9341,"Ġgorillas":9342,"Ġarrested":9343,"ĠHospitaller":9344,"Ġdialogue":9345,"Ġdubious":9346,"ĠTurk":9347,"ĠCroat":9348,"ĠWalter":9349,"Ġresignation":9350,"Ġteenage":9351,"Ġevacuation":9352,"Ġrenewed":9353,"Ġfreedom":9354,"ĠHalf":9355,"Ġadjacent":9356,"Ġdisappeared":9357,"Ġrestrictions":9358,"Ġtheatrical":9359,"ĠSonthi":9360,"ĠMassachusetts":9361,"Ġoverwhelming":9362,"Ġdoubt":9363,"Ġoriented":9364,"Ġpapal":9365,"ĠBusiness":9366,"ĠRandy":9367,"ĠGambia":9368,"ĠNichol":9369,"Ġrubble":9370,"Ġrecruited":9371,"Ġcommitment":9372,"ĠMargaret":9373,"onymous":9374,"Ġ0600":9375,"Ġabsorbed":9376,"Ġnickn":9377,"ĠBaltimore":9378,"ĠEpiphany":9379,"ĠStrachan":9380,"ĠDeputy":9381,"Ġbattlecruisers":9382,"Ġresearchers":9383,"Ġastron":9384,"ĠJonathan":9385,"Ġunderwent":9386,"Ġmaintaining":9387,"Ġpoliticians":9388,"ĠPerformance":9389,"Ġstriking":9390,"Ġcytogenetics":9391,"metrical":9392,"Ġmaat":9393,"ĠCultural":9394,"ĠMutinus":9395,"ĠMachine":9396,"ĠBangkok":9397,"Ġcompromise":9398,"ĠCornwallis":9399,"Ġbinding":9400,"Ġpropaganda":9401,"Ġcondemned":9402,"Ġveteran":9403,"ĠBruins":9404,"ĠArdan":9405,"ĠProfess":9406,"Ġannouncement":9407,"Ġborrowed":9408,"ĠMGB":9409,"ĠRavana":9410,"Ġconvection":9411,"Ġvulnerable":9412,"ĠVengeur":9413,"Ġmegalithic":9414,"Ġacknowled":9415,"ĠBeginning":9416,"Ġbaht":9417,"ĠCredits":9418,"Ġnautical":9419,"ĠIowa":9420,"ĠBenedict":9421,"Ġgathered":9422,"ĠPoehler":9423,"ĠRangers":9424,"ĠWorthing":9425,"ĠWanderers":9426,"emetery":9427,"ĠNetherlands":9428,"ĠJellicoe":9429,"Ġvintage":9430,"Ġreconnaissance":9431,"Ġsubcontinent":9432,"ĠAncona":9433,"ĠMontgomery":9434,"PEC":9435,"TRE":9436,"aus":9437,"bur":9438,"down":9439,"face":9440,"force":9441,"hant":9442,"host":9443,"horn":9444,"hanna":9445,"ka":9446,"lix":9447,"mers":9448,"mits":9449,"ns":9450,"nall":9451,"och":9452,"pet":9453,"pike":9454,"rations":9455,"rays":9456,"tes":9457,"tar":9458,"then":9459,"uin":9460,"uits":9461,"vous":9462,"water":9463,"yram":9464,"Ġx":9465,"Ġil":9466,"Ġtum":9467,"Ġtaste":9468,"hent":9469,"Ġaw":9470,"Ġther":9471,"Ġtheories":9472,"rection":9473,"rehens":9474,"Ġsale":9475,"Ġsnow":9476,"Ġoars":9477,"Ġwa":9478,"Ġwart":9479,"Ġwings":9480,"atra":9481,"itors":9482,"itimate":9483,"orous":9484,"orough":9485,"Ġcite":9486,"isa":9487,"Ġfest":9488,"Ġfate":9489,"Ġfame":9490,"Ġfine":9491,"ari":9492,"arth":9493,"Ġbub":9494,"Ġboss":9495,"Ġinaug":9496,"alore":9497,"alog":9498,"ingly":9499,"icipal":9500,"icherry":9501,"roft":9502,"Ġmild":9503,"Ġmeat":9504,"Ġmys":9505,"Ġmash":9506,"Ġmigration":9507,"Ġdream":9508,"Ġho":9509,"Ġhits":9510,"Ġhope":9511,"Ġhills":9512,"Ġhidden":9513,"oul":9514,"ĠTree":9515,"ĠTrib":9516,"ĠTina":9517,"iliation":9518,"ĠAven":9519,"ĠSin":9520,"ĠSic":9521,"ĠSak":9522,"ĠSans":9523,"ĠSoon":9524,"ĠSocial":9525,"ĠSnapp":9526,"ĠSPEC":9527,"ĠCi":9528,"ĠCru":9529,"ĠCrown":9530,"Ġlb":9531,"Ġlie":9532,"Ġloot":9533,"Ġliber":9534,"Ġloses":9535,"omber":9536,"Ġnic":9537,"Ġnone":9538,"Ġnavy":9539,"adow":9540,"amics":9541,"ameless":9542,"ĠID":9543,"Ġbeings":9544,"urrection":9545,"ĠMw":9546,"ĠMat":9547,"ĠMole":9548,"ĠMaj":9549,"ĠMemb":9550,"ĠBou":9551,"ĠBul":9552,"ĠBree":9553,"ĠBach":9554,"ĠBeat":9555,"ĠBorn":9556,"ĠBah":9557,"ĠBox":9558,"Ġgarn":9559,"Ġgiant":9560,"Ġgalle":9561,"idel":9562,"Ġforget":9563,"imurt":9564,"ivan":9565,"aco":9566,"Ġaspect":9567,"ira":9568,"igall":9569,"igue":9570,"tering":9571,"ationally":9572,"owers":9573,"Ġstood":9574,"Ġstret":9575,"Ġstability":9576,"Ġstroke":9577,"eties":9578,"ĠPett":9579,"ĠRod":9580,"ĠRub":9581,"ĠRoy":9582,"ĠRico":9583,"ĠRugby":9584,"cho":9585,"uls":9586,"rained":9587,"ĠFif":9588,"ĠFab":9589,"ĠFund":9590,"ĠFederal":9591,"ĠWies":9592,"ĠWell":9593,"ĠWign":9594,"ĠWright":9595,"ĠGre":9596,"ĠGor":9597,"ĠGal":9598,"ĠGill":9599,"ĠGree":9600,"ĠGames":9601,"ĠGross":9602,"Ġaltered":9603,"emit":9604,"emas":9605,"emark":9606,"Ġconvey":9607,"ĠNob":9608,"ĠNameless":9609,"ĠLan":9610,"ĠLiv":9611,"ĠLog":9612,"ĠLife":9613,"ĠLerner":9614,"estyle":9615,"osomal":9616,"ĠDh":9617,"ĠDillon":9618,"ĠJin":9619,"ĠJing":9620,"istant":9621,"unkers":9622,"Ġdece":9623,"Ġproced":9624,"aints":9625,"Ġseas":9626,"Ġseam":9627,"Ġseated":9628,"Ġsending":9629,"Ġselection":9630,"rik":9631,"ĠEs":9632,"Ġcomics":9633,"ĠOb":9634,"ĠOt":9635,"ĠOz":9636,"ĠOsc":9637,"Ġsup":9638,"ifies":9639,"occ":9640,"Ġvast":9641,"Ġvener":9642,"Ġveto":9643,"ĠIns":9644,"opal":9645,"alls":9646,"Ġshop":9647,"Ġshield":9648,"Ġshallow":9649,"Ġrid":9650,"Ġrac":9651,"Ġray":9652,"Ġrates":9653,"Ġranging":9654,"Ġranges":9655,"abs":9656,"abits":9657,"arten":9658,"arded":9659,"ĠUtah":9660,"asted":9661,"teb":9662,"ĠKid":9663,"ĠKate":9664,"ĠKree":9665,"ĠKey":9666,"ĠKÃ¶n":9667,"ellation":9668,"ĠkW":9669,"Ġkiss":9670,"Ġkick":9671,"clad":9672,"ogie":9673,"ĠVen":9674,"iece":9675,"pered":9676,"Ġcloud":9677,"Ġabuse":9678,"Ġabroad":9679,"Ġcontr":9680,"plant":9681,"Ġperception":9682,"oken":9683,"ector":9684,"onder":9685,"Ġcompilation":9686,"ĠThose":9687,"ĠThames":9688,"Ġreconc":9689,"Ġdisorder":9690,"ĠReign":9691,"Ġoffs":9692,"ibars":9693,"ĠYing":9694,"Ġmanages":9695,"Ġafterward":9696,"iley":9697,"Ġovers":9698,"Ġpret":9699,"Ġaged":9700,"Ġscrap":9701,"Ġspan":9702,"ĠSean":9703,"Ġremove":9704,"Ġworker":9705,"Ġthemed":9706,"ailed":9707,"Ġrelie":9708,"rence":9709,"Ġconspir":9710,"Ġconscientious":9711,"ĠZilt":9712,"Ġevident":9713,"Ġearning":9714,"Ġcharged":9715,"ictions":9716,"Ġmeters":9717,"Ġcenters":9718,"Ġincidents":9719,"Ġflotilla":9720,"Ġpositively":9721,"Ġamend":9722,"Ġ96":9723,"Ġvertical":9724,"Ġcolour":9725,"Ġcolours":9726,"ĠShin":9727,"Ġcauses":9728,"Ġsynd":9729,"Ġpopulations":9730,"ĠWhit":9731,"ĠBlo":9732,"Ġ1200":9733,"Ġdecide":9734,"ĠAny":9735,"ĠIndust":9736,"Ġobv":9737,"Ġfounder":9738,"rolled":9739,"Ġdescript":9740,"ĠCommodore":9741,"Ġwarm":9742,"Ġarmour":9743,"Ġbelt":9744,"Ġprovin":9745,"Ġsigning":9746,"ullivan":9747,"Ġimpressed":9748,"ĠAdri":9749,"ĠAdult":9750,"ĠMeh":9751,"Ġtermed":9752,"Ġshowing":9753,"Ġthoughts":9754,"Ġartificial":9755,"Ġ175":9756,"Ġarchipelago":9757,"Ġcomplement":9758,"Ġgrace":9759,"Ġannular":9760,"Ġantic":9761,"Ġclassification":9762,"Ġ1932":9763,"pedition":9764,"Ġphone":9765,"Ġpersonally":9766,"Ġlandscape":9767,"Ġ1978":9768,"Ġpromise":9769,"Ġpublicly":9770,"Ġattacking":9771,"Ġrestore":9772,"Ġrestored":9773,"Ġrestricted":9774,"ĠScient":9775,"ĠScots":9776,"ĠScreen":9777,"ĠScapa":9778,"ĠPrincess":9779,"ĠEngine":9780,"Ġexplain":9781,"Ġexplicit":9782,"Ġbrut":9783,"Ġbright":9784,"Ġcontrols":9785,"Ġ1951":9786,"Ġ1955":9787,"Ġ1956":9788,"Ġdemo":9789,"Ġdemons":9790,"ĠTelecom":9791,"Ġdestroying":9792,"Ġmedic":9793,"Ġhandb":9794,"ĠMonuments":9795,"Ġorganisation":9796,"Ġorganisms":9797,"Ġ1963":9798,"Ġdebt":9799,"Ġreplay":9800,"Ġprofit":9801,"Ġapproval":9802,"Ġapproaching":9803,"Ġcaptains":9804,"Ġmarkets":9805,"iscuous":9806,"Ġarriving":9807,"Ġplanes":9808,"ĠExec":9809,"ĠExpedition":9810,"Ġcommunications":9811,"Ġamongst":9812,"Ġdeton":9813,"Ġequally":9814,"iveness":9815,"Ġlegacy":9816,"Ġtrading":9817,"Ġtrademark":9818,"Ġdirectors":9819,"Ġfunny":9820,"Ġtrial":9821,"Ġtriple":9822,"Ġtrioxide":9823,"Ġcourty":9824,"Ġgliding":9825,"Ġglider":9826,"Ġyoungest":9827,"Ġsteel":9828,"Ġsteep":9829,"Ġsteamed":9830,"Ġdeliver":9831,"Ġdeliber":9832,"Ġoriginated":9833,"Ġposted":9834,"Ġhistorians":9835,"ĠEmma":9836,"Ġafford":9837,"Ġaffairs":9838,"Ġcrash":9839,"Ġfails":9840,"Ġassociate":9841,"Ġpriests":9842,"Ġmotherboard":9843,"ĠAcross":9844,"ĠComposition":9845,"Ġsounds":9846,"Ġideal":9847,"Ġfunded":9848,"Ġrespective":9849,"ĠMcK":9850,"Ġcease":9851,"Ġceiling":9852,"Ġtourism":9853,"Ġaudiobook":9854,"Ġcasem":9855,"Ġcruise":9856,"Ġarguing":9857,"ĠSongs":9858,"brid":9859,"Ġcuts":9860,"Ġ1891":9861,"ĠTrimurt":9862,"ĠBarry":9863,"Ġ1877":9864,"Ġtransporting":9865,"ĠFlotilla":9866,"Ġclosest":9867,"Ġclosure":9868,"mingham":9869,"Ġ1902":9870,"Ġdeterior":9871,"Ġbombs":9872,"Ġobjectives":9873,"ĠAgricult":9874,"ĠBelle":9875,"avalry":9876,"Ġperspective":9877,"Ġconcerts":9878,"Ġdrawings":9879,"Ġproperties":9880,"Ġruler":9881,"Ġtorpedoes":9882,"ĠPatty":9883,"Ġexecution":9884,"Ġliked":9885,"Ġlikened":9886,"Ġnarrator":9887,"quehanna":9888,"ĠYears":9889,"Ġcommenting":9890,"Ġliterary":9891,"Ġdispers":9892,"ĠMontagu":9893,"ĠMontagne":9894,"Ġdetermine":9895,"Ġdocuments":9896,"ĠJews":9897,"Ġmulti":9898,"ĠNotable":9899,"Ġdeadline":9900,"Ġnomination":9901,"Ġblocked":9902,"Ġsexuality":9903,"Ġmorally":9904,"ophon":9905,"Ġillness":9906,"Ġ368":9907,"Ġderiv":9908,"Ġ1840":9909,"ĠLaure":9910,"ĠUlt":9911,"Ġremixes":9912,"Ġcannon":9913,"Ġlogs":9914,"ĠAngelo":9915,"Ġattendant":9916,"Ġcelebrity":9917,"ĠPrepar":9918,"Ġconventions":9919,"Ġrescued":9920,"ezvous":9921,"Ġturret":9922,"Ġmaxim":9923,"Ġdeployment":9924,"Ġextraordin":9925,"ĠOutside":9926,"ĠOutstanding":9927,"Ġpursued":9928,"Ġromance":9929,"ĠMiller":9930,"Ġapplication":9931,"Ġexperiences":9932,"Ġreinforced":9933,"igging":9934,"Ġstayed":9935,"Ġspiritual":9936,"Ġironclad":9937,"ĠSamuel":9938,"Ġflowers":9939,"Ġshrines":9940,"Ġprinciple":9941,"Ġstruggled":9942,"Ġdemonstration":9943,"Ġboundaries":9944,"Ġdrove":9945,"ĠSeries":9946,"ĠBoogie":9947,"Ġcustody":9948,"ĠSusquehanna":9949,"Ġninet":9950,"ĠMacAr":9951,"Ġodes":9952,"Ġhusbandman":9953,"Ġheroes":9954,"Ġsynthesized":9955,"Ġcollective":9956,"ĠWilson":9957,"Ġchoose":9958,"Ġcompositions":9959,"iatric":9960,"ĠAppro":9961,"ĠBCE":9962,"Ġoutlaws":9963,"Ġexplosive":9964,"Ġtalking":9965,"Ġscientists":9966,"Ġadministrative":9967,"ohang":9968,"Ġsquadrons":9969,"Ġhabitats":9970,"ĠRyder":9971,"ĠFurthermore":9972,"Ġorbit":9973,"Ġ1819":9974,"Ġconnects":9975,"Ġpenalty":9976,"Ġpalace":9977,"Ġmobile":9978,"Ġdangerous":9979,"ĠArabic":9980,"ĠGregor":9981,"Ġsucceed":9982,"Ġjointly":9983,"Ġsufficiently":9984,"Ġeighth":9985,"ĠLiberal":9986,"Ġhelicopter":9987,"Ġfrigate":9988,"Ġpuzzle":9989,"Ġtribes":9990,"Ġcartoon":9991,"Ġpetro":9992,"ĠBernard":9993,"ĠBulls":9994,"Ġemotional":9995,"Ġdisciples":9996,"ĠCharacter":9997,"ĠLarry":9998,"Ġunderstand":9999,"Ġsubsid":10000,"Ġpolygamist":10001,"audev":10002,"Ġrendezvous":10003,"Ġdistinguished":10004,"ĠJeffrey":10005,"Ġinhabit":10006,"Ġpushing":10007,"ĠMotor":10008,"ĠBoliv":10009,"rifice":10010,"ĠAlberta":10011,"Ġdemolition":10012,"Ġdemolished":10013,"Ġdetective":10014,"Ġadvertis":10015,"Ġrecurring":10016,"Ġelaborate":10017,"Ġrepeatedly":10018,"Ġbulk":10019,"Ġmessage":10020,"ĠPierre":10021,"ĠLegacy":10022,"Ġelderly":10023,"Ġinterpretation":10024,"Ġsamples":10025,"Ġfertil":10026,"ĠTotten":10027,"ĠHindi":10028,"ĠDuke":10029,"Ġexclusive":10030,"Ġabnormalities":10031,"ĠUniverse":10032,"Ġinventory":10033,"Ġmillimeters":10034,"Ġabsolute":10035,"penter":10036,"Ġpaintings":10037,"Ġtournament":10038,"ĠTellicherry":10039,"Ġrevenge":10040,"ĠSelenites":10041,"Ġliquid":10042,"ĠHartley":10043,"ĠPilot":10044,"ĠRolling":10045,"ĠGPUs":10046,"Ġvoiced":10047,"Ġappropriate":10048,"Ġcryst":10049,"Ġpupils":10050,"ĠBirmingham":10051,"Ġcongreg":10052,"Ġjewel":10053,"Ġremnants":10054,"Ġboilers":10055,"ĠLebanon":10056,"ĠAnupong":10057,"ĠTechnology":10058,"Ġfraud":10059,"ĠAIL":10060,"ĠJupiter":10061,"ĠOccup":10062,"assador":10063,"ĠImmemorial":10064,"ĠObservatory":10065,"ĠTurtle":10066,"ĠWellington":10067,"ĠEighth":10068,"Ġpharaoh":10069,"ĠMcDon":10070,"eorological":10071,"ĠCurtis":10072,"ĠHudson":10073,"agiarism":10074,"Ġchastity":10075,"ĠKumar":10076,"ĠKailash":10077,"ĠKrasnyi":10078,"Ġarsenic":10079,"Ġdefeated":10080,"Ġunlikely":10081,"Ġsymptoms":10082,"Ġacknowledged":10083,"Ġilleg":10084,"rehensive":10085,"Ġwartime":10086,"Ġmyself":10087,"ĠSnapper":10088,"ĠSPECTRE":10089,"Ġgarnered":10090,"ĠWigner":10091,"ĠGreece":10092,"ĠKreeft":10093,"ĠKÃ¶nig":10094,"ĠZiltoid":10095,"ĠTrimurti":10096,"ĠMacArthur":10097,"30":10098,"FL":10099,"HO":10100,"IV":10101,"Nf":10102,"Station":10103,"VI":10104,"aic":10105,"ares":10106,"bit":10107,"ben":10108,"bow":10109,"beat":10110,"bey":10111,"bec":10112,"burg":10113,"cover":10114,"cock":10115,"court":10116,"do":10117,"ef":10118,"eg":10119,"fast":10120,"father":10121,"front":10122,"fÃ¼":10123,"ftees":10124,"han":10125,"hou":10126,"iets":10127,"ja":10128,"jiang":10129,"ker":10130,"kley":10131,"lore":10132,"mi":10133,"mary":10134,"mount":10135,"oons":10136,"pics":10137,"poned":10138,"rst":10139,"rised":10140,"ses":10141,"time":10142,"telling":10143,"uished":10144,"uously":10145,"ufficient":10146,"vis":10147,"vine":10148,"wen":10149,"western":10150,"xim":10151,"zao":10152,"Ġels":10153,"Ĩst":10154,"Ġtent":10155,"Ġtight":10156,"Ġaft":10157,"Ġaug":10158,"inz":10159,"err":10160,"erver":10161,"Ġsq":10162,"Ġsed":10163,"Ġsang":10164,"Ġsick":10165,"Ġsank":10166,"Ġsized":10167,"Ġsample":10168,"Ġoh":10169,"Ġoak":10170,"Ġwins":10171,"Ġwick":10172,"Ġwards":10173,"itis":10174,"orious":10175,"Ġcow":10176,"Ġcov":10177,"Ġcites":10178,"Ġcricket":10179,"enged":10180,"isive":10181,"esar":10182,"ester":10183,"Ġfil":10184,"Ġfurn":10185,"Ġfox":10186,"Ġflee":10187,"Ġfighters":10188,"Ġbay":10189,"Ġbare":10190,"Ġbomber":10191,"Ġine":10192,"Ġpover":10193,"Ġpairs":10194,"Ġpagod":10195,"Ġpitch":10196,"Ġtoured":10197,"rot":10198,"Ġmir":10199,"Ġmature":10200,"Ġmasters":10201,"Ġdust":10202,"Ġdivers":10203,"Ġdressed":10204,"Ġdancing":10205,"Ġdimens":10206,"Ġdatabase":10207,"Ġhat":10208,"Ġhide":10209,"Ġhull":10210,"Ġhanging":10211,"leased":10212,"lets":10213,"lections":10214,"ouver":10215,"ĠTalk":10216,"ĠTropical":10217,"Ġrent":10218,"Ġrejo":10219,"enton":10220,"ilty":10221,"ĠAS":10222,"ĠAzz":10223,"Ġthro":10224,"ĠSk":10225,"ĠSher":10226,"ĠSud":10227,"ĠShip":10228,"ĠSup":10229,"ĠSony":10230,"ĠSquad":10231,"ĠSnow":10232,"elin":10233,"elage":10234,"ĠCE":10235,"ĠCork":10236,"ĠCock":10237,"ĠCake":10238,"ĠCert":10239,"ĠCai":10240,"ĠCrane":10241,"stin":10242,"Ġlust":10243,"Ġlose":10244,"Ġlibr":10245,"Ġlanes":10246,"omics":10247,"cts":10248,"oles":10249,"olph":10250,"olve":10251,"olera":10252,"ĠITV":10253,"Ġbear":10254,"Ġbeautiful":10255,"uras":10256,"ĠMas":10257,"ĠMother":10258,"ĠMull":10259,"ĠMoney":10260,"ĠBun":10261,"ĠBab":10262,"ĠBenn":10263,"ĠBrest":10264,"ĠBaker":10265,"ĠBishop":10266,"ĠBilly":10267,"Ġgig":10268,"Ġgate":10269,"Ġgaining":10270,"irp":10271,"iry":10272,"iga":10273,"igen":10274,"oto":10275,"otion":10276,"otton":10277,"ĠHy":10278,"ĠHad":10279,"ĠHope":10280,"ĠHugh":10281,"ĠHutch":10282,"Ġstall":10283,"Ġstick":10284,"Ġstink":10285,"uts":10286,"utt":10287,"usan":10288,"ĠPit":10289,"ĠPor":10290,"ĠPur":10291,"ĠPear":10292,"ĠPrem":10293,"ĠPusan":10294,"ĠRu":10295,"ĠRud":10296,"ĠRash":10297,"ĠRaf":10298,"ĠRID":10299,"cht":10300,"ulating":10301,"raged":10302,"ĠFil":10303,"ĠFem":10304,"ĠFÃ©":10305,"ĠFeder":10306,"ĠFrey":10307,"ĠFashion":10308,"ĠFashi":10309,"Ġwhites":10310,"Ġwhilst":10311,"ĠWives":10312,"ĠWisc":10313,"ĠGB":10314,"ĠGet":10315,"ĠGard":10316,"ĠGang":10317,"ĠGrant":10318,"Ġconce":10319,"Ġcontend":10320,"Ġconven":10321,"ĠNon":10322,"ĠNav":10323,"ĠName":10324,"ĠNatural":10325,"ĠNFL":10326,"ĠLet":10327,"ĠList":10328,"ĠLost":10329,"ĠLang":10330,"ĠLakes":10331,"estion":10332,"osely":10333,"ĠDunning":10334,"ĠJules":10335,"ĠJourney":10336,"agara":10337,"istration":10338,"Ġprol":10339,"Ġproof":10340,"Ġproclaim":10341,"Ġseized":10342,"Ġsections":10343,"ĠEU":10344,"ĠEric":10345,"ĠEconom":10346,"illiant":10347,"ĠOK":10348,"ĠOtt":10349,"Ġsudden":10350,"ocate":10351,"Ġvs":10352,"Ġvon":10353,"Ġvit":10354,"Ġvir":10355,"ĠInv":10356,"oretical":10357,"Ġexile":10358,"akers":10359,"Ġchains":10360,"Ġchampions":10361,"abel":10362,"udad":10363,"esses":10364,"Ġplague":10365,"Ġplacing":10366,"rities":10367,"tefact":10368,"ĠKurt":10369,"ellular":10370,"Ġkid":10371,"Ġkids":10372,"ears":10373,"ĠStat":10374,"ĠStill":10375,"ĠStony":10376,"ĠStrong":10377,"Ġunex":10378,"oglyph":10379,"ueux":10380,"ĠVoice":10381,"ĠVokes":10382,"Ġintense":10383,"perfield":10384,"Ġwheel":10385,"ulty":10386,"ĠHeavy":10387,"Ġenforce":10388,"Ġusual":10389,"ĠThus":10390,"Ġrecount":10391,"Ġdisemb":10392,"Ġdisapp":10393,"ĠRef":10394,"ĠReal":10395,"ĠReuter":10396,"Ġ58":10397,"overy":10398,"ĠYam":10399,"Ġtelephone":10400,"izabeth":10401,"Ġmanoe":10402,"Ġaftersh":10403,"Ġjoy":10404,"Ġjuris":10405,"Ġrout":10406,"Ġimmin":10407,"arell":10408,"Ġovercome":10409,"Ġpref":10410,"Ġaging":10411,"Ġagrees":10412,"Ġspeech":10413,"Ġcommenced":10414,"onsin":10415,"Ġspar":10416,"Ġspoken":10417,"ints":10418,"phant":10419,"Ġremin":10420,"Ġrelied":10421,"Ġrelating":10422,"Ġreliance":10423,"Ġconsort":10424,"Ġconsolid":10425,"Ġearn":10426,"Ġboost":10427,"Ġknocked":10428,"Ġpeoples":10429,"othy":10430,"Ġspecified":10431,"Ġspeculated":10432,"Ġspecifically":10433,"Ġweekend":10434,"ologists":10435,"Ġbuy":10436,"Ġbuck":10437,"away":10438,"Ġflame":10439,"Ġcoordin":10440,"Ġregiments":10441,"Ġsuburb":10442,"Ġacre":10443,"Ġrape":10444,"Ġraids":10445,"ĠMarie":10446,"tershire":10447,"endra":10448,"Ġquit":10449,"Ġquiet":10450,"ĠNewman":10451,"Ġsupplement":10452,"Ġ94":10453,"Ġverteb":10454,"erto":10455,"ĠShop":10456,"raltar":10457,"ĠJoey":10458,"Ġsongwriter":10459,"ĠLegend":10460,"Ġaccident":10461,"Ġelector":10462,"Ġelephant":10463,"Ġmonk":10464,"ĠWho":10465,"Ġreprodu":10466,"Ġ127":10467,"Ġtransmission":10468,"Ġtransplant":10469,"Ġmilk":10470,"Ġ106":10471,"Ġcreates":10472,"Ġfamine":10473,"Ġempty":10474,"ĠMayo":10475,"Ġinstruct":10476,"Ġinstinct":10477,"embly":10478,"Ġsmoke":10479,"Ġarmies":10480,"Ġprovision":10481,"Ġimprint":10482,"ropolis":10483,"ropolitan":10484,"ĠAdapt":10485,"ĠAdmin":10486,"Ġcontinuing":10487,"rama":10488,"Ġterrain":10489,"Ġdamaging":10490,"Ġdeputy":10491,"Ġdistrib":10492,"Ġcharacterised":10493,"eping":10494,"Ġartistic":10495,"Ã©e":10496,"Ġslop":10497,"Ġslots":10498,"Ġadvised":10499,"Ġadvocated":10500,"Ġ1934":10501,"Ġphil":10502,"Ġlandings":10503,"Ġhelps":10504,"Ġinsufficient":10505,"Ġ152":10506,"Ġpromised":10507,"Ġguide":10508,"Ġguilty":10509,"ĠChristians":10510,"Ġpassages":10511,"Ġreflected":10512,"Ġexplan":10513,"Ġexploration":10514,"ĠCanadians":10515,"Ġbrings":10516,"ĠOrchestra":10517,"ancers":10518,"Ġedited":10519,"uclear":10520,"ĠYorkshire":10521,"Ġreviewer":10522,"Ġreviewers":10523,"Ġhandled":10524,"Ġconfron":10525,"ĠPeace":10526,"Ġorganisations":10527,"Ġsentenced":10528,"aurus":10529,"Ġlasting":10530,"ĠJuan":10531,"Ġ1965":10532,"Ġdraftees":10533,"Ġhalted":10534,"Ġreplacing":10535,"ographical":10536,"Ġlocalization":10537,"Ġvisible":10538,"Ġpossession":10539,"Ġdifferentiation":10540,"Ġarrives":10541,"Ġrealised":10542,"ĠCommando":10543,"Ġmyster":10544,"ĠWeb":10545,"ĠExper":10546,"ĠExpl":10547,"Ġlegally":10548,"Ġpresentation":10549,"opsis":10550,"Ġinfluential":10551,"Ġcombinations":10552,"Ġbarrel":10553,"Ġbarrows":10554,"Ġbarrier":10555,"Ġfarming":10556,"ĠNebr":10557,"Ġcurve":10558,"Ġcurved":10559,"Ġcourts":10560,"Ġtimesl":10561,"ĠAnti":10562,"Ġforever":10563,"Ġposthum":10564,"Ġpostponed":10565,"Ġaffair":10566,"ĠMinnes":10567,"ĠParker":10568,"Ġspecialized":10569,"ĠHarold":10570,"Ġdiscovers":10571,"Ġsimilarly":10572,"ĠActress":10573,"Ġerror":10574,"Ġnationalist":10575,"ĠEnv":10576,"Ã¡rez":10577,"Ġprize":10578,"ĠAssistant":10579,"ĠAssembly":10580,"ĠMicha":10581,"Ġradiation":10582,"ĠCompan":10583,"Ġsounding":10584,"Ġfinale":10585,"Ġviolations":10586,"regular":10587,"Ġhybrid":10588,"ĠEdge":10589,"Ġprogramme":10590,"Ġrevival":10591,"Ġreaders":10592,"Ġ240":10593,"Ġaudio":10594,"Ġargue":10595,"Ġcorpor":10596,"Ġvaluable":10597,"Ġresponses":10598,"Ġranking":10599,"Ġ1863":10600,"ĠTracy":10601,"ÃŃn":10602,"Ġsword":10603,"ĠMorgan":10604,"ĠBarb":10605,"ĠBarra":10606,"Ġ1876":10607,"Ġ1878":10608,"Ġ1879":10609,"Ġreduce":10610,"Ġreduction":10611,"Ġreducing":10612,"Ġ275":10613,"Ġdevoted":10614,"ycle":10615,"Ġdonated":10616,"incible":10617,"Ġemployees":10618,"Ġadvantages":10619,"Ġinformal":10620,"Ġleukemias":10621,"Ġobjectors":10622,"Ġsettled":10623,"Ġcommercials":10624,"ĠAgency":10625,"ĠFilms":10626,"ĠElizabeth":10627,"Ġmerge":10628,"ĠRobot":10629,"Ġpreventing":10630,"ĠInflu":10631,"Ġrulers":10632,"Ġgrey":10633,"ĠSoviets":10634,"istinguished":10635,"Ġknowing":10636,"Ġdefenders":10637,"Ġminority":10638,"Ġparticipate":10639,"Ġhorror":10640,"Ġthinks":10641,"Ġletters":10642,"Ġcrosses":10643,"Ġinvestigated":10644,"Ġrounds":10645,"ontin":10646,"ĠDrunk":10647,"Ġtravels":10648,"Ġaveraged":10649,"Ġsearchl":10650,"ĠOverall":10651,"Ġ1850":10652,"Ġ1854":10653,"Ġsacrific":10654,"Ġsacrifice":10655,"Ġfragrance":10656,"ĠSmall":10657,"ĠGrande":10658,"ĠNormand":10659,"ĠMethod":10660,"Ġneutron":10661,"Ġsync":10662,"ĠUnderneath":10663,"Ġworse":10664,"Ġcosts":10665,"Ġmatters":10666,"Ġsequel":10667,"Ġscreenplay":10668,"Ġrails":10669,"Ġhoping":10670,"ĠPrec":10671,"Ġcomplicated":10672,"nthesis":10673,"ĠVillage":10674,"Ġnewspapers":10675,"Ġacquire":10676,"Ġconstitu":10677,"Ġconstitutional":10678,"ĠPlayStation":10679,"Ġcataly":10680,"ĠMilligan":10681,"Ġnetworks":10682,"autla":10683,"Ġsalary":10684,"Ġlifestyle":10685,"Ġjudg":10686,"Ġsuspended":10687,"Ġangry":10688,"Ġpromoting":10689,"Ġpromotional":10690,"Ġtemperate":10691,"Ġincorporates":10692,"ĠÃĨst":10693,"Ġrecovered":10694,"ĠLloyd":10695,"Ġpermanently":10696,"Ġtends":10697,"booba":10698,"Ġtasks":10699,"Ġtasked":10700,"ĠBowl":10701,"Ġsurrendered":10702,"Ġportrayal":10703,"ĠBobby":10704,"Ġdepends":10705,"Ġexhibits":10706,"Ġchooses":10707,"Ġcandidates":10708,"Ġoxide":10709,"rosaurus":10710,"rophy":10711,"Ġuniverse":10712,"Ġexplosion":10713,"Ġfarmers":10714,"Ġperfectly":10715,"Ġbonds":10716,"ĠApost":10717,"Ġscientific":10718,"Ġcanceled":10719,"Ġconfirm":10720,"Ġwintering":10721,"Ġcategory":10722,"Ġreagent":10723,"ĠSenate":10724,"Ġloan":10725,"umbered":10726,"ĠUyghur":10727,"Ġmanufacture":10728,"Ġmyths":10729,"Ġfunctional":10730,"ĠAdditional":10731,"armendra":10732,"ĠMiranic":10733,"ĠGregory":10734,"ĠKurstin":10735,"Ġcomprising":10736,"Ġmonitoring":10737,"worthiness":10738,"Ġburning":10739,"Ġrectory":10740,"otype":10741,"Ġundertaken":10742,"Ġintersection":10743,"ĠCrusaders":10744,"Ġblend":10745,"Ġinnov":10746,"Ġlayers":10747,"Ġgraphics":10748,"ĠGallian":10749,"ĠLiberty":10750,"Ġmechanical":10751,"Ġvalidity":10752,"Ġtribute":10753,"ĠTurkey":10754,"ĠMovie":10755,"ĠBulloch":10756,"ĠPromiscuous":10757,"ĠKeith":10758,"ĠHeadquarters":10759,"Ġshelter":10760,"Ġspeakers":10761,"Ġconsistent":10762,"Ġpsychiatric":10763,"Ġidol":10764,"ĠCopperfield":10765,"Ġecosy":10766,"Ġrumors":10767,"Ġunderstood":10768,"ĠAdventure":10769,"Ġoccasional":10770,"Ġaccomplished":10771,"Ġwarned":10772,"Ġmelod":10773,"Ġreverse":10774,"ĠWalker":10775,"Ġadjust":10776,"Ġdelayed":10777,"Ġsanct":10778,"Ġprice":10779,"ĠArihant":10780,"ĠJennifer":10781,"Ġvirtue":10782,"Ġvirtually":10783,"Ġsurprise":10784,"Ġmagician":10785,"Ġdiagnosis":10786,"Ġtorture":10787,"Ġawareness":10788,"ĠLabour":10789,"ĠLabrosaurus":10790,"Ġdiffered":10791,"Ġobligation":10792,"Ġprognostic":10793,"Ġflex":10794,"Ġnursery":10795,"ĠMatthew":10796,"ĠBaibars":10797,"ĠWarsaw":10798,"ĠJunyi":10799,"Ġoverlooking":10800,"Ġsteadily":10801,"Ġaccommodate":10802,"borne":10803,"Ġturbines":10804,"ĠCaesar":10805,"ĠBasanti":10806,"ĠGraves":10807,"ĠOlympic":10808,"ĠUrn":10809,"Ġimagination":10810,"ĠCommunity":10811,"Ġmoderate":10812,"ĠAntiquaries":10813,"ĠImpÃ©t":10814,"Ġswallowed":10815,"ĠSimilarly":10816,"Ġvegetation":10817,"Ġdissipated":10818,"Ġchallenging":10819,"Ġsophistic":10820,"Ġhieroglyph":10821,"Ġashore":10822,"ĠHoriz":10823,"ĠHunter":10824,"Ġexhausted":10825,"Ġdisbanded":10826,"Ġlisteners":10827,"Ġerrors":10828,"Ġcorresponding":10829,"ĠQueensland":10830,"Ġlicensed":10831,"ĠAppeals":10832,"Ġhemmema":10833,"Ġurgent":10834,"Ġhampered":10835,"ĠTanaka":10836,"ĠCuautla":10837,"Ġchromosomal":10838,"Ġwealthy":10839,"Ġimprisoned":10840,"ĠAmendment":10841,"ĠGabrielle":10842,"ĠSupporting":10843,"Ġwreck":10844,"Ġfirm":10845,"Ġreunited":10846,"ĠMackin":10847,"ĠLanka":10848,"Ġsubtypes":10849,"Ġappreciated":10850,"ĠAnthony":10851,"ĠAntonio":10852,"Ġearthstar":10853,"Ġvolunteered":10854,"Ġprotagonist":10855,"Ġcelebrities":10856,"Ġmemorable":10857,"ĠCathedral":10858,"ĠPayne":10859,"ĠFleming":10860,"ĠLudlow":10861,"ĠDwight":10862,"ĠChasuble":10863,"ĠCombined":10864,"Ġdozen":10865,"Ġconsciousness":10866,"Ġphenomenon":10867,"Ġdiplomatic":10868,"Ġsoccer":10869,"elescope":10870,"Ġlunar":10871,"ĠPuerto":10872,"ĠGibraltar":10873,"ĠLicence":10874,"overeign":10875,"Ġspoiled":10876,"ĠAndrÃ©":10877,"Ġnickname":10878,"yramid":10879,"ĠAvenue":10880,"ĠCiudad":10881,"ĠBachchan":10882,"Ġgalleys":10883,"ĠGorilla":10884,"ĠDharmendra":10885,"ĠOscar":10886,"Ġsupreme":10887,"ĠYingzao":10888,"Ġpretty":10889,"ĠMehbooba":10890,"ĠExecutive":10891,"Ġmaximus":10892,"Ġextraordinary":10893,"ĠGregorian":10894,"audeville":10895,"Ġelsewhere":10896,"Ġaugmented":10897,"Ġpoverty":10898,"Ġpagodas":10899,"ĠAzzarell":10900,"ĠSudan":10901,"Ġstinkhorn":10902,"ĠRafael":10903,"ĠFreya":10904,"ĠWisconsin":10905,"ĠDunnington":10906,"tefacts":10907,"Ġmanoeuv":10908,"Ġjurisd":10909,"Ġimminent":10910,"ĠNebraska":10911,"ĠMinnesota":10912,"ĠÃĨsthetic":10913,"Ġecosystem":10914,"ĠImpÃ©tueux":10915,"ĠAzzarello":10916,"69":10917,"BE":10918,"CI":10919,"GN":10920,"LC":10921,"Music":10922,"OS":10923,"Work":10924,"auty":10925,"bre":10926,"bing":10927,"bage":10928,"burn":10929,"baden":10930,"cano":10931,"ds":10932,"dong":10933,"easter":10934,"feller":10935,"gated":10936,"gration":10937,"ii":10938,"iety":10939,"just":10940,"jection":10941,"ko":10942,"ked":10943,"kaz":10944,"los":10945,"lik":10946,"mate":10947,"nu":10948,"nz":10949,"nam":10950,"night":10951,"noon":10952,"oz":10953,"oÃ":10954,"oan":10955,"oitation":10956,"point":10957,"rist":10958,"raying":10959,"sons":10960,"uo":10961,"uis":10962,"vor":10963,"vation":10964,"varn":10965,"wa":10966,"where":10967,"Ġ~":10968,"Ġtong":10969,"Ġtart":10970,"Ġtide":10971,"Ġtorn":10972,"intend":10973,"inently":10974,"Ġthee":10975,"onia":10976,"rell":10977,"Ġster":10978,"Ġsod":10979,"Ġsink":10980,"Ġsalt":10981,"Ġwine":10982,"Ġworn":10983,"atem":10984,"atile":10985,"itudes":10986,"orces":10987,"oradic":10988,"Ġcere":10989,"Ġcens":10990,"Ġcemetery":10991,"enz":10992,"isp":10993,"esters":10994,"Ġfet":10995,"Ġfond":10996,"Ġfier":10997,"Ġfaster":10998,"Ġfrieze":10999,"aration":11000,"Ġba":11001,"Ġban":11002,"Ġbact":11003,"Ġbold":11004,"anium":11005,"Ġintend":11006,"alf":11007,"alin":11008,"algam":11009,"Ġpin":11010,"Ġpest":11011,"Ġpunk":11012,"Ġpill":11013,"Ġpian":11014,"Ġpiston":11015,"asm":11016,"Ġtoler":11017,"ici":11018,"icating":11019,"roe":11020,"Ġmood":11021,"Ġmines":11022,"ĠmRNA":11023,"Ġdwar":11024,"Ġdaco":11025,"Ġdancers":11026,"Ġhay":11027,"Ġhym":11028,"ione":11029,"oust":11030,"ĠTs":11031,"ĠTar":11032,"ĠTrou":11033,"ĠTatt":11034,"ĠTup":11035,"ĠTrophy":11036,"Ġreass":11037,"Ġreint":11038,"Ġreaches":11039,"entle":11040,"ĠAL":11041,"ĠABC":11042,"ĠAxis":11043,"Ġthread":11044,"ĠSid":11045,"ĠSave":11046,"ĠSyl":11047,"ĠSchol":11048,"ĠSalt":11049,"ĠSisters":11050,"ĠSpector":11051,"ĠSullivan":11052,"ĠCou":11053,"ĠCover":11054,"ĠCaster":11055,"ĠCirc":11056,"ĠCinema":11057,"ĠCensus":11058,"sters":11059,"state":11060,"Ġlion":11061,"Ġlock":11062,"Ġlighter":11063,"Ġliner":11064,"oming":11065,"Ġeart":11066,"Ġease":11067,"Ġeaves":11068,"Ġnom":11069,"Ġnave":11070,"Ġnatur":11071,"uns":11072,"uner":11073,"adin":11074,"aders":11075,"aduri":11076,"Ġwash":11077,"amil":11078,"amation":11079,"amely":11080,"olving":11081,"ĠIg":11082,"ĠIra":11083,"ĠIke":11084,"ĠIgn":11085,"ĠIRA":11086,"ĠIGN":11087,"Ġbears":11088,"Ġbeauty":11089,"urst":11090,"ĠMS":11091,"ĠMing":11092,"ĠMess":11093,"ĠMine":11094,"ĠMudd":11095,"ĠBP":11096,"ĠBan":11097,"ĠBell":11098,"ĠBased":11099,"ĠBase":11100,"ĠBomb":11101,"ĠBush":11102,"ĠBDS":11103,"ĠBureau":11104,"Ġgro":11105,"Ġgast":11106,"Ġgene":11107,"Ġglee":11108,"idation":11109,"Ġforg":11110,"imm":11111,"imid":11112,"ivo":11113,"ivial":11114,"acements":11115,"Ġaside":11116,"iris":11117,"irate":11118,"irable":11119,"ĠHat":11120,"ĠHear":11121,"ĠHold":11122,"ĠHath":11123,"Ġstress":11124,"Ġstable":11125,"Ġstained":11126,"Ġstair":11127,"Ġstrand":11128,"Ġstrain":11129,"Ġstucc":11130,"uther":11131,"utland":11132,"usi":11133,"ĠPan":11134,"ĠPas":11135,"ĠPubl":11136,"ĠRest":11137,"ĠRain":11138,"ĠRight":11139,"ĠRace":11140,"ĠRick":11141,"ĠRaid":11142,"chair":11143,"raver":11144,"raine":11145,"racted":11146,"ĠFM":11147,"ĠFu":11148,"ĠFolk":11149,"ĠFarm":11150,"ĠWes":11151,"ĠWind":11152,"ĠWemb":11153,"ĠWolf":11154,"ĠGaz":11155,"ĠGrec":11156,"emen":11157,"thood":11158,"Ġconform":11159,"Ġconception":11160,"Ġconclus":11161,"ĠNf":11162,"ĠNike":11163,"ĠNacht":11164,"Ġbypass":11165,"ĠLem":11166,"ĠLiam":11167,"ĠLiter":11168,"Ġank":11169,"esty":11170,"Ġatrox":11171,"osoph":11172,"ĠDur":11173,"ĠDone":11174,"ĠDann":11175,"ĠDistinguished":11176,"ĠJazz":11177,"ĠJutland":11178,"agers":11179,"istent":11180,"avkaz":11181,"odge":11182,"odox":11183,"Ġprosec":11184,"Ġproxim":11185,"Ġsend":11186,"Ġseap":11187,"ĠEvent":11188,"iller":11189,"illed":11190,"Ġsuicide":11191,"rescent":11192,"ifeng":11193,"Ġvi":11194,"Ġven":11195,"Ġvig":11196,"Ġvass":11197,"Ġvague":11198,"Ġvotes":11199,"Ġvandal":11200,"Ġveloc":11201,"ĠInn":11202,"ĠIntern":11203,"aki":11204,"Ġshall":11205,"Ġshoes":11206,"Ġshirt":11207,"Ġcholera":11208,"Ġrat":11209,"Ġridge":11210,"Ġrises":11211,"Ġriding":11212,"abh":11213,"abhum":11214,"artet":11215,"essing":11216,"Ġplagiarism":11217,"ĠUk":11218,"ĠUCL":11219,"oven":11220,"ĠKI":11221,"ĠKau":11222,"ĠKee":11223,"ĠKerry":11224,"ĠKavkaz":11225,"ackets":11226,"ordination":11227,"iana":11228,"ellor":11229,"geant":11230,"ourse":11231,"ishnu":11232,"Ġartefacts":11233,"Ġnotice":11234,"ĠStock":11235,"ĠStaff":11236,"ĠStruct":11237,"ĠStructure":11238,"ĠStrange":11239,"ĠChong":11240,"ĠChaak":11241,"Ġunh":11242,"Ġuncom":11243,"Ġunjust":11244,"ogues":11245,"Ġye":11246,"ube":11247,"ubic":11248,"ĠVi":11249,"ĠVanc":11250,"ĠVatic":11251,"ĠVishnu":11252,"ffen":11253,"ffect":11254,"lando":11255,"irect":11256,"orma":11257,"Ġabund":11258,"Ġconting":11259,"assy":11260,"place":11261,"dule":11262,"Ġadmir":11263,"Ġadequ":11264,"Ġresid":11265,"outing":11266,"Ġenorm":11267,"Ġenabled":11268,"Ġusage":11269,"Ġcompat":11270,"Ġcompiled":11271,"Ġcomprehensive":11272,"ĠThings":11273,"Ġdisgu":11274,"Ġ550":11275,"Ġoffshore":11276,"ĠAltern":11277,"Ġdesert":11278,"Ġdeserted":11279,"Ġdesperate":11280,"ĠYet":11281,"ĠYour":11282,"Ġtelev":11283,"Ġtelecom":11284,"Ġpartners":11285,"izer":11286,"Ġmanage":11287,"Ġafternoon":11288,"Ġjeal":11289,"Ġjunt":11290,"arest":11291,"mann":11292,"oyle":11293,"Ġoverr":11294,"kefeller":11295,"Ġprecept":11296,"Ġpretend":11297,"Ġcommitted":11298,"Ġupr":11299,"Ġoutstanding":11300,"onega":11301,"Ġspore":11302,"Ġspouse":11303,"Ġspots":11304,"Ġspokes":11305,"phony":11306,"Ġremuner":11307,"weight":11308,"Ġallocated":11309,"ails":11310,"ĠZomb":11311,"vez":11312,"Ġeval":11313,"ĠArmed":11314,"atti":11315,"attle":11316,"Ġundergo":11317,"Ġbetaine":11318,"Ġcharter":11319,"issipp":11320,"amps":11321,"Ġcanal":11322,"Ġassign":11323,"Ġassignment":11324,"Ġ68":11325,"Ġmegaliths":11326,"obl":11327,"orney":11328,"Ġcoat":11329,"Ġcoordination":11330,"Ġenduring":11331,"Ġactresses":11332,"Ġamalgam":11333,"Ġsubd":11334,"Ġsubt":11335,"Ġinterim":11336,"Ġintercept":11337,"Ġintervention":11338,"Ġrains":11339,"Ġraiding":11340,"Ġquot":11341,"Ġquote":11342,"ĠNewsted":11343,"Ġsuppress":11344,"Ġforming":11345,"Ġcolors":11346,"Ġpool":11347,"Ġpoetic":11348,"Ġdoctors":11349,"azines":11350,"ĠLeo":11351,"Ġindirect":11352,"ĠAtomic":11353,"Ġpopul":11354,"arsh":11355,"Ġprime":11356,"Ġprincess":11357,"Ġreporter":11358,"Ġreprised":11359,"Ġdecisive":11360,"ĠIndies":11361,"Ġpreserve":11362,"Ġmovements":11363,"Ġemp":11364,"ĠConcept":11365,"ĠAftermath":11366,"Ġinstru":11367,"Ġfounding":11368,"ĠManchester":11369,"Ġcriteria":11370,"Ġsmugg":11371,"aeus":11372,"Ġcouldn":11373,"Ġimpressive":11374,"Ġcontinuously":11375,"rams":11376,"tym":11377,"ĠCanon":11378,"ĠCanal":11379,"ĠAllies":11380,"Ġcommanders":11381,"erving":11382,"Ġfees":11383,"Ġfever":11384,"Ã©val":11385,"Ġmini":11386,"Ġmining":11387,"Ġ01":11388,"Ġ05":11389,"Ġ07":11390,"Ġdesigner":11391,"ĠGeffen":11392,"ĠProdu":11393,"Ġsla":11394,"Ġslave":11395,"Ġslaughter":11396,"ĠFeet":11397,"Ġ112":11398,"Ġsupports":11399,"Ġantagon":11400,"Ġpersona":11401,"Ġmarch":11402,"Ġlandmark":11403,"Ġinspect":11404,"Ġinsisted":11405,"Ġpromising":11406,"ĠBrother":11407,"Ġguilt":11408,"ĠPrÃ©val":11409,"ĠAustria":11410,"Ġexploded":11411,"iamond":11412,"ĠOrlando":11413,"ĠQing":11414,"Ġrunway":11415,"Ġheading":11416,"Ġfinish":11417,"Ġ169":11418,"Ġprevalent":11419,"Ġdemographic":11420,"Ġavo":11421,"Ġhandle":11422,"Ġconfisc":11423,"Ġconfidence":11424,"Ġconfusion":11425,"Ġorganic":11426,"Ġshortage":11427,"ĠPlaces":11428,"ĠJuÃ¡rez":11429,"Ġ1962":11430,"Ġ1966":11431,"Ġstarboard":11432,"Ġcolleagues":11433,"levard":11434,"ĠHerald":11435,"Ġdebated":11436,"Ġprofound":11437,"Ġcaptive":11438,"Ġcapturing":11439,"ĠAustralians":11440,"Ġpointed":11441,"Ġvisits":11442,"Ġimported":11443,"Ġwaterway":11444,"ĠWestminster":11445,"ylogen":11446,"Ġjustify":11447,"iscent":11448,"ĠGuild":11449,"ĠGuatem":11450,"Ġarrive":11451,"ĠCommanding":11452,"ĠCommandments":11453,"Ġmembership":11454,"Ġauthored":11455,"ĠWein":11456,"Ġcountryside":11457,"ĠDivisions":11458,"Ġlegs":11459,"Ġlegitimate":11460,"Ġtraditions":11461,"Ġelig":11462,"ĠTwent":11463,"Ġrepresentatives":11464,"uki":11465,"ymph":11466,"Ġbarrage":11467,"Ġbehalf":11468,"Ġpropose":11469,"Ġpressing":11470,"ĠAirports":11471,"Ġcourses":11472,"Ġfacil":11473,"Ġfacade":11474,"Ġfaculty":11475,"ĠWithout":11476,"Ġsteals":11477,"Ġbattlefield":11478,"ĠEmmy":11479,"engu":11480,"Ġshoulder":11481,"Ġfindings":11482,"Ġaffinity":11483,"Ġtotally":11484,"ĠCheers":11485,"Ġlesser":11486,"Ġstatue":11487,"Ġstatues":11488,"ĠHarv":11489,"ĠHarry":11490,"Ã¡l":11491,"Ġparade":11492,"Ġpriest":11493,"Ġradar":11494,"Ġradial":11495,"Ġzones":11496,"Ġmagazines":11497,"ĠSpir":11498,"ĠSpace":11499,"Ġintroduces":11500,"Ġkeen":11501,"ĠÂµ":11502,"Ġideology":11503,"Ġviolated":11504,"Ġlawyer":11505,"ĠMcE":11506,"ĠEdith":11507,"ĠSecurity":11508,"Ġcivilization":11509,"stitution":11510,"stitutional":11511,"Ġconvoys":11512,"Ġceased":11513,"Ġescapes":11514,"ĠDavies":11515,"inois":11516,"ĠSuff":11517,"ĠSuvarn":11518,"Ġcorrid":11519,"Ġcorruption":11520,"Ġgrounds":11521,"ĠHolid":11522,"Ġvalues":11523,"Ġencycl":11524,"Ġdrive":11525,"Ġdrivers":11526,"Ġdriving":11527,"Ġdriven":11528,"lective":11529,"Ġ1865":11530,"Ġ1869":11531,"ĠGreatest":11532,"Ġtrust":11533,"Ġavailability":11534,"Ġswim":11535,"ĠBarbar":11536,"Ġsuperst":11537,"Ġsupernatural":11538,"Ġrecognize":11539,"Ġ1874":11540,"Ġgraduate":11541,"Ġgraduating":11542,"Ġclosing":11543,"Ġmarriages":11544,"Ġbreaks":11545,"Ġbreakout":11546,"Ġbreakfast":11547,"ĠParachute":11548,"Ġfifteen":11549,"Ġ1901":11550,"Ġ1905":11551,"Ġpotatoes":11552,"Ġseparately":11553,"Ġvariants":11554,"ĠKoreans":11555,"ĠAgain":11556,"ĠAgreement":11557,"ĠAgnes":11558,"Ġlacks":11559,"Ġoccupying":11560,"Ġaeropl":11561,"Ġspacecraft":11562,"Ġ450":11563,"Ġmerely":11564,"Ġlearns":11565,"ĠFranklin":11566,"heads":11567,"Ġfocusing":11568,"Ġproperly":11569,"ĠErn":11570,"Ġterminal":11571,"Ġbiographer":11572,"ĠCrex":11573,"ĠCrete":11574,"Ġcompeted":11575,"Ġcompetitive":11576,"Ġkeepers":11577,"Ġhappen":11578,"ĠDirectors":11579,"ĠPhilip":11580,"ĠPeriod":11581,"Ġcomeback":11582,"ĠSurv":11583,"ĠThompson":11584,"Ġcyclones":11585,"Ġrounded":11586,"ĠArtillery":11587,"ĠBeth":11588,"Ġimmigrants":11589,"Ġphoto":11590,"Ġdetermining":11591,"ĠAdmiralty":11592,"Ġtwentieth":11593,"Ġ1853":11594,"Ġpremises":11595,"Ġsacram":11596,"ĠSoorma":11597,"Ġexamination":11598,"ĠCharlie":11599,"Ġfragments":11600,"Ġcampaigns":11601,"Ġballad":11602,"ĠBuilt":11603,"Ġvictories":11604,"Ġinterned":11605,"Ġinternet":11606,"Ġinternationally":11607,"ĠMetropolitan":11608,"Ġunsure":11609,"Ġsynth":11610,"Ġfamiliar":11611,"ĠSundance":11612,"ĠMississipp":11613,"enesis":11614,"Ġlinking":11615,"Ġindependently":11616,"Ġlabour":11617,"Ġattendants":11618,"Ġdeeply":11619,"Ġscreened":11620,"Ġincorrect":11621,"ĠFinally":11622,"ĠLoire":11623,"Ġavoiding":11624,"Ġdegener":11625,"Ġpursuit":11626,"ĠSala":11627,"ĠWorking":11628,"ogenic":11629,"Ġapplications":11630,"Ġalternate":11631,"Ġchallenged":11632,"ĠContin":11633,"Ġvocalist":11634,"Ġmutations":11635,"Ġfavorable":11636,"Ġceremonies":11637,"kinson":11638,"Ġtaxes":11639,"Ġsuspected":11640,"ĠPetrie":11641,"Ġangle":11642,"Ġemphasised":11643,"Ġfears":11644,"ĠBoat":11645,"Ġprohibition":11646,"Ġtended":11647,"Ġtranslated":11648,"Ġprotecting":11649,"Ġbelonged":11650,"Ġwithdrawn":11651,"Ġmoist":11652,"ĠTraining":11653,"ĠBowyer":11654,"Ġirregular":11655,"Ġodor":11656,"Ġlicence":11657,"Ġgarage":11658,"ĠDenise":11659,"Ġexhibit":11660,"Ġexhibited":11661,"Ġchoir":11662,"Ġescorted":11663,"Ġunpop":11664,"Ġadventures":11665,"Ġoutlined":11666,"Ġassassins":11667,"Ġsymp":11668,"Ġsymmetrical":11669,"Ġelementary":11670,"Ġexpeditions":11671,"Ġfarmland":11672,"Ġcollaborated":11673,"ĠAstron":11674,"ĠSandwich":11675,"Ġattraction":11676,"ĠOsiris":11677,"Ġconnecting":11678,"Ġsolely":11679,"ĠBhaduri":11680,"Ġseeks":11681,"ĠKurfÃ¼":11682,"Ġindustries":11683,"ĠOriginal":11684,"Ġbeliefs":11685,"Ġscholarly":11686,"ĠPakistani":11687,"Ġboyfriend":11688,"ĠDreamWork":11689,"Ġintersections":11690,"Ġhydrogen":11691,"Ġsweet":11692,"Ġswept":11693,"Ġbleeding":11694,"Ġinnocent":11695,"ĠPopM":11696,"ĠGallery":11697,"Ġconnections":11698,"Ġjunction":11699,"Ġmechanism":11700,"Ġbeneath":11701,"ĠMoving":11702,"Ġstrained":11703,"ĠPromoted":11704,"Ġenzyme":11705,"Ġshelters":11706,"Ġdiscipline":11707,"Ġgoddesses":11708,"Ġpsychological":11709,"roscopy":11710,"Ġferal":11711,"Ġdrums":11712,"ĠCardinal":11713,"ĠRoger":11714,"ĠRogatti":11715,"ĠLarge":11716,"Ġevacuated":11717,"Ġapparently":11718,"Ġpolygamy":11719,"Ġpageant":11720,"Ġrendition":11721,"ĠNorway":11722,"Ġaggress":11723,"Ġaggressive":11724,"Ġdistinguish":11725,"Ġdrugs":11726,"Ġsalvos":11727,"Ġpitched":11728,"Ġthrone":11729,"Ġloaded":11730,"Ġetc":11731,"ĠBollywood":11732,"ĠRoom":11733,"Ġoverwhelmed":11734,"Ġimplemented":11735,"Ġmistaken":11736,"Ġloyalty":11737,"Ġdisrupted":11738,"ĠConnery":11739,"Ġprognosis":11740,"Ġrebuilt":11741,"Ġphotographs":11742,"ĠBosnians":11743,"Ã³n":11744,"Ġtickets":11745,"ĠMallory":11746,"ĠBrandt":11747,"Ġshifted":11748,"ĠKaiser":11749,"ĠKaifeng":11750,"Ġsubstrate":11751,"ĠProvince":11752,"ĠGeorgia":11753,"Ġnucleot":11754,"ĠTerritorial":11755,"Ġculmination":11756,"Ġicon":11757,"Ġuranium":11758,"ĠSilver":11759,"Ġgathering":11760,"Ġexcluded":11761,"ĠKennedy":11762,"Ġclinical":11763,"Ġelevated":11764,"Ġauditioned":11765,"Ġdissipating":11766,"Ġchallenges":11767,"Ġskeleton":11768,"Ġbravery":11769,"Ġloved":11770,"Ġforbidden":11771,"ĠRockefeller":11772,"ĠDamage":11773,"Ġupset":11774,"ĠAshbee":11775,"Ġmetallic":11776,"Ġrefugees":11777,"ĠDahlonega":11778,"aÃ±":11779,"Ġreversibility":11780,"ĠBellerophon":11781,"Ġgusts":11782,"Ġprocured":11783,"Ġvowel":11784,"ĠKirk":11785,"Ġtravelled":11786,"ĠXinjiang":11787,"ĠSwedish":11788,"Ġmunicipal":11789,"Ġrendered":11790,"ĠCasual":11791,"ĠMahÃ©":11792,"Ġconjunction":11793,"Ġarrangement":11794,"Ġadultery":11795,"Ġregulatory":11796,"Ġrepublican":11797,"Ġtransformed":11798,"Ġsatisfy":11799,"Ġneighbouring":11800,"iocese":11801,"Ġmushroom":11802,"ĠIllinois":11803,"ĠDucks":11804,"Ġpledged":11805,"ĠMariah":11806,"ĠBehind":11807,"ĠColeraine":11808,"ĠHistorical":11809,"ĠAgustÃŃn":11810,"Ġprinciples":11811,"Ġmicrolights":11812,"ĠAchille":11813,"ĠArena":11814,"ĠHampshire":11815,"ĠRhymes":11816,"Ġunstable":11817,"Ġscrut":11818,"Ġfeudal":11819,"Ġannexed":11820,"ĠGuangdong":11821,"Ġparallel":11822,"ĠBerliner":11823,"ĠNicholas":11824,"ĠIDF":11825,"idelity":11826,"ĠPettit":11827,"ĠRubin":11828,"ĠWiesbaden":11829,"ĠGalway":11830,"ĠGrosser":11831,"ĠNobel":11832,"ĠLivin":11833,"Ġoversaw":11834,"ĠBloom":11835,"Ġobvious":11836,"Ġprovincial":11837,"ĠScientific":11838,"ĠUltimately":11839,"Ġinhabitants":11840,"Ġadvertisement":11841,"Ġcrystall":11842,"Ġjewelry":11843,"Ġillegal":11844,"Ġcovet":11845,"Ġlibraries":11846,"ĠBennett":11847,"ĠFÃ©lix":11848,"ĠFederation":11849,"Ġproclaimed":11850,"Ġdisappoint":11851,"Ġreminiscent":11852,"ĠAdministration":11853,"Ġexplanation":11854,"ĠJuanita":11855,"Ġtimeslot":11856,"ĠMichaels":11857,"ĠCompanion":11858,"Ġsearchlights":11859,"ĠNormandie":11860,"Ġsophisticated":11861,"Ġtongue":11862,"Ġdwarf":11863,"ĠTattnall":11864,"ĠTupolev":11865,"ĠCasterman":11866,"Ġearthen":11867,"Ġnaturally":11868,"ĠIraq":11869,"ĠMuddling":11870,"ĠBaseball":11871,"ĠHathor":11872,"Ġstucco":11873,"ĠWembley":11874,"ĠGrecian":11875,"ĠNachtigall":11876,"Ġproximity":11877,"ĠEventually":11878,"Ġvelocity":11879,"abhumi":11880,"ĠVancouver":11881,"Ġjealous":11882,"Ġjunta":11883,"ĠSuvarnabhumi":11884,"ĠMississippi":11885,"ĠKurfÃ¼rst":11886,"ĠDreamWorks":11887,"AR":11888,"Bg":11889,"CE":11890,"DAT":11891,"HA":11892,"HL":11893,"IE":11894,"PM":11895,"PCL":11896,"RDAT":11897,"TB":11898,"TX":11899,"URDAT":11900,"aun":11901,"aac":11902,"aos":11903,"aude":11904,"ailles":11905,"bi":11906,"bot":11907,"bath":11908,"bled":11909,"cut":11910,"dated":11911,"ean":11912,"ele":11913,"eater":11914,"fe":11915,"gud":11916,"hol":11917,"haw":11918,"hyl":11919,"iy":11920,"jin":11921,"jad":11922,"kl":11923,"kill":11924,"lie":11925,"life":11926,"mel":11927,"matic":11928,"muda":11929,"maha":11930,"nery":11931,"numbered":11932,"oos":11933,"pot":11934,"panic":11935,"rine":11936,"rarian":11937,"sol":11938,"tie":11939,"tically":11940,"trak":11941,"upt":11942,"urop":11943,"vings":11944,"won":11945,"wed":11946,"watch":11947,"yes":11948,"yards":11949,"ytic":11950,"ygen":11951,"zes":11952,"zhou":11953,"Ġ*":11954,"Ġion":11955,"Ġtal":11956,"Ġtack":11957,"Ġtell":11958,"Ġtiger":11959,"Ġtertiary":11960,"heart":11961,"heops":11962,"Ġairst":11963,"inction":11964,"inosaur":11965,"Ġtheor":11966,"Ġtheft":11967,"Ġtherop":11968,"erary":11969,"erland":11970,"onk":11971,"onal":11972,"onts":11973,"Ġsab":11974,"Ġsqu":11975,"Ġsurn":11976,"Ġsins":11977,"Ġsob":11978,"Ġsemic":11979,"Ġoath":11980,"Ġwishes":11981,"atics":11982,"itars":11983,"itÃ¤":11984,"itabh":11985,"itwatch":11986,"orary":11987,"oria":11988,"Ġcin":11989,"Ġcir":11990,"Ġcure":11991,"Ġcous":11992,"Ġcock":11993,"Ġcyl":11994,"Ġcuis":11995,"Ġcubic":11996,"Ġcattle":11997,"eness":11998,"isor":11999,"eson":12000,"Ġfo":12001,"Ġfish":12002,"Ġfool":12003,"Ġfights":12004,"Ġfulf":12005,"Ġfidelity":12006,"Ġfonts":12007,"Ġbol":12008,"Ġbran":12009,"Ġbron":12010,"Ġbrain":12011,"Ġbells":12012,"anth":12013,"anist":12014,"anxi":12015,"Ġing":12016,"Ġincl":12017,"Ġinclusion":12018,"alism":12019,"Ġpor":12020,"Ġpig":12021,"Ġpant":12022,"Ġpse":12023,"Ġpace":12024,"Ġpink":12025,"Ġpale":12026,"Ġpione":12027,"inga":12028,"ashes":12029,"Ġtox":12030,"Ġtoy":12031,"Ġtooth":12032,"Ġtough":12033,"icism":12034,"iculous":12035,"rod":12036,"rott":12037,"Ġmaj":12038,"Ġmigr":12039,"Ġmamm":12040,"Ġmentions":12041,"Ġdorm":12042,"Ġdrown":12043,"Ġdimin":12044,"Ġdwell":12045,"Ġhur":12046,"Ġhire":12047,"Ġhook":12048,"Ġhaven":12049,"Ġhuge":12050,"ourag":12051,"ĠToy":12052,"ĠTaking":12053,"ĠTyn":12054,"ĠTrey":12055,"ĠTuff":12056,"ĠTiger":12057,"ĠTirp":12058,"ĠTLC":12059,"Ġrely":12060,"Ġrede":12061,"ĠAction":12062,"ĠApart":12063,"ĠAPL":12064,"Ġthy":12065,"Ġthorough":12066,"ĠSac":12067,"ĠSue":12068,"ĠSaf":12069,"ĠSites":12070,"ĠSully":12071,"ĠSyria":12072,"ĠSiege":12073,"ĠSovereign":12074,"elines":12075,"ellect":12076,"ĠCA":12077,"ĠCy":12078,"ĠCer":12079,"ĠCave":12080,"stn":12081,"stick":12082,"Ġlord":12083,"Ġlys":12084,"Ġlaugh":12085,"Ġlung":12086,"Ġlingu":12087,"Ġlumber":12088,"omp":12089,"omore":12090,"Ġeat":12091,"Ġeagle":12092,"ctuation":12093,"Ġnit":12094,"ĠnÃ©e":12095,"Ġnamely":12096,"unc":12097,"adows":12098,"ĠThemes":12099,"aman":12100,"ola":12101,"olly":12102,"ĠIan":12103,"ĠIran":12104,"ĠINS":12105,"Ġbearing":12106,"Ġonwards":12107,"urate":12108,"ĠMD":12109,"ĠMP":12110,"ĠMW":12111,"ĠMang":12112,"ĠMason":12113,"ĠMenn":12114,"ĠMoll":12115,"ĠMartial":12116,"ĠMTB":12117,"ĠBud":12118,"ĠBian":12119,"ĠBio":12120,"ĠBalk":12121,"Ġgle":12122,"Ġgear":12123,"idable":12124,"imp":12125,"acc":12126,"ache":12127,"ighed":12128,"igger":12129,"igaret":12130,"igrated":12131,"otten":12132,"terial":12133,"ĠHong":12134,"ĠHip":12135,"ĠHood":12136,"ĠHang":12137,"ĠHills":12138,"ĠHao":12139,"ĠHoz":12140,"ĠHURDAT":12141,"owing":12142,"heric":12143,"Ġstor":12144,"Ġstew":12145,"Ġstaged":12146,"Ġstaying":12147,"Ġstalled":12148,"Ġstabil":12149,"utor":12150,"utely":12151,"uscript":12152,"ayers":12153,"etime":12154,"verend":12155,"ĠPle":12156,"ĠPike":12157,"ĠPoll":12158,"ĠPlym":12159,"ĠPunch":12160,"ĠPPCL":12161,"ĠRN":12162,"ĠRector":12163,"chow":12164,"ulates":12165,"rake":12166,"ĠFal":12167,"ĠFly":12168,"ĠFord":12169,"ĠFinal":12170,"ĠFried":12171,"ĠFires":12172,"ĠFitwatch":12173,"Ġwhate":12174,"ĠWS":12175,"ĠWit":12176,"ĠWant":12177,"ĠWoman":12178,"ĠWait":12179,"ĠWrang":12180,"ĠWald":12181,"ĠWadd":12182,"ĠWells":12183,"ĠWHO":12184,"ĠGro":12185,"ĠGun":12186,"ĠGri":12187,"ĠGord":12188,"ĠGarn":12189,"ĠGiel":12190,"ĠGrey":12191,"ĠGlyn":12192,"ĠGTX":12193,"Ġalg":12194,"Ġalk":12195,"Ġalum":12196,"Ġalignment":12197,"emics":12198,"through":12199,"Ġconfer":12200,"Ġconvers":12201,"ĠNel":12202,"ĠNum":12203,"ĠNap":12204,"ĠNice":12205,"ĠNAT":12206,"ĠLore":12207,"ĠLear":12208,"ĠLower":12209,"ĠLanc":12210,"ĠLiver":12211,"ĠLaf":12212,"ĠLask":12213,"ĠLiao":12214,"ĠLooking":12215,"ĠLodge":12216,"ested":12217,"Ġatomic":12218,"ĠDE":12219,"ĠDun":12220,"ĠDig":12221,"ĠDow":12222,"ĠDry":12223,"ĠDance":12224,"ĠData":12225,"ums":12226,"rome":12227,"ĠJade":12228,"ĠJane":12229,"Ġitem":12230,"Ġheaven":12231,"Ġhearing":12232,"agged":12233,"agua":12234,"istence":12235,"unker":12236,"ava":12237,"avis":12238,"avia":12239,"odes":12240,"Ġsew":12241,"Ġseem":12242,"Ġsectors":12243,"rips":12244,"ĠEmer":12245,"ĠEug":12246,"ĠExt":12247,"ĠEarl":12248,"ĠERA":12249,"ĠOR":12250,"ĠOur":12251,"ĠOric":12252,"ĠOmaha":12253,"Ġsuited":12254,"ifact":12255,"iffer":12256,"ocaly":12257,"ochem":12258,"opra":12259,"ework":12260,"ewise":12261,"Ġorange":12262,"Ġorchest":12263,"Ġexempl":12264,"antour":12265,"Ġshock":12266,"Ġshorter":12267,"Ġshattered":12268,"Ġchip":12269,"Ġchances":12270,"Ġric":12271,"abric":12272,"quis":12273,"ptic":12274,"ipher":12275,"berry":12276,"Ġplut":12277,"Ġplus":12278,"Ġplum":12279,"Ġplates":12280,"Ġplaster":12281,"astrous":12282,"oves":12283,"ovic":12284,"ĠKat":12285,"ĠKal":12286,"ĠKelly":12287,"ĠKheops":12288,"acket":12289,"ello":12290,"geon":12291,"Ġleap":12292,"Ġleaked":12293,"Ġarche":12294,"Ġarterial":12295,"icals":12296,"Ġkit":12297,"ĠStop":12298,"ĠChul":12299,"ĠChand":12300,"ĠChoms":12301,"ĠChopra":12302,"ousness":12303,"Ġunre":12304,"Ġunified":12305,"Ġunoff":12306,"Ġunrel":12307,"ogy":12308,"ĠVis":12309,"ĠVik":12310,"Ġtwee":12311,"orms":12312,"owned":12313,"itioners":12314,"Ġintellig":12315,"Ġintimid":12316,"Ġintellect":12317,"pert":12318,"perors":12319,"Ġclar":12320,"Ġclust":12321,"Ġ350":12322,"placements":12323,"oky":12324,"Ġrespected":12325,"Ġreserved":12326,"Ġresumed":12327,"Ġreserves":12328,"oughts":12329,"ondaga":12330,"Ġenact":12331,"Ġusers":12332,"Ġcompare":12333,"Ġcompelled":12334,"Ġcomparing":12335,"Ġrecip":12336,"Ġrecapt":12337,"Ġdisgr":12338,"Ġdisastrous":12339,"ĠReverend":12340,"merged":12341,"ĠAlgy":12342,"Ġmanpower":12343,"Ġmanuscript":12344,"Ġjail":12345,"Ġroutes":12346,"Ġoverh":12347,"keley":12348,"Ġprehistoric":12349,"Ġaground":12350,"Ġagrarian":12351,"Ġcommended":12352,"Ġscre":12353,"Ġscores":12354,"Ġscandal":12355,"Ġscorer":12356,"Ġscutt":12357,"Ġoutages":12358,"anga":12359,"Ġspin":12360,"Ġspite":12361,"Ġspelling":12362,"Ġspoke":12363,"Ġspouses":12364,"Ġsporadic":12365,"ĠSeg":12366,"ĠSeaf":12367,"ĠSealy":12368,"Ġnearest":12369,"Ġremod":12370,"Ġremote":12371,"Ġattained":12372,"wealth":12373,"Ġallosaur":12374,"ailing":12375,"inded":12376,"ĠBritt":12377,"Ġconsumed":12378,"Ġconsensus":12379,"ĠOnondaga":12380,"Ġshipments":12381,"Ġsecular":12382,"Ġassert":12383,"Ġassists":12384,"Ġ650":12385,"Ġmeals":12386,"ĠComic":12387,"Ġknife":12388,"Ġpeas":12389,"Ġpeers":12390,"obile":12391,"Ġspeculation":12392,"Ġweigh":12393,"Ġweighed":12394,"Ġthanks":12395,"Ġflies":12396,"Ġcoinc":12397,"Ġcooking":12398,"Ġregained":12399,"Ġregret":12400,"Ġregulated":12401,"Ġregurg":12402,"Ġactively":12403,"Ġamaz":12404,"Ġamids":12405,"Ġample":12406,"Ġairline":12407,"Ġairplay":12408,"Ġsubordin":12409,"Ġsubmerged":12410,"Ġinteractions":12411,"Ġintermediate":12412,"Ġretro":12413,"Ġretail":12414,"cked":12415,"endar":12416,"Ġquarters":12417,"Ġapply":12418,"Ġformula":12419,"Ġformidable":12420,"ickens":12421,"ĠShir":12422,"ĠShaw":12423,"ĠLeigh":12424,"Ġsomebody":12425,"Ġsoap":12426,"Ġaccus":12427,"Ġthereby":12428,"Ġapse":12429,"Ġapolog":12430,"ĠAtomics":12431,"ĠAside":12432,"Ġblank":12433,"Ġmonitor":12434,"Ġmonarchy":12435,"ĠWhilst":12436,"Ġtraits":12437,"Ġtrapped":12438,"Ġtrauma":12439,"ĠBlock":12440,"ĠBlues":12441,"Ġdefine":12442,"Ġhighways":12443,"Ġopens":12444,"Ġdecisions":12445,"Ġtransmiss":12446,"ismo":12447,"ĠAnalysis":12448,"ĠAnimal":12449,"Ġ105":12450,"Ġperformer":12451,"Ġseconds":12452,"Ġmetab":12453,"Ġemperors":12454,"Ġemplacements":12455,"ĠConc":12456,"ĠConvention":12457,"ĠMayne":12458,"Ġinstances":12459,"Ġgoverning":12460,"ĠManeater":12461,"ĠClaire":12462,"ĠClimate":12463,"ĠClaude":12464,"Ġdiscouraged":12465,"Ġdiscontin":12466,"Ġestate":12467,"ĠIsle":12468,"Ġsmooth":12469,"Ġsignature":12470,"Ġsignaling":12471,"upa":12472,"Ġepic":12473,"Ġepid":12474,"Ġexpand":12475,"Ġcarving":12476,"Ġcarvings":12477,"anea":12478,"Ġterrible":12479,"Ġreporting":12480,"Ġanyone":12481,"Ġseasonal":12482,"Ġdistant":12483,"ĠAllan":12484,"Ġconstant":12485,"Ġcommands":12486,"Ġcommanding":12487,"erva":12488,"Ġinfected":12489,"Ġopenly":12490,"Ġvaries":12491,"Ġartifact":12492,"Ġfee":12493,"Ġ172":12494,"Ġ174":12495,"Ġ177":12496,"Ġ178":12497,"ĠGeography":12498,"ĠGeological":12499,"Ġslaves":12500,"Ġslope":12501,"Ġ134":12502,"Ġlineage":12503,"Ġengined":12504,"Ġengaging":12505,"Ġ111":12506,"Ġ119":12507,"Ġadvances":12508,"Ġsixteen":12509,"ĠBeau":12510,"Ġdiverted":12511,"Ġphylogen":12512,"Ġmarble":12513,"Ġcasting":12514,"Ġlandown":12515,"Ġconcur":12516,"Ġextant":12517,"Ġrestoration":12518,"ĠSciences":12519,"Ġguy":12520,"Ġguitars":12521,"Ġstorytelling":12522,"Ġpositioned":12523,"Ġrefit":12524,"Ġrefuse":12525,"Ġrefusing":12526,"Ġincreases":12527,"anca":12528,"ĠUSA":12529,"Ġcontrolling":12530,"ynes":12531,"ĠQian":12532,"Ġfinest":12533,"Ġfinance":12534,"Ġfinals":12535,"ĠTelegraph":12536,"Ġlistings":12537,"Ġlistening":12538,"ĠPolic":12539,"ablanca":12540,"Ġhandling":12541,"ĠMonth":12542,"ĠMonten":12543,"ĠMonroe":12544,"Ġconfident":12545,"Ġsimpl":12546,"Ġbases":12547,"ĠColonel":12548,"Ġshortages":12549,"ĠPlant":12550,"Ġprogresses":12551,"Ġordering":12552,"Ġpublishing":12553,"aptist":12554,"ĠHeroes":12555,"ĠRomano":12556,"ographics":12557,"Ġtopics":12558,"Ġvisiting":12559,"Ġsituated":12560,"ĠSouthwest":12561,"ĠHispanic":12562,"Ġcultures":12563,"Ġinvolve":12564,"Ġrealise":12565,"Ġgolden":12566,"Ġpurified":12567,"Ġdetached":12568,"Ġelbow":12569,"ĠPhot":12570,"ĠPhoe":12571,"ĠCarpenter":12572,"ĠRegular":12573,"ĠRegister":12574,"Ġpolitically":12575,"Ġrepresentation":12576,"uka":12577,"achelor":12578,"ployment":12579,"Ġfunerary":12580,"appa":12581,"ĠNeut":12582,"Ġkiller":12583,"Ġeastward":12584,"Ġglaz":12585,"Ġgenerated":12586,"Ġgenerals":12587,"ficial":12588,"Ġlimits":12589,"Ġlimiting":12590,"Ġstepped":12591,"Ġstealing":12592,"Ġsolve":12593,"Ġsolution":12594,"Ġsoluble":12595,"Ġreferring":12596,"Ġreferenced":12597,"Ġdelight":12598,"ĠAntilles":12599,"ĠPorts":12600,"ĠAmjad":12601,"ĠAmitabh":12602,"Ġactivists":12603,"Ġgenres":12604,"Ġhistorically":12605,"rential":12606,"ĠEmb":12607,"Ġthirds":12608,"Ġauthorized":12609,"Ġ140":12610,"Ġaffil":12611,"Ġcrimes":12612,"Ġcrimin":12613,"ĠXu":12614,"ĠXVI":12615,"ĠParks":12616,"Ġpatient":12617,"ĠHarris":12618,"Ġsimilarities":12619,"Ġwanting":12620,"ĠEnuff":12621,"ĠPalmer":12622,"auled":12623,"ĠAcute":12624,"Ġintroducing":12625,"Ġsounded":12626,"ĠÂ²":12627,"Ġsometime":12628,"Ġcirculated":12629,"ĠMcL":12630,"Ġsurvives":12631,"ĠMarket":12632,"Ġidentification":12633,"itzerland":12634,"Ġcruising":12635,"Ġcrucial":12636,"ĠSuicide":12637,"ĠArchitect":12638,"Ġ403":12639,"Ġtreas":12640,"Ġlooks":12641,"ĠGods":12642,"Ġencourag":12643,"Ġ1893":12644,"Ġ1894":12645,"Ġ1898":12646,"Ġcollapse":12647,"Ġdriver":12648,"Ġcommerce":12649,"Ġ1860":12650,"Ġ1867":12651,"Ġfreely":12652,"Ġmassacre":12653,"Ġharass":12654,"ÃŃa":12655,"Ġtorrential":12656,"Ġswitch":12657,"ĠMorris":12658,"Ġinvestors":12659,"Ġestimate":12660,"orescent":12661,"Ġ1875":12662,"Ġ1881":12663,"Ġ1887":12664,"Ġbroader":12665,"Ġgradual":12666,"Ġmanagers":12667,"Ġdevil":12668,"Ġdevolved":12669,"Ġdonors":12670,"Ġ1908":12671,"Ġfavoured":12672,"Ġmotif":12673,"Ġrenowned":12674,"entials":12675,"ĠOthers":12676,"Ġvolunt":12677,"Ġvolumes":12678,"Ġvolcano":12679,"Ġ319":12680,"Ġhonest":12681,"ĠCampaign":12682,"Ġvillain":12683,"Ġvillages":12684,"Ġbombing":12685,"ĠServices":12686,"Ġprotesters":12687,"Ġsettlers":12688,"Ġvariant":12689,"Ġcrab":12690,"Ġcrakes":12691,"Ġthreats":12692,"Ġoccupy":12693,"ĠFilming":12694,"ĠAcademic":12695,"Ġmerged":12696,"ĠSarah":12697,"ĠAssociated":12698,"Ġfocuses":12699,"ĠPatrol":12700,"castle":12701,"Ġsummar":12702,"Ġcalib":12703,"Ġpriority":12704,"ĠSwitzerland":12705,"ĠCrisis":12706,"Ġtypewriter":12707,"Ġrebel":12708,"Ġlyrical":12709,"ĠRoberts":12710,"Ġensured":12711,"Ġmusk":12712,"Ġmuscle":12713,"ĠCrosses":12714,"Ġparticipation":12715,"Ġparticipating":12716,"ĠQuestion":12717,"Ġhoriz":12718,"Ġconcludes":12719,"ĠChristiana":12720,"ĠChristianity":12721,"Ġcertainly":12722,"ĠSurrey":12723,"ĠDelaware":12724,"ĠThomson":12725,"Ġinvestigations":12726,"onto":12727,"Ġsatir":12728,"ĠDratch":12729,"Ġcommentary":12730,"Ġsculpted":12731,"Ġcredits":12732,"Ġbirthday":12733,"Ġdrafted":12734,"Ġphotography":12735,"Ġgirlfriend":12736,"Ġsecretly":12737,"Ġultimate":12738,"Ġ1858":12739,"ĠBerkley":12740,"ĠBermuda":12741,"ĠBerkeley":12742,"Ġexamining":12743,"Ġ440":12744,"Ġaccessible":12745,"Ġblocks":12746,"Ġmethodologies":12747,"ĠSbF":12748,"Ġfloating":12749,"Ġpolythe":12750,"Ġwatches":12751,"Ġvictim":12752,"Ġ360":12753,"backs":12754,"Ġaux":12755,"Ġderives":12756,"ĠMetal":12757,"ĠMetall":12758,"Ġterritorial":12759,"Ġnecessity":12760,"Ġfeeling":12761,"Ġstrengthe":12762,"Ġworried":12763,"ĠConservative":12764,"addy":12765,"ĠZanzibari":12766,"ĠTyp":12767,"ĠHobbit":12768,"Ġattending":12769,"ĠChronicle":12770,"Ġmountainous":12771,"Ġfictionalized":12772,"Ġlaborers":12773,"ĠMyres":12774,"ĠMilton":12775,"ĠFinance":12776,"Ġherds":12777,"bourne":12778,"Ġpunctuation":12779,"Ġdegrees":12780,"Ġcomplaints":12781,"Ġofferings":12782,"Ġpreparations":12783,"Ġobserves":12784,"Ġobservatory":12785,"sworth":12786,"Ġfrust":12787,"Ġfruiting":12788,"Ġacquiring":12789,"Ġconstituted":12790,"Ġforested":12791,"Ġforestry":12792,"alloway":12793,"Ġextremes":12794,"Ġdynamics":12795,"Ġrejects":12796,"Ġdismember":12797,"ĠAddington":12798,"Ġfrequency":12799,"Ġthousand":12800,"Ġceremonial":12801,"Ġsuspic":12802,"Ġpanels":12803,"ĠFourteenth":12804,"ĠGaruda":12805,"Ġmarketed":12806,"Ġmarketing":12807,"racks":12808,"ĠÃī":12809,"Ġsulfonium":12810,"Ġstruggles":12811,"ĠCrusade":12812,"Ġclever":12813,"Ġboundary":12814,"Ġmicroscopy":12815,"ortunately":12816,"Ġchambered":12817,"Ġassembly":12818,"Ġbelongs":12819,"boards":12820,"chemical":12821,"writers":12822,"Ġsoutheastern":12823,"Ġcustoms":12824,"Ġcustomers":12825,"ĠKnight":12826,"Ġirre":12827,"Ġeasier":12828,"ĠRevival":12829,"Ġindicates":12830,"ĠTimor":12831,"ĠBobc":12832,"ĠHamas":12833,"ĠHamilton":12834,"ĠChapter":12835,"Ġresembles":12836,"Ġrecommissioned":12837,"Ġ1836":12838,"Ġsymbolic":12839,"ĠScotia":12840,"ĠFrancis":12841,"Ġoxygen":12842,"ĠMorelos":12843,"ĠHotel":12844,"ĠPersonnel":12845,"ĠLuis":12846,"Ġunpaid":12847,"Ġprecipitation":12848,"ĠCommissioner":12849,"Ġbonding":12850,"Ġscientist":12851,"Ġcancellation":12852,"Ġcategor":12853,"Ġloosely":12854,"ĠForeign":12855,"agonal":12856,"ĠOsaka":12857,"Ġorbits":12858,"Ġencounter":12859,"Ġhorsepower":12860,"Ġmortar":12861,"ĠBhopal":12862,"Ġfortifications":12863,"Ġ370":12864,"Ġcomprised":12865,"Ġcomprises":12866,"Ġambassador":12867,"ĠPortugal":12868,"passes":12869,"passing":12870,"Ġdarkness":12871,"ĠMalini":12872,"ĠFormer":12873,"Ġcontacted":12874,"Ġundertook":12875,"Ġtroubles":12876,"Ġcabbage":12877,"Ġgrandfather":12878,"Ġvanished":12879,"Ġweakness":12880,"Ġdefeating":12881,"Ġrhythms":12882,"Ġbiggest":12883,"Ġdubbed":12884,"ĠJimmy":12885,"Ġenlar":12886,"Ġconsistently":12887,"Ġemotion":12888,"Ġchecked":12889,"Ġtube":12890,"Ġtactical":12891,"Ġsporting":12892,"Ġcardinals":12893,"ĠCardiff":12894,"ĠBrah":12895,"ĠBraz":12896,"ĠRogers":12897,"Ġrumours":12898,"Ġcontributions":12899,"Ġpreferred":12900,"Ġhighlights":12901,"Ġhighlighted":12902,"Ġunsuccessfully":12903,"aaknal":12904,"Ġsinful":12905,"Ġwarning":12906,"Ġcosmos":12907,"ĠFAB":12908,"ĠInitial":12909,"Ġcommissioning":12910,"Ġconsultant":12911,"Ġprinted":12912,"Ġdefinitely":12913,"Ġprices":12914,"Ġmoments":12915,"Ġhotels":12916,"ĠToronto":12917,"unteers":12918,"ĠRÃ©sol":12919,"ĠJosh":12920,"ĠJoshua":12921,"ĠObserver":12922,"ĠVolunteers":12923,"Ġsponsors":12924,"Ġglasses":12925,"Ġaffecting":12926,"Ġelectricity":12927,"Ġdiagnosed":12928,"Ġpacked":12929,"ĠSubsequently":12930,"ĠCapital":12931,"ĠCapablanca":12932,"ĠHonorary":12933,"ĠDoctor":12934,"Ġextends":12935,"Ġextending":12936,"Ġguidelines":12937,"Ġreflects":12938,"Ġreflecting":12939,"Ã³w":12940,"ĠSymons":12941,"ĠSymphony":12942,"Ġgrossing":12943,"ĠLester":12944,"ĠLeslie":12945,"ĠDisney":12946,"Ġexpectations":12947,"Ġshifting":12948,"Ġunconstitutional":12949,"Ġcarbonaria":12950,"Ġexploit":12951,"Ġbattlecruiser":12952,"Ġaccommodation":12953,"Ġhouseholds":12954,"ĠTerritory":12955,"Ġinterpretations":12956,"Ġsocieties":12957,"ĠTotal":12958,"ĠSynopsis":12959,"ĠMelbourne":12960,"ĠHawkes":12961,"ĠDorothy":12962,"Ġdelegated":12963,"ĠOlympics":12964,"Ġexclusively":12965,"Ġenclosed":12966,"Ġschedule":12967,"Ġremarkable":12968,"Ġdecrease":12969,"ĠCommonwealth":12970,"Ġmillimeter":12971,"Ġprompted":12972,"Ġlimitations":12973,"Ġmagnitude":12974,"ĠMcGuin":12975,"Ġdevastating":12976,"Ġadoption":12977,"Ġsophomore":12978,"Ġoctagonal":12979,"Ġinducted":12980,"ĠSabre":12981,"ĠMesolithic":12982,"ĠLtd":12983,"Ġanchored":12984,"ĠOhio":12985,"Ġexercised":12986,"Ġupgrade":12987,"Ġprofessionally":12988,"Ġrenovated":12989,"Ġlicensing":12990,"Ġhemmemas":12991,"Ġtutor":12992,"Ġreversed":12993,"Ġthrowing":12994,"ĠIdol":12995,"ĠBellerive":12996,"Ġvarying":12997,"Ġquantities":12998,"Ġtravelling":12999,"Ġ1170":13000,"ĠXinhua":13001,"ĠMichelin":13002,"Ġwaiting":13003,"Ġintegration":13004,"ĠTaxonomy":13005,"ĠTaiwan":13006,"ĠAzores":13007,"ĠAuthority":13008,"ĠSignific":13009,"ĠMitchell":13010,"ĠMitchells":13011,"ĠFactory":13012,"ĠWinter":13013,"ĠLimantour":13014,"Ġanthrop":13015,"ĠElectric":13016,"Ġdescended":13017,"Ġoverseas":13018,"Ġcooperation":13019,"Ġrepetition":13020,"Ġdreadnought":13021,"Ġdreadnoughts":13022,"Ġbalance":13023,"Ġreopened":13024,"ĠAerodrom":13025,"ĠCarnival":13026,"Ġhence":13027,"ĠStandard":13028,"ĠVersailles":13029,"Ġenhance":13030,"ĠZionism":13031,"Ġsupplied":13032,"Ġantibody":13033,"Ġpredominantly":13034,"Connor":13035,"Ġarose":13036,"Ġsarsens":13037,"Ġmathemat":13038,"Ġliveli":13039,"Ġligand":13040,"Ġnonsense":13041,"ĠWickford":13042,"ĠWarne":13043,"Ġconquest":13044,"ĠChampionships":13045,"ĠLevi":13046,"Ġenthusi":13047,"Ġterrace":13048,"ĠScheer":13049,"ĠOrdnance":13050,"Ġdemocracy":13051,"ĠRepresentatives":13052,"Ġpersuaded":13053,"Ġcounterattack":13054,"ĠHalfway":13055,"burgh":13056,"thened":13057,"Ġtherm":13058,"Ġfestivals":13059,"arthy":13060,"Ġbubbles":13061,"Ġlooting":13062,"ĠMwanga":13063,"ĠFifth":13064,"ĠGreater":13065,"emitic":13066,"Ġconveyed":13067,"ĠEssex":13068,"ĠObama":13069,"Ġreconciliation":13070,"Ġconspirators":13071,"Ġsyndrome":13072,"ĠAdriatic":13073,"Ġhandbag":13074,"Ġcourtyard":13075,"ĠMcKay":13076,"Ġdispersed":13077,"ĠPreparatory":13078,"ĠBolivar":13079,"ĠOccupation":13080,"Ġhatred":13081,"ĠSupreme":13082,"ĠCockburn":13083,"ĠPearl":13084,"ĠPremier":13085,"ĠRIDOT":13086,"Ġvitro":13087,"ĠInvincible":13088,"Ġunexpected":13089,"ĠYamaha":13090,"Ġroutine":13091,"Ġconsolidation":13092,"Ġvertebrae":13093,"Ġmysterious":13094,"ĠEnvironment":13095,"Ġsyncret":13096,"ĠHorizons":13097,"ĠMackinac":13098,"Ġbacteria":13099,"Ġpillars":13100,"Ġreintrodu":13101,"ĠHatcher":13102,"ĠRestaur":13103,"Ġankle":13104,"osophy":13105,"ĠDonegal":13106,"ĠDanny":13107,"Ġratio":13108,"Ġunhapp":13109,"ĠVatican":13110,"Ġadequate":13111,"Ġenormous":13112,"Ġtelevised":13113,"ĠZombie":13114,"Ġsubdiv":13115,"tymology":13116,"Ġconfiscated":13117,"ĠHarvard":13118,"ĠSpirit":13119,"ĠÂµg":13120,"Ġcorridor":13121,"ĠHoliday":13122,"Ġunpopular":13123,"aÃ±ol":13124,"ĠCasualties":13125,"Ġscrutiny":13126,"Ġtheropod":13127,"itÃ¤n":13128,"Ġcuisine":13129,"Ġpanthe":13130,"Ġpseud":13131,"ĠTirpitz":13132,"ĠSafety":13133,"ĠMangalore":13134,"ĠMennon":13135,"ĠMolloy":13136,"ĠHozjan":13137,"ĠPlymouth":13138,"ĠPPCLI":13139,"Ġwhatever":13140,"ĠWrangler":13141,"ĠGielgud":13142,"ĠNATO":13143,"ĠLiverp":13144,"ĠLasker":13145,"ĠOricon":13146,"ĠChomsky":13147,"Ġintellectual":13148,"ĠSeaforth":13149,"Ġcoincided":13150,"Ġamidships":13151,"Ġtransmissions":13152,"Ġdiscontinued":13153,"ĠPhoebe":13154,"Ġcriminals":13155,"Ġstrengthening":13156,"ĠRÃ©solue":13157,"ĠMcGuinness":13158,"15":13159,"59":13160,"60":13161,"DP":13162,"GA":13163,"IOS":13164,"MI":13165,"Pass":13166,"Paul":13167,"SS":13168,"TRA":13169,"WASP":13170,"aet":13171,"afer":13172,"aque":13173,"bted":13174,"boll":13175,"bodies":13176,"ca":13177,"cr":13178,"can":13179,"cence":13180,"cially":13181,"crie":13182,"cott":13183,"cologist":13184,"da":13185,"dest":13186,"date":13187,"dish":13188,"diocese":13189,"for":13190,"fam":13191,"fir":13192,"fest":13193,"found":13194,"fold":13195,"foot":13196,"function":13197,"gian":13198,"hr":13199,"hal":13200,"hran":13201,"hael":13202,"hagen":13203,"hurst":13204,"iors":13205,"iability":13206,"jas":13207,"kin":13208,"lide":13209,"lake":13210,"mith":13211,"mund":13212,"master":13213,"oor":13214,"ois":13215,"pg":13216,"pit":13217,"post":13218,"public":13219,"phew":13220,"rac":13221,"rus":13222,"rass":13223,"rone":13224,"top":13225,"town":13226,"tale":13227,"theless":13228,"uct":13229,"uers":13230,"vens":13231,"wild":13232,"wick":13233,"yon":13234,"yeloc":13235,"zer":13236,"zing":13237,"zir":13238,"zboll":13239,"®t":13240,"Ã§":13241,"Ġtet":13242,"Ġtap":13243,"Ġtran":13244,"Ġtents":13245,"Ġtrol":13246,"Ġtune":13247,"Ġaunt":13248,"inas":13249,"inities":13250,"Ġtheater":13251,"Ġtheolog":13252,"erable":13253,"erias":13254,"onom":13255,"reated":13256,"recht":13257,"Ġsight":13258,"Ġsous":13259,"Ġsax":13260,"Ġsessions":13261,"edest":13262,"Ġowed":13263,"Ġwis":13264,"Ġwish":13265,"Ġwished":13266,"Ġwelf":13267,"Ġwield":13268,"Ġwishing":13269,"aters":13270,"atist":13271,"atters":13272,"atures":13273,"atitude":13274,"atisf":13275,"itate":13276,"itating":13277,"orge":13278,"orph":13279,"Ġcun":13280,"Ġcors":13281,"Ġcars":13282,"Ġcarn":13283,"Ġcash":13284,"Ġcros":13285,"Ġcensus":13286,"Ġcavalry":13287,"Ġcotton":13288,"ena":13289,"esque":13290,"Ġfus":13291,"Ġfals":13292,"Ġfires":13293,"Ġfancy":13294,"Ġfiled":13295,"Ġfabric":13296,"aro":13297,"aris":13298,"arched":13299,"arcer":13300,"aragua":13301,"Ġbent":13302,"Ġbell":13303,"Ġbark":13304,"Ġbert":13305,"Ġbars":13306,"Ġbishop":13307,"Ġbureau":13308,"Ġbreath":13309,"anim":13310,"anelli":13311,"anagara":13312,"alid":13313,"Ġpint":13314,"Ġpaying":13315,"Ġpawn":13316,"Ġpyramid":13317,"Ġpedest":13318,"inger":13319,"asma":13320,"icing":13321,"roit":13322,"rooms":13323,"roiled":13324,"Ġmum":13325,"Ġmere":13326,"Ġmate":13327,"Ġmap":13328,"Ġmail":13329,"Ġmason":13330,"Ġmaps":13331,"Ġdent":13332,"Ġdil":13333,"Ġdug":13334,"Ġdull":13335,"Ġdys":13336,"Ġduel":13337,"Ġdarker":13338,"Ġhole":13339,"Ġhurt":13340,"Ġhabits":13341,"Ġharsh":13342,"leans":13343,"leaf":13344,"ĠTed":13345,"ĠTow":13346,"ĠTip":13347,"ĠTud":13348,"ĠTony":13349,"ĠTourn":13350,"ĠTiber":13351,"ĠTrian":13352,"ĠTao":13353,"ĠTarant":13354,"ĠTogether":13355,"ĠTelescope":13356,"Ġrein":13357,"Ġreward":13358,"Ġrecept":13359,"enters":13360,"ilberg":13361,"ĠAP":13362,"ĠAther":13363,"ĠAten":13364,"ĠSol":13365,"ĠSold":13366,"ĠSomet":13367,"ĠSox":13368,"ĠShips":13369,"eland":13370,"ĠCN":13371,"ĠCod":13372,"ĠCess":13373,"ĠCour":13374,"ĠCran":13375,"ĠCass":13376,"ĠCreat":13377,"ĠChes":13378,"ĠCool":13379,"ĠCrow":13380,"ĠCrew":13381,"ĠCox":13382,"ĠCoff":13383,"ĠCrows":13384,"ĠCider":13385,"ĠCatherine":13386,"Ġlith":13387,"Ġlover":13388,"Ġluc":13389,"Ġlights":13390,"Ġlament":13391,"Ġlocked":13392,"Ġlymph":13393,"Ġecho":13394,"Ġniece":13395,"adium":13396,"adsen":13397,"advant":13398,"ĠTheory":13399,"ami":13400,"amount":13401,"amium":13402,"amma":13403,"oln":13404,"olod":13405,"olate":13406,"ĠIR":13407,"ĠIce":13408,"ĠIch":13409,"ĠIFA":13410,"ĠICA":13411,"ĠIcel":13412,"Ġonline":13413,"ĠMult":13414,"ĠMoth":13415,"ĠMember":13416,"ĠMaid":13417,"ĠMÃ©":13418,"ĠMbar":13419,"ĠMorning":13420,"ĠBes":13421,"ĠBent":13422,"ĠBish":13423,"ĠBry":13424,"ĠBath":13425,"ĠBanc":13426,"ĠBuck":13427,"ĠBreak":13428,"ĠBaptist":13429,"Ġgaming":13430,"Ġghost":13431,"Ġgamma":13432,"idian":13433,"idency":13434,"ima":13435,"ivia":13436,"acher":13437,"acint":13438,"acular":13439,"irteen":13440,"igrant":13441,"ĠHom":13442,"ĠHug":13443,"ĠHull":13444,"ĠHama":13445,"ĠHilberg":13446,"Ġstreak":13447,"Ġstrange":13448,"etheless":13449,"verton":13450,"ĠPE":13451,"ĠPam":13452,"ĠPra":13453,"ĠPred":13454,"ĠPap":13455,"ĠPict":13456,"ĠPick":13457,"ĠPerman":13458,"ĠPresent":13459,"ĠPasc":13460,"ĠPicture":13461,"ĠPaddy":13462,"ĠRen":13463,"ĠRun":13464,"ĠRif":13465,"ĠRound":13466,"ĠRaj":13467,"ĠRuth":13468,"ĠRidge":13469,"ĠRush":13470,"ĠRoo":13471,"ĠRule":13472,"ĠRNA":13473,"ĠRatings":13474,"ĠRiga":13475,"ulamium":13476,"raction":13477,"ĠFL":13478,"ĠFat":13479,"ĠFel":13480,"ĠFire":13481,"ĠFeat":13482,"ĠFreed":13483,"ĠFuture":13484,"ĠFamic":13485,"ĠWed":13486,"ĠWas":13487,"ĠWard":13488,"ĠWool":13489,"ĠWeston":13490,"ĠWatch":13491,"ĠGand":13492,"ĠGong":13493,"ĠGiz":13494,"ĠGob":13495,"ĠGene":13496,"ĠGift":13497,"ĠGhar":13498,"ĠGÃ¡l":13499,"ĠGDP":13500,"Ġalco":13501,"emia":13502,"employment":13503,"thodox":13504,"andering":13505,"Ġconformation":13506,"ĠNC":13507,"ĠNP":13508,"ĠNZ":13509,"ĠNation":13510,"ĠNos":13511,"ĠNine":13512,"ĠNub":13513,"ĠNass":13514,"ĠNile":13515,"ĠNix":13516,"ĠNick":13517,"ĠNancy":13518,"ĠNothing":13519,"ĠNuclear":13520,"ĠLor":13521,"ĠLam":13522,"ĠLith":13523,"ĠLow":13524,"ĠLess":13525,"ĠLangu":13526,"ĠLinc":13527,"ĠLaws":13528,"ĠLinga":13529,"Ġanalys":13530,"osures":13531,"osene":13532,"ĠDer":13533,"ĠDri":13534,"ĠDoc":13535,"ĠDors":13536,"ĠDock":13537,"ĠDrag":13538,"ĠDoes":13539,"ĠDigg":13540,"ĠDennis":13541,"ĠDrama":13542,"umph":13543,"umps":13544,"umacint":13545,"ĠJar":13546,"ĠJunkers":13547,"Ġhed":13548,"Ġhered":13549,"odied":13550,"Ġseed":13551,"Ġseism":13552,"Ġsearched":13553,"pept":13554,"rior":13555,"ĠEP":13556,"ĠES":13557,"ĠEle":13558,"ĠEver":13559,"ĠEqu":13560,"ĠEnt":13561,"ĠEss":13562,"ĠElection":13563,"ĠErik":13564,"ĠOral":13565,"Ġsund":13566,"Ġsuit":13567,"erend":13568,"ocl":13569,"occo":13570,"Ġvib":13571,"Ġvars":13572,"Ġvoyage":13573,"Ġvaudeville":13574,"ĠInsp":13575,"ĠInherent":13576,"opa":13577,"opp":13578,"opard":13579,"opolitan":13580,"ewater":13581,"Ġoral":13582,"Ġorchestra":13583,"Ġexempt":13584,"antis":13585,"anting":13586,"Ġshower":13587,"Ġsharing":13588,"Ġshoe":13589,"Ġshirts":13590,"Ġchain":13591,"Ġchase":13592,"Ġchann":13593,"Ġchicks":13594,"Ġchampion":13595,"Ġchaos":13596,"onged":13597,"Ġrivers":13598,"Ġrush":13599,"Ġrushed":13600,"Ġrarity":13601,"abilities":13602,"aboud":13603,"arting":13604,"quet":13605,"quarter":13606,"ptical":13607,"sev":13608,"season":13609,"bery":13610,"uded":13611,"Ġplaque":13612,"oved":13613,"ĠKo":13614,"ĠKer":13615,"ĠKare":13616,"ĠKings":13617,"ĠKiss":13618,"ĠKobe":13619,"ameters":13620,"inea":13621,"Ġuh":13622,"Ġleased":13623,"Ġleagues":13624,"Ġarc":13625,"Ġnoticed":13626,"ĠStarting":13627,"ĠChal":13628,"ĠChak":13629,"ĠChure":13630,"ĠChanc":13631,"ĠChanging":13632,"ĠChih":13633,"ĠChampion":13634,"ĠChucky":13635,"ĠChuo":13636,"clave":13637,"Ġunw":13638,"Ġunity":13639,"Ġunited":13640,"Ġunions":13641,"Ġunused":13642,"Ġunaware":13643,"Ġunemployment":13644,"apuri":13645,"rank":13646,"ranger":13647,"ĠVit":13648,"ĠVic":13649,"ĠVel":13650,"ffman":13651,"Ġtwins":13652,"Ġintent":13653,"Ġintact":13654,"Ġintensive":13655,"Ġclock":13656,"Ġabortion":13657,"Ġcontrad":13658,"plane":13659,"ploitation":13660,"Ġbutt":13661,"Ġadmits":13662,"Ġperpet":13663,"Ġperipher":13664,"Ġreson":13665,"Ġresur":13666,"Ġresolution":13667,"omech":13668,"ĠHezboll":13669,"Ġencom":13670,"imeter":13671,"Ġcompart":13672,"Ġcompens":13673,"Ġwhoever":13674,"active":13675,"Ġrecast":13676,"Ġrecalls":13677,"Ġdisadvant":13678,"ĠReed":13679,"ĠReports":13680,"Ġoffend":13681,"Ġoffense":13682,"Ġoffenses":13683,"rice":13684,"ricts":13685,"ĠAlmin":13686,"ĠYan":13687,"Ġparted":13688,"Ġpartition":13689,"Ġpartner":13690,"achment":13691,"Ġjets":13692,"Ġjimm":13693,"Ġshear":13694,"Ġrot":13695,"Ġrooted":13696,"Ġimitated":13697,"manship":13698,"Ġoverth":13699,"Ġpreclud":13700,"Ġcommend":13701,"Ġscen":13702,"Ġscatter":13703,"Ġoutcome":13704,"onset":13705,"angled":13706,"Ġspores":13707,"Ġspont":13708,"Ġsparked":13709,"Ġspawn":13710,"ĠSex":13711,"ĠSection":13712,"ĠSega":13713,"ĠSelective":13714,"ternal":13715,"Ġnephew":13716,"Ġremission":13717,"Ġattorney":13718,"Ġallies":13719,"inda":13720,"Ġrelation":13721,"Ġrelate":13722,"Ġrelates":13723,"Ġreliable":13724,"Ġrelocation":13725,"ensed":13726,"Ġconsum":13727,"Ġconservative":13728,"Ġ83":13729,"Ġnewer":13730,"Ġevolved":13731,"ribe":13732,"ribed":13733,"ĠArg":13734,"Ġunderlying":13735,"Ġshipped":13736,"ĠDean":13737,"ĠDePaul":13738,"Ġcharitable":13739,"Ġassisted":13740,"Ġassumption":13741,"Ġ67":13742,"Ġmeets":13743,"ĠComing":13744,"ĠComics":13745,"Ġknight":13746,"Ġknock":13747,"Ġproductions":13748,"obi":13749,"ologic":13750,"Ġ0000":13751,"Ġincidence":13752,"awit":13753,"awall":13754,"awatra":13755,"Ġflot":13756,"Ġflown":13757,"Ġcoaching":13758,"Ġregards":13759,"Ġendg":13760,"Ġairs":13761,"Ġairing":13762,"Ġairworthiness":13763,"Ġsubsc":13764,"Ġinterch":13765,"Ġinteract":13766,"Ġinterven":13767,"Ġravine":13768,"Ġretain":13769,"Ġretard":13770,"Ġretains":13771,"Ġretention":13772,"Ġretiring":13773,"ĠMarine":13774,"ĠMario":13775,"ĠWheel":13776,"Ġtrace":13777,"Ġtrivial":13778,"anson":13779,"Ġformations":13780,"icking":13781,"Ġcoloured":13782,"ĠShl":13783,"ĠShow":13784,"ĠShoot":13785,"Ġpope":13786,"ĠShen":13787,"ĠJoh":13788,"ĠLeices":13789,"ĠLeading":13790,"Ġaccidents":13791,"ificate":13792,"Ġinvention":13793,"Ġinvaded":13794,"ĠAtum":13795,"Ġblues":13796,"Ġmonothe":13797,"ĠWhy":13798,"Ġtrail":13799,"Ġtrains":13800,"Ġtraged":13801,"ĠBlu":13802,"Ġdefining":13803,"Ġdefeats":13804,"Ġdefault":13805,"Ġdefenses":13806,"Ġ125":13807,"Ġopium":13808,"Ġdecree":13809,"Ġdecoration":13810,"Ġtransp":13811,"Ġtransiting":13812,"ĠIndex":13813,"ĠIndeed":13814,"Ġ104":13815,"Ġ108":13816,"Ġ109":13817,"Ġperforms":13818,"Ġmetre":13819,"Ġmetric":13820,"Ġmetals":13821,"Ġmeteorological":13822,"Ġpreservation":13823,"Ġpreserving":13824,"ĠJohnny":13825,"Ġcrex":13826,"Ġappeals":13827,"Ġappealed":13828,"Ġempt":13829,"Ġembar":13830,"ĠConvers":13831,"Ġinstructed":13832,"Ġfounders":13833,"Ġgoverned":13834,"Ġstudios":13835,"ĠManager":13836,"Ġoperative":13837,"veloped":13838,"Ġdescent":13839,"Ġdiscern":13840,"Ġdiscarded":13841,"ĠIsaac":13842,"Ġbrood":13843,"Ġwarrant":13844,"anne":13845,"annon":13846,"annes":13847,"Ġcounting":13848,"Ġproven":13849,"Ġprovoke":13850,"Ġaddressed":13851,"Ġaddresses":13852,"Ġsignals":13853,"Ġimperson":13854,"ĠAdvan":13855,"Ġepit":13856,"Ġepox":13857,"Ġcarri":13858,"Ġcarries":13859,"ĠMeV":13860,"Ġanybody":13861,"Ġdamages":13862,"Ġdepress":13863,"Ġdepressed":13864,"Ġdepleted":13865,"Ġmillions":13866,"Ġdistinction":13867,"Ġdistricts":13868,"ĠCancer":13869,"ĠAllenton":13870,"ĠAllMusic":13871,"eps":13872,"Ġinfring":13873,"Ġinfection":13874,"Ġdestruct":13875,"Ġfeas":13876,"Ġfeared":13877,"Ġfeeding":13878,"Ġ173":13879,"Ġministers":13880,"Ġ04":13881,"Ġ08":13882,"Ġgrating":13883,"Ġgrants":13884,"ĠGeopy":13885,"Ġgunnery":13886,"ĠProper":13887,"Ġ135":13888,"Ġ138":13889,"Ġlinear":13890,"Ġlineup":13891,"Ġ115":13892,"Ġadvocate":13893,"Ġhumor":13894,"Ġhumour":13895,"Ġhumane":13896,"ĠAndre":13897,"Ġdiving":13898,"Ġdivorced":13899,"Ġdivinities":13900,"Ġmarry":13901,"Ġmarched":13902,"prise":13903,"venge":13904,"Ġinspe":13905,"Ġinscription":13906,"Ġ158":13907,"Ġpromul":13908,"Ġpromyeloc":13909,"Ġbuilders":13910,"Ġextract":13911,"Ġextingu":13912,"Ġpublicity":13913,"Ġissuing":13914,"Ġrested":13915,"Ġguards":13916,"Ġguarant":13917,"ĠFranz":13918,"ĠFrances":13919,"ennial":13920,"ennium":13921,"ĠAustrian":13922,"ahan":13923,"ĠNorthumber":13924,"Ġstrat":13925,"Ġrefres":13926,"Ġreferend":13927,"Ġexplore":13928,"Ġexplorer":13929,"Ġcheek":13930,"Ġcheese":13931,"Ġbridges":13932,"ĠOrion":13933,"ĠOrwell":13934,"ĠOrleans":13935,"Ġportions":13936,"Ġportrays":13937,"ĠUSGS":13938,"Ġfinanced":13939,"Ġmodest":13940,"Ġedible":13941,"Ġeditions":13942,"Ġediting":13943,"Ġdemanded":13944,"ĠAugustus":13945,"ĠAugustine":13946,"ĠPoles":13947,"Ġmedals":13948,"Ġcapabilities":13949,"Ġhandful":13950,"ĠMonster":13951,"ĠMoncrie":13952,"ĠNicol":13953,"ĠNicaragua":13954,"ĠNova":13955,"Ġworldly":13956,"ĠColomb":13957,"Ġ305":13958,
[...]
