#version: 0.2
Ġ t
h e
Ġ a
i n
Ġt he
e r
o n
Ġ ,
r e
Ġ s
e d
Ġ o
Ġ w
n d
a t
Ġ .
i t
o r
Ġ c
e n
i s
e s
Ġ f
Ġo f
a r
Ġ b
a n
Ġ in
a l
Ġ p
in g
Ġa nd
a s
Ġt o
i c
r o
Ġ m
Ġ d
Ġ h
i on
Ġ =
l e
o u
Ġ T
Ġ re
en t
i l
Ġ A
Ġt h
Ġ Ċ
Ġ "
Ġ S
e l
Ġ C
s t
Ġ l
o m
Ġ e
Ġ 1
Ġ @
c t
Ġ n
u n
a d
Ġw as
ĠT he
a m
o l
Ġ I
Ġb e
Ġ on
u r
l y
Ġ M
Ġ B
Ġ g
i d
Ġf or
i m
Ġ '
i v
- @
Ġ@ -@
a c
Ġa s
i r
i g
o t
t er
at ion
it h
Ġ H
o w
he r
Ġs t
u t
u s
Ġw ith
Ġth at
a y
c e
e t
Ġ 2
v er
Ġ is
Ġ P
Ġ R
c h
u l
r a
Ġ F
Ġw h
Ġ W
Ġ G
Ġa l
e m
er s
t h
a nd
Ġc on
Ġ N
Ġb y
Ġ L
Ġa n
es t
Ġa t
o s
Ġ D
u m
Ġ )
Ġ (
ro m
Ġ J
Ġ it
0 0
Ġ he
Ġ1 9
a g
is t
un k
a v
Ġd e
Ġ <
o d
Ġp ro
a in
Ġs e
p e
r i
Ġ E
or t
Ġf rom
Ġc om
il l
i es
Ġ O
Ġh is
Ġs u
re s
i f
er e
o c
Ġ v
Ġw ere
ĠI n
o p
it y
e w
ic h
ig h
l d
Ġo r
at e
o re
al l
Ġe x
a k
an t
g h
Ġs h
Ġc h
on g
Ġ r
a b
ar t
q u
p t
s e
ar d
i p
b er
u d
at ed
Ġh ad
es s
Ġp l
Ġ U
m ent
as t
ro u
Ġa re
Ġwh ich
r it
i al
re d
iv e
t e
o v
Ġ K
p p
ac k
am e
or d
i an
el l
g e
in e
ou r
ar y
Ġ u
Ġ le
is h
Ġa r
ic al
igh t
t her
Ġ k
n t
r u
e ar
Ġn ot
ĠS t
Ġ her
i a
ĠC h
ct ion
Ġ ;
o st
av e
u re
ou s
Ġ2 00
c l
Ġ un
o g
Ġ y
a p
id e
u e
r an
f ter
Ġ2 0
s o
Ġthe ir
c c
u st
u b
Ġ V
f f
l and
ou ld
i re
Ġh as
Ġal so
Ġt w
or m
ow n
ag e
i e
it ion
Ġin t
ig n
p er
or k
ation s
Ġc l
Ġa b
Ġ 3
Ġcon t
Ġw he
Ġ :
as s
p l
Ġb ut
Ġit s
Ġbe en
ul t
d u
at er
Ġa d
Ġp er
o k
Ġre s
om e
ĠH e
ir st
ou t
r y
e ct
ou gh
Ġtw o
on d
Ġh ave
or y
l ow
Ġ en
Ġon e
Ġ us
Ġth is
im e
Ġcom p
he d
Ġ20 1
al ly
ĠT h
Ġbe c
Ġwh o
a ct
p ort
Ġre c
Ġ 4
ur ing
Ġd is
Ġf irst
ĠR e
Ġ 5
Ġof f
m er
o ver
r ic
Ġs er
en ce
ĠA l
, @
Ġ@ ,@
Ġo ther
re e
Ġd es
el y
Ġ1 8
it e
i b
Ġ Y
Ġt e
Ġp art
ac h
ou nt
cl ud
i z
Ġm an
Ġa fter
Ġpl ay
Ġ j
Ġs he
i le
Ġ ro
. @
Ġ@ .@
ĠI t
ou nd
Ġ im
a re
m an
o y
Ġo ver
k e
ic e
Ġp re
c es
Ġa g
an ce
c ed
Ġthe y
il d
Ġs pe
Ġcom m
ĠU n
nd er
Ġy ear
it ed
ar k
res s
Ġu p
o od
w n
ol d
Ġs c
Ġin clud
Ġo ut
Ġint o
ent s
or s
ad e
on e
rou gh
i ous
at es
i ed
on s
ub l
an g
Ġs p
in t
p h
l es
ĠS e
ac e
rou nd
as ed
Ġw ould
ab le
ter n
os e
Ġn e
w ard
Ġre m
Ġat t
f t
as e
ur n
Ġw ork
w e
Ġm ore
ion s
Ġal l
Ġthe m
a il
in d
er ed
oc k
Ġt ime
il m
ak e
re at
ing s
Ġre l
ĠB rit
g an
re n
en s
Ġcon s
f orm
Ġ Z
r on
v e
e at
Ġ 8
Ġn ew
Ġe v
ul ar
Ġh im
ĠO n
ri b
i x
ĠA r
v el
us e
Ġ 7
at t
Ġu nder
f er
h ip
Ġe ar
Ġm ost
Ġsh ip
Ġbe t
ĠD e
ation al
Ġse c
Ġch ar
it t
is s
v ed
Ġb o
am p
Ġon ly
Ġc an
Ġas s
Ġ 6
ic t
Ġm e
il y
ol low
n g
ĠC om
ct ed
Ġk n
Ġpro du
u al
Ġf ilm
or th
Ġp e
ot h
in s
Ġc ent
Ġn um
o b
Ġspe c
Ġw e
or n
ol og
Ġ 00
Ġ19 9
b um
Ġwhe n
Ġth an
we en
Ġd uring
s s
Ġin c
Ġb u
Ġab out
a w
Ġf l
i ew
at h
Ġp os
Ġth rough
Ġc o
Ġre g
Ġe nd
Ġa ct
it ies
Ġsu ch
ov e
w ay
em ber
Ġa m
Ġa ir
Ġsu b
Ġin ter
Ġal bum
Ġa c
Ġth ree
ow e
Ġ ra
Ġre t
ĠM ar
Ġbet ween
ĠBrit ish
e y
is ion
ĠW he
Ġw rit
ot her
ter s
c k
Ġl ater
Ġwh ile
o le
Ġt r
an s
e nd
Ġ qu
ĠN ew
Ġ00 0
Ġsu pp
Ġa pp
Ġl ar
ubl ic
or ld
en er
Ġfor m
Ġf ollow
ic k
ou th
Ġ 9
Ġ ver
er t
Ġc ol
ĠS h
Ġwhe re
r al
Ġp o
iv ed
ic s
am es
ĠS he
at ing
Ġd o
ĠJ o
a z
Ġc a
Ġf our
as on
in ce
Ġs ur
Ġre le
f ore
al s
Ġnum ber
Ġs ong
ĠL e
Ġs ome
Ġs o
Ġag ain
j ect
Ġm ade
Ġse ver
over n
Ġa cc
Ġin d
Ġbe ing
Ġrec ord
re land
ĠI reland
if ic
ran s
ĠTh is
t en
is hed
a id
Ġthe re
Ġp ol
Ġm ain
Ġa p
er man
Ġs y
us ic
ers on
if e
ĠUn ited
u g
in ed
is ed
Ġb oth
Ġin v
ĠA t
er n
Ġp op
Ġchar act
Ġ ent
Ġthe n
Ġc all
owe ver
i ke
he s
ar s
Ġl oc
ĠA s
Ġe le
ĠG erman
mer ic
Ġb l
ĠA meric
in k
Ġm on
a j
ĠW h
Ġd ire
Ġbec ame
ar n
Ġyear s
in es
in al
th ough
Ġt ra
Ġc ity
Ġp r
Ġd ay
ain ed
l ed
ĠB l
Ġde f
Ġus ed
Ġh igh
ce pt
i el
d er
Ġre p
h n
i red
Ġbe fore
ow er
Ġ1 2
Ġ19 4
a ir
t s
u res
Ġo p
Ġw ell
ur y
Ġde c
Ġt rans
v iew
is m
ĠA n
ĠI nd
al e
Ġm il
o ol
Ġs ing
Ġ1 0
Ġn o
Ġper form
Ġsec ond
Ġm et
Ġd if
Ġp res
ro w
Ġm ov
oc i
ĠJo hn
Ġc re
Ġf am
Ġser ies
Ġap pe
Ġsever al
f ul
Ġe m
Ġpro te
op le
Ġman y
a use
ĠC on
Ġl ong
id ent
Ġo b
el f
ĠA fter
ĠM ay
Ġin st
em b
Ġoff ic
Ġkn own
Ġf ound
ro l
Ġinclud ing
Ġg overn
Ġst ud
Ġ19 8
ĠM an
v ent
Ġor ig
a red
Ġc rit
ĠC l
Ġo per
vel op
Ġbe gan
Ġdes c
iv ers
Ġdis c
o ot
Ġ /
Ġ est
an k
ĠCom m
s on
t ed
it s
ĠI s
is e
Ġb ro
ak ing
ment s
Ġs m
Ġw ar
an n
ch ool
ra ft
Ġar m
a e
at ive
Ġc ount
Ġb el
ut e
Ġpro v
Ġad d
Ġs ign
Ġc ould
ul l
u p
ur ch
rou p
Ġim p
ro p
ĠA d
Ġe p
ur al
cc ess
Ġcont in
Ġthe se
r am
Ġs et
Ġh ist
Ġex p
Ġc ar
an e
ĠM e
t y
u ed
Ġt er
Ġre port
id ed
Ġsh ow
ro ss
Ġan y
ial ly
on y
Ġd am
ou n
ist s
o ber
im es
Ġde p
Ġle ad
Ġo wn
i er
u red
Ġm ill
ag ed
Ġf eat
em ent
u ally
ion al
Ġse ason
Ġpe ople
Ġs aid
Ġd ist
iz ed
Ġcharact er
i o
ĠC an
Ġe ff
ĠAl l
e p
u nd
Ġd id
Ġre ce
un e
Ġcon st
Ġb ack
Ġg ame
ĠW ar
Ġcomm and
er v
Ġin f
Ġd est
pe ct
ĠCh r
iel d
Ġop en
t on
at her
el er
Ġth ough
Ġv ar
Ġar t
Ġ %
Ġf e
Ġm usic
Ġ1 7
am ed
Ġde velop
Ġagain st
Ã ©
Ġ $
it ary
al v
Ġm in
Ġn ear
iv es
Ġal ong
Ġsu ccess
Ġdesc rib
he l
os ed
Ġ19 1
ĠSt ates
Ġret urn
e k
Ġbec ause
Ġg od
Ġar ch
Ġ 0
Ġcomp le
ĠWhe eler
Ġgovern ment
b all
om an
Ġg r
Ġdes ign
ib le
Ġte am
g et
is od
Ġb att
Ġrele ased
Ġcall ed
ct or
ĠG e
Ġg un
Ġst ru
ĠP ro
os s
te nd
ren ch
Ġep isod
g ed
Ġs l
Ġm ay
Ġl ife
Ġ1 3
Ġan n
Ġun t
Ġear ly
Ġbo ok
ĠAmeric an
a u
ro y
Ġl ine
ĠF e
Ġen g
Ġ1 1
Ġy ou
Ġpart ic
Ġsupp ort
Ġs ame
ou se
ĠF rench
Ġan t
est on
Ġch ild
Ġcons id
Ġship s
Ġcent ury
ener al
y s
Ġa round
ĠJ an
Ġcl ass
Ġad v
aj or
g y
g est
Ġs ix
Ġf ive
il ity
Ġare a
ord ing
Ġfollow ing
Ġsm all
Ġh um
Ġe ach
us ed
ĠA nd
ĠB e
ĠJ une
Ġ19 3
a im
u ary
as h
Ġd iv
ĠI I
Ġg roup
Ġres ult
ĠW orld
Ġan other
Ġunt il
p ed
u es
an ge
Ġser v
ae olog
Ġp h
Ġp erson
Ġm ar
ĠH owever
ut ion
ĠF or
ain s
iss ion
p r
Ġc ast
Ġl and
Ġn ame
ĠG alv
Ġhe l
ĠGalv eston
o ok
u ch
v en
Ġt y
Ġc are
Ġin s
ĠT own
Ġ1 5
Ġ19 7
Ġfam ily
Ġmill ion
u ro
Ġp rom
Ġcon c
m y
Ġbu ild
en ces
id es
ul ation
Ġex t
ction s
ward s
Ġp ublic
ĠB ro
Ġis s
Ġ201 0
Ġatt ack
Ġs ince
Ġm en
Ġre st
ĠS c
Ġg u
ĠP r
ra ph
ĠF ran
ical ly
Ġus e
en n
ĠA ust
om in
Ġst ate
od y
ri end
ĠChr ist
a h
Ġb ased
st em
ut h
ĠN orth
ĠE ng
l l
it al
Ġp ass
Ġst r
Ġst ory
Ġpos ition
Ġd own
Ġre f
il t
st e
ĠI r
ir d
Ġex pl
Ġinc re
i ent
i am
n ing
at ely
Ġc he
Ġg o
ĠCan ad
c ess
Ġo cc
Ġb r
ĠE uro
ĠO r
Ġres p
ĠEuro pe
b le
m ber
ol l
av y
Ġmil itary
Ġal though
ĠJ ord
Ġk m
Ġsing le
ĠJord an
er y
an c
Ġp ort
ac ed
em pt
ĠU S
ian s
Ġcont rol
ĠJan uary
a x
y n
Ġ Q
Ġr un
Ġrece ived
x t
is on
ce mber
et y
Ġhe ad
ag es
Ġplay ed
ĠDe cember
Ġlar ge
ct ober
iv ely
ĠO ctober
ĠIr ish
s ion
Ġs chool
Ġf in
Ġm od
Ġ1 6
ĠThe y
Ġwith in
if ied
Ġpre v
Ġdif fer
ar l
Ġ19 2
Ġ19 5
Ġ ed
Ġ if
is ter
le et
Ġl ike
ĠK ing
Ġspec ies
Ġp ower
Ġto ok
Ġd em
ĠT e
ĠA ug
ĠD uring
itt le
Ġdest roy
Ġepisod e
ĠAug ust
el s
Ġl ist
ĠP ol
u c
Ġm ed
Ġre qu
Ġis land
ĠY ork
an y
Ġre view
el t
ab l
Ġa v
al k
iv ing
c raft
Ġm ajor
Ġe ver
ĠThe re
Ġw ill
Ġth ose
Ġdescrib ed
re t
Ġin it
le y
Ġst art
ru ction
m ed
t ing
Ġc ap
Ġh and
ĠM on
ĠN ic
ore d
Ġatt empt
Ġsy stem
em p
Ġcon f
ĠSe pt
Ġs im
ĠN ov
Ġw orld
Ġb as
ĠP e
Ġprev ious
ĠSept ember
Ġ es
ĠC ol
Ġor gan
ivers ity
Ġbel ie
i um
Ġs ent
Ġs outh
Ġc amp
Ġal low
Ġsh ort
se nd
ide o
Ġ3 0
Ġinclud ed
ĠTown send
a it
a ur
i od
as ter
Ġl ast
Ġn orth
Ġ2 5
ĠP l
ĠJ u
Ġ19 6
av ing
Ġpro g
ri ed
re ad
en e
ĠJ ack
Ġor der
c on
o int
ur ther
Ġst ar
ay s
um ent
Ġcol le
Ġo ld
at ter
Ġp ubl
le v
ra ct
Ġle ft
ĠWh ite
Ġest abl
a pt
Ġd ue
ent ly
Ġn amed
ac hed
ill a
ight s
ĠB r
iv er
Ġst and
ĠJ ames
l u
Ġs ite
at ure
ar ch
om et
ĠH er
ĠNic ole
Ġst ill
ant s
ĠY ou
in ing
ĠR oman
Ġde b
res ent
ak en
Ġhum an
ste in
m s
Ġof ten
Ġd ra
Ġh al
Ġre pl
os p
Ġpro f
ord s
Ġ200 7
Ġ200 9
og raph
Ġapp ro
Ġca pt
ĠAust ral
i qu
n ess
Ġb re
Ġm emb
le ar
om b
Ġ200 8
Ġper iod
ĠZ h
Ġev en
Ġpo int
n er
p ar
s ide
Ġt urn
Ġf oot
Ġto p
Ġm ark
Ġm uch
im ent
Ġloc al
Ġorig inal
Ġconsid ered
Ġt it
Ġf ire
Ġm ake
Ġn ow
Ġro le
Ġmov ed
re w
iv al
iv il
Ġst orm
et s
Ġv is
ron t
Ġpos s
Ġarch aeolog
ĠNov ember
ot s
Ġim port
Ġwe ek
Ġpartic ular
Ġw ater
Ġwh at
ak es
oy al
g er
i k
Ġs it
Ġl ate
Ġfor ces
ĠW est
ĠN ational
ag ue
ort her
Ġcl aim
ĠBl ack
Ġadd ition
Ġreport ed
ĠS outh
Ġbe g
im ony
ĠH is
v es
y l
Ġc ell
Ġc ult
ĠC ount
ĠW ill
Ġex per
Ġj ust
Ġbu ilt
Ġver y
ink el
Ġcare er
orther n
Ġc over
is c
is ing
ĠA pr
ra nd
ard s
ĠRe p
Ġeff ect
Ġdiffer ent
ĠApr il
Ġ [
Ġst ated
ĠF inkel
ĠG u
ĠL ove
av en
Ġar r
Ġ201 1
Ġrel ations
Ġair craft
Ġinv ol
Ġpop ular
Ġpop ulation
ĠZh ou
ĠFinkel stein
Ġo pp
Ġre al
ĠC ent
Ġg old
ĠL ond
ĠComm and
Ġhist ory
Ġmemb ers
s elf
Ġ ]
Ġt ake
Ġa uth
Ġs k
at ch
Ġp ur
Ġm y
us s
pe nd
Ġpl an
ĠUn iversity
Ġappe ar
c hed
m in
Ġf t
Ġto wn
ĠB y
ĠW e
Ġpro ject
ĠE x
Ġcomm un
Ġam ong
Ġcount ry
ĠJu ly
ĠLond on
on es
Ġw ind
Ġd et
Ġe qu
iv en
ut ed
ĠAr my
ĠWhe n
Ġmon th
er ing
Ġs ide
ro te
ĠD iv
Ġpl ace
Ġle g
Ġtr ad
a i
Ġ el
Ġb est
ĠH ait
ĠP h
Ġprodu ced
Ġpres ent
au gh
Ġpubl ished
lev ision
Ġw rote
Ġf urther
ĠA cc
ĠThe se
op s
Ġinf lu
Ġchild ren
. .
o ard
at s
ĠT w
il ar
ĠC ar
ĠC ity
ĠG eneral
ĠCh urch
ĠRe g
Ġev ent
Ġpol it
Ġrep resent
Ġcontin ued
Ġstr ong
d om
u k
Ġw in
an ces
Ġ1 00
Ġg reat
ac hel
Ġcom b
Ġor d
ab or
Ġ200 6
pl oy
Ġbec ome
iz e
tern ational
Ġdire ct
rop ical
b y
e c
i or
y m
Ġs old
Ġw ay
Ġw est
Ġ. ..
Ġf un
Ġb ar
Ġh ome
Ġh owever
Ġbe h
Ġpro p
Ġsu ff
qu ad
ĠAl though
Ġtr ack
Ġgod s
Ġstru ct
Ġty p
a pp
i ers
y le
Ġt en
Ġt ri
Ġp ress
Ġfor mer
ĠE gy
Ġver sion
Ġcrit ic
Ġrelations hip
ĠEgy pt
i ence
p s
Ġf ar
Ġf riend
ĠA ir
ĠN o
Ġde ath
Ġprodu ction
ĠMar ch
Ġwrit ten
Ġdam aged
r um
in a
as tern
Ġl ow
ĠN e
Ġsu g
Ġk ill
Ġhal f
l ing
l ine
Ġc ur
Ġc our
en c
es b
es tern
Ġf ac
Ġb and
Ġl ed
om en
Ġe ast
Ġg l
Ġg ener
ĠW ith
Ġyou ng
ĠRep ublic
ĠAcc ording
f ic
he n
in ess
re en
Ġc ame
ent ion
st ant
Ġl im
Ġn ov
Ġst e
ĠR achel
ĠD es
Ġrecord ed
c ial
o on
ĠS te
Ġ5 0
ĠCount y
Ġt imes
Ġs ol
Ġf ew
Ġf leet
ro du
Ġre fer
st er
ĠR oyal
ĠN esb
ri pt
ie f
Ġus ing
Ġvar ious
ĠNesb itt
m ar
Ġd el
Ġh our
ĠA nt
Ġwith out
ay ing
ĠP ort
ĠE ar
Ġex c
ight ing
Ġ201 3
Ġorig in
Ġbatt le
tend ed
Ġsug gest
Ġt ro
Ġf ore
Ġp ut
ĠA m
ain ing
Ġact iv
o x
r ing
it her
Ġp ost
Ġg en
Ġch art
Ġle vel
ric k
Ġrem ained
Ġhist or
Ġsuccess ful
ĠDiv ision
i ol
i ation
re nt
en se
Ġm ount
Ġd oll
ĠI m
Ġ2 3
ĠE m
Ġinclud e
Ġprote ins
Ġbuild ing
b or
f ord
n e
r ation
en g
Ġm id
Ġth ird
ĠS arn
ĠM ad
ir c
ĠF ey
em y
av es
Ġde cl
Ġsh ould
Ġnot ed
ition s
Ġcomm on
Ġauth or
ĠSarn ia
o ff
Ġf ind
ic es
Ġ1 4
Ġg iven
ist ed
ri e
Ġv iew
Ġte levision
Ġj o
ĠBrit ain
Ġhim self
cept ion
Ġever y
a el
b s
Ġ &
Ġa ff
Ġc r
Ġf ather
Ġto t
id ge
ot ed
ch n
Ġhe ld
Ġv ideo
ran g
Ġcl ub
Ġro ck
i et
p ite
Ġ X
in ation
Ġf act
Ġf ail
ur ric
ĠM in
ĠP ark
Ġse en
ĠY ue
Ġplay er
Ġass oci
Ġrele ase
Ġperform ed
a pe
b ru
c er
re ed
al es
Ġp at
ĠC he
Ġl ess
Ġst at
ra el
Ġne ed
use um
Ġspec ial
Ġthrough out
ĠIs rael
Ġtit le
a f
Ġre ached
ĠB est
Ġg ames
ĠH ar
Ġ2 1
Ġr ight
Ġr ange
Ġinter est
Ġdisc over
Ġsign ific
Ġreturn ed
Ġgun s
ĠFe bru
Ġsim ilar
ĠFebru ary
M S
Ġa ge
ĠA f
ĠA ct
am b
ĠH ist
Ġprof ess
Ġimport ant
Ġ er
Ġw on
Ġw ant
or ies
Ġc ert
Ġn ational
ĠE n
ant ic
se qu
ĠV illa
Ġ201 2
Ġear th
Ġoper ations
urric ane
Ã ¡
at ic
at ory
it er
es e
Ġf ull
Ġp ar
Ġp ri
Ġm ix
Ġm other
Ġl a
ĠP al
ĠR ou
ĠG A
ap er
ens ive
Ġdam age
Ġdevelop ed
a ul
c om
l ish
en ced
ĠT ru
ĠA ss
ĠM ich
Ġg ood
Ġr ad
Ġle ast
Ġob s
Ġnov el
v al
Ġ z
Ġa way
en ed
Ġb ase
Ġto o
Ġm ag
Ġh aving
ĠA c
ĠS p
ĠB ill
ir l
ect ed
ress ed
ĠCom p
Ġpr im
ĠGe or
ĠEng lish
ĠCanad ian
ĠKing dom
Ġtot al
c ent
o ad
Ġf ront
Ġd ied
Ġint rodu
Ġother s
Ġne xt
Ġiss ue
ĠRou te
c o
c hes
d e
Ġs ound
Ġw all
Ġb us
Ġb orn
an z
al th
as k
st on
Ġl ight
Ġ2 8
ĠN orthern
our n
Ġk e
og n
Ġab le
Ġoffic ial
Ġann oun
Ġhel p
Ġestabl ished
g round
w s
Ġ Â
Ġ ide
Ġt aken
Ġt ropical
Ġa ward
Ġs omet
at or
Ġc y
Ġc irc
Ġf inal
Ġf und
ic o
ĠT o
ur t
ĠB att
Ġg ave
Ġfor ce
Ġv iol
Ġres pect
fic ult
ĠAf ric
f ield
re g
Ġm aking
Ġh y
Ġh ow
Ġl aw
ĠM c
im ately
ot t
Ġst yle
ĠR oss
ĠN avy
ĠE d
Ġch ang
ric t
ĠSe c
amp le
Ġapp oint
Ġsur v
ĠAt l
oci ety
Ġfe et
Ġserv ice
Ġprog ram
a ff
g es
s h
Ġt est
Ġs our
Ġc ivil
Ġm ove
st it
un g
ĠM ark
ĠM usic
Ġcon v
ĠU K
ĠRe c
Ġser ved
iz ation
Ġne ver
Ġloc ated
Ġdif ficult
ed er
Ġc e
ĠM ed
ri es
ab ly
ell ing
ap an
ĠOn e
Ġac cept
Ġant imony
e v
it ing
Ġto ur
ĠA M
id s
ĠH aven
Ġcon d
ĠJ apan
ign ed
Ġ201 5
ĠWh ile
Ġconst ruction
Ġthough t
Ġes c
Ġtro ops
l er
Ġ ident
Ġh old
Ġre v
Ġre ad
Ġ2 4
ĠL ock
ĠL ittle
ĠD av
ang u
itt ed
ĠInd ia
ĠCon stant
ĠAustral ia
ĠEar ly
Ġexc av
Ġsignific ant
g a
Ġa ud
in o
Ġw ife
it z
Ġc as
Ġc ru
Ġh ig
ĠS u
Ġn ight
Ġon ce
um b
Ġar g
Ġte chn
ĠAr ch
Ġear l
Ġac ross
Ġcharact ers
Ġappe ared
Ġstud y
e ad
at he
Ġc or
Ġf elt
al y
Ġm m
ĠS ong
ĠC ath
Ġe ight
Ġg et
Ġg round
ac y
ĠH ol
Ġse x
Ġv al
Ġ200 5
Ġbec om
Ġ4 0
Ġplay ers
Ġform ed
Ġpo em
Ġdo es
Ġent ire
Ġday s
ĠIs land
Ġdep ict
b r
o id
v ing
Ġs on
al d
Ġto get
Ġm ater
ill o
ru ct
Ġ200 3
port s
ach ing
Ġup on
ath an
ĠAmeric a
Ġdire ctor
Ġresp ons
Ġmod ern
ĠWill iam
quad ron
Ġtoget her
s en
Ġ !
Ġt re
Ġa ction
Ġc ut
Ġl ook
Ġl ittle
Ġg eneral
ac es
ir on
ver s
ĠG od
Ġex ample
Ġr ank
pp ed
ĠCh ar
Ġun its
Ġen c
Ġ18 9
Ġcol l
Ġacc om
Ġperform ance
Ġcre ated
Ġorigin ally
ĠAM L
ĠConstant ine
w ork
Ġt reat
he st
Ġs ou
Ġd r
le ct
ol ic
Ġg row
iv id
ĠH ouse
ul f
Ġcom mer
if y
Ġch urch
Ġpl ann
Ġcl ose
Ġ18 6
Ġprov ided
con om
Ġfoot ball
Ġtrad ition
ĠReg iment
i ber
j illo
p le
Ġt aking
re m
Ġf re
Ġm ass
ĠT r
ĠC or
ĠC ra
Ġl angu
Ġfor ced
ot e
ĠG reat
Ġare as
eat s
Ġfollow ed
Ġca used
ĠLe ague
Ġinst ead
Ġeff ort
Ġcast le
emp or
Ġparticular ly
ĠTru jillo
h ib
s p
Ġt ru
Ġb ill
Ġb ody
Ġh ar
Ġre se
ĠS chool
Ġe ither
ĠB ey
Ġ2 2
os aur
pe c
Ġrel ig
Ġme as
Ġpe ak
olog y
Ġco ast
ĠInd ian
Ġav ail
A S
d ay
Ã Ń
Ġt or
on c
Ġs w
at ural
it ive
Ġc reat
ĠM or
ĠB ar
iv a
oc ial
ther n
are nt
rough t
Ġsong s
Ġind ivid
Ġinv est
Ġmil es
Ġoffic ers
Ġest im
med i
enc y
h od
o res
ur b
us h
ĠN B
ist ic
Ġse ven
Ġsu per
ish ing
Ġrec ogn
Ġ18 7
Ġ18 8
Ġinter view
Ġtrans port
Ġbro ad
Ġgr ad
ĠBro wn
ĠEurope an
ĠPol ish
ograph y
Ġpolit ical
Ġbus iness
Ġannoun ced
Ġmater ial
r ison
re am
ed y
Ġf em
Ġd ou
Ġre du
ĠA ng
ĠC o
ĠH igh
ĠH MS
ĠR ock
ĠF l
Ġcl os
Ġ201 4
Ġman ag
ron ic
hip s
ĠSh iva
Ġpol ice
ĠAnd erson
Ġmar ri
arl iam
Ġbre ak
ĠDav id
b ar
c her
Ġw omen
Ġb rought
Ġp ast
Ġh ouse
ĠS im
ĠS ap
Ġl ive
Ġe astern
ol ution
ly ing
Ġ2 7
Ġ2 9
ĠP ar
ĠR ed
ĠR iver
ĠW ild
Ġde v
ain t
Ġv e
Ġro ad
ve y
Ġ7 6
Ġme et
Ġwrit ing
Ġprote in
Ġeng ine
ĠCanad a
ĠQ ue
Ġevent ually
ĠGeor ge
ĠSap rang
l ess
m ing
m ost
o o
y c
Ġc ou
Ġc oun
Ġf if
as ing
Ġd on
Ġd en
le ment
il ities
Ġl ove
Ġ19 0
Ġpro cess
ust ry
Ġreg ion
Ġdevelop ment
Ġcomple ted
Ġinvol ved
uk em
Ġdoll ar
arliam ent
m b
v an
in c
Ġf av
Ġf ield
ic an
Ġm ot
Ġm iss
Ġh om
Ġre n
ent ial
ĠA wards
ĠR es
ra g
ĠL ad
Ġde ter
Ġde ities
Ġse a
ĠO ther
Ġv ol
ant ry
ĠSt ate
ff ic
Ġ3 1
oy s
Ġwork ed
Ġtra ining
Ġem ploy
Ġadv ant
Ġbeg in
ĠHait i
Ġbeh ind
ĠMich ael
Ġindivid ual
d le
e pend
m ir
p art
at a
Ġp ot
Ġh on
ĠC amp
Ġe conom
ac ing
Ġas k
Ġ2 6
Ġse e
Ġse par
Ġv ill
pl ay
ib ility
Ġlar gest
Ġcrit ics
Ġarr ived
ĠTw o
Ġla un
Ġappoint ed
Ġavail able
o ice
on n
Ġf ig
ar ian
Ġb omb
Ġin form
Ġto w
Ġd augh
Ġh urricane
le g
Ġre ve
ĠS erv
am ent
id ence
ut es
ĠF ollow
Ġcon du
Ġde al
Ġpro t
Ġle ukem
ap s
Ġab ove
ough t
ke y
one y
Ġwork ing
Ġwrit er
Ġcre w
Ġob ject
Ġset t
Ġvar i
ĠEng land
ĠTe x
Ġcommer cial
b e
b oard
o pe
p or
Ġc ra
is es
Ġd ock
Ġth reat
ĠS ome
om s
ay er
Ġwh ite
Ġhe avy
ĠK ore
Ġ200 4
ĠUn ion
Ġout side
Ġrem ov
Ġcent ral
Ġbro ther
Ġfeat ures
Ġdesign ed
Ġins p
Ġinit ially
Ġclaim ed
Ġord ered
Ġearl ier
ĠFollow ing
it es
Ġf all
Ġb ur
al ity
Ġp ract
Ġh osp
ĠA g
Ġl ack
Ġl oss
ĠM ag
ĠM ost
ĠB el
Ġst ation
ch ol
av al
Ġv oc
ate g
ab y
ĠK eats
ran ce
Ġplay ing
Ġev ents
Ġdire cted
Ġopen ing
ĠFran ce
Ġocc ur
Ġocc up
Ġwind s
ĠHist ory
Ġmarri age
Ġa er
in f
er o
er ous
Ġs ail
Ġc orn
Ġf ree
Ġm ust
id ents
ĠP res
ĠR uss
ul ly
ĠF ilm
ĠN athan
ĠL ong
um ents
Ġpro ble
Ġsp ace
olog ical
Ġfeat ured
Ġdestroy ed
Ġcur rent
ĠAc ad
ĠAtl antic
Ġlangu age
ĠTex as
a ult
m as
Ġs il
Ġf ict
Ġp ra
Ġp ers
Ġl ines
ir th
ĠR ich
ra f
ĠF irst
ĠG overn
ĠE l
Ġint ens
ry ing
Ġ4 5
Ġ5 00
Ġfilm s
Ġele ments
ĠMe x
ped o
Ġposs ible
Ġweek s
Ġequ ip
Ġwant ed
ĠBatt le
u ter
Ġs ocial
Ġw ent
at in
Ġc op
ar ies
Ġp il
Ġm er
Ġd ram
le t
ĠS l
ĠS ar
Ġl ost
id ing
ĠR ob
em ents
ĠL ater
Ġle arn
Ġper cent
Ġpre vent
Ġrem ain
Ġele ct
Ġdec ided
Ġimp ro
Ġopen ed
Ġconc ert
ĠFran k
ĠChrist mas
Ġreview s
Ġprevious ly
Ġdra w
ĠAss oci
a ction
c ing
s hip
he ad
at ors
or ce
Ġf oc
Ġh ost
ad es
ĠB ond
iv ate
ĠP at
ĠP aul
ĠJ e
Ġpro per
ri a
ĠE r
ĠIn f
ĠIn ternational
Ġr ul
Ġad apt
ound s
way s
Ġqu ick
Ġacc ording
Ġbl ack
Ġter m
Ġlead ing
Ġstart ed
Ġcap ital
Ġrepl aced
Ġmonth s
Ġkill ed
ourn al
Ġtor pedo
Ġadvant age
I I
c ast
g o
s el
u ck
z e
Ġs um
Ġc al
Ġc lear
is er
Ġb i
Ġp red
ic ated
ro wn
Ġre d
ĠC re
ĠC ole
Ġg re
et t
ra p
ĠF rom
Ġwh ose
ĠG l
ĠG old
um p
Ġcomp et
Ġim medi
Ġspec ific
az ine
ĠMan y
ĠCl ub
Ġgroup s
ĠPr ince
Ġincre ased
Ġbelie ved
read y
Ġpress ure
bor ough
Ġjo ined
Ġpri or
ĠCath olic
ĠServ ice
A A
e al
m a
t ain
on st
Ġs aw
it ect
Ġm i
ĠS w
ĠS an
ĠS ov
ĠS quadron
ĠC r
ĠC old
Ġn uc
ce ed
ra k
ĠF I
Ġwh om
em or
Ġhe av
ist ing
pe cted
ud e
ĠU p
Ġcomp any
Ġser ious
Ġag reed
ress ion
Ġrem ains
rib uted
Ġsub sequ
ĠMar l
Ġmet res
Ġadd ed
ĠII I
Ġty pe
Ġed uc
iqu e
Ġvis it
Ġcult ure
Ġlim ited
Ġearth qu
Ġke ep
Ġrese arch
ĠBey onc
osaur us
Ġfem ale
ĠBeyonc Ã©
i us
u ation
Ġ -
Ġt ar
in ct
Ġs aying
is k
ar a
Ġm ember
Ġre b
ent h
Ġl y
Ġl iving
ur ity
ĠH ell
ĠP enn
ĠR ober
ĠW estern
Ġal ready
ĠD omin
ist ics
Ġen s
Ġkn ow
Ġsub ject
Ġdef end
Ġnear ly
ĠBro ok
ĠJack son
Ġprofess ional
empor ary
ĠMarl borough
g ely
o f
r ay
t ies
he ast
an i
al ed
Ġto wards
Ġm us
Ġm ph
Ġh app
ĠT V
ĠT er
ĠC ross
Ġn on
Ġn ames
ol ay
ĠP att
ul pt
Ġcon n
ĠD ire
Ġex ec
pp ing
Ġab s
Ġme an
Ġfl ood
Ġreg ular
ĠSh olay
Ġtrans fer
Ġmin or
Ġpartic ip
ĠQ u
Ġcommun ity
ĠPh il
Ġstruct ure
Ġintrodu ced
stit ute
mir al
s c
z y
Ġin ternational
Ġp aper
Ġm ach
Ġh or
il le
Ġth ink
ĠC apt
Ġl ik
Ġn ar
Ġn atural
ĠB ut
Ġg ive
ĠH um
Ġst age
Ġst ates
Ġst aff
ĠP er
Ġcon clud
Ġan im
Ġcom e
qu e
Ġle t
ĠV ict
orm al
Ġad op
ĠAl i
Ġsc ene
eat her
Ġass igned
Ġlar gely
Ġfour th
Ġsur round
Ġso on
Ġarm y
Ġconc ern
ĠChrist ian
Ġpass ed
Ġincre ase
Ġche m
Ġschool s
ĠEgypt ian
Ġhour s
Ġcert ain
Ġce le
AS P
Ġearthqu ake
a ire
a ign
g r
g raf
h ing
u el
Ġt em
Ġw oman
Ġc ross
Ġm useum
ĠA b
ĠS ur
om m
ir ing
Ġst one
ch ie
ul ated
ĠF leet
ĠN az
ĠD el
Ġpro b
Ġ200 0
ĠTh om
ĠY ear
are t
ĠDe f
Ġpo or
Ġprov ide
emp le
Ġes pec
Ġprim ary
Ġcy cl
ĠMark graf
ĠArch aeolog
Ġinvest ig
ĠAssoci ation
Ġespec ially
g in
u le
Ġ ri
Ġ round
on t
Ġs at
Ġs chol
Ġw id
Ġw ide
at re
or ing
Ġc ase
is ions
Ġp ie
Ġe mer
ĠM o
ĠM athe
ĠH all
ra in
ĠG o
Ġal most
ĠD r
Ġcom ment
ru cted
ĠSt ud
ĠTh at
Ġsc ulpt
ĠAr t
Ġbet ter
Ġ199 0
az z
Ġbl ood
Ġtra vel
Ġpres ident
ĠMe ga
Ġcommand ment
Ġteam s
Ġsmall er
Ġposition s
Ġincre asing
Ġrequ est
Ġturn ed
Ġsou thern
Ġrelig ious
Ġestim ated
ĠWild e
b and
r ast
Ġa id
Ġa chie
Ġc red
Ġf ood
ar ily
Ġb irth
Ġd raft
ĠS ince
Ġl iter
ĠB et
us ion
od ies
Ġch ap
Ġr ather
ell ed
ĠV e
pl es
Ġdis p
Ġoff ered
Ġdes pite
Ġim m
Ġpre p
Ġrel ief
Ġ199 4
Ġrecord ing
Ġent rance
Ġbatt les
Ġstru ck
Ġph ot
Ġperson al
ĠMon t
Ġaddition al
Ġsuggest ed
Ġdeter m
ĠVict or
ĠMathe ws
c ient
d en
g al
h ow
n ed
Ġa ver
er ved
on se
Ġs ize
Ġf ell
al ys
as ons
Ġm oney
Ġd oc
Ġh ous
ent al
ĠS un
Ġn ine
Ġg irl
ut ive
us ing
ce an
os es
ĠJ ew
ag o
Ġse arch
Ġcom edy
ill s
ĠO f
ĠIn stitute
Ġr isk
ab ility
ĠU N
ran ch
Ġits elf
Ġsec ret
Ġra id
Ġqu est
Ġacc ount
ific ation
Ġ194 0
Ġstud ents
ĠAd miral
Ġarch itect
yl van
Ġpur p
Ġappear ance
Ġgener ally
rie f
ĠComp any
Ġaward ed
Ġsomet imes
eder al
ĠNB A
ĠPres ident
ĠAcad emy
ĠRober t
e e
i res
k en
Ġ ult
re et
is ation
Ġm ult
ĠA re
ĠA le
ĠC al
ur s
ĠH owe
ĠW ASP
ĠN ot
Ġde ad
ĠE nd
ĠE ast
ĠO ver
ĠO per
Ġr h
Ġpl aced
ĠK rak
Ġtw ent
Ġ18 5
Ġte ac
Ġpre m
Ġwork ers
Ġ8 0
Ġev idence
Ġ6 0
Ġreg ard
Ġlar ger
Ġhigh way
Ġarm ed
Ġsign ed
Ġshow s
Ġfeat ure
ĠGe off
ission ed
Ġcell s
Ġdet ail
Ġdirect ly
ript ion
ighting ale
Ġrank ed
Ġ76 6
ĠQue en
Ġdaugh ter
ĠSov iet
Ġtar get
g g
h am
n el
s ylvan
re st
Ġs ac
Ġs low
ed ing
ar ter
Ġd i
le cted
ĠT int
Ġth us
ĠS o
Ġn omin
ĠB er
ĠB ed
et ic
et ball
ch ism
ĠF riend
ĠL ords
os ing
os ition
Ġex am
Ġsh own
ber t
pp er
ĠSt orm
ĠCh arl
Ġ200 2
Ġwhe ther
Ġ4 4
ric ult
Ġcent er
Ġsub mar
Ġacc ess
Ġbl ue
Ġbl ock
aj ev
Ġmet hod
Ġcrit ical
Ġant i
Ġbuild ings
Ġresp onse
ĠAfric a
Ġsex ual
Ġdou ble
ĠMex ico
ĠSar ajev
ĠCole man
Ġgre ater
ĠPenn sylvan
ĠCapt ain
ĠTint in
ĠSarajev o
b l
n y
r ated
w est
y ria
re ak
Ġs ister
Ġf ace
Ġf rag
Ġin ch
Ġin tended
Ġp arent
Ġm or
ĠT on
ĠS b
ĠS m
ĠS ociety
ĠB ay
ĠH osp
ut z
ĠR oad
and ing
if t
op h
ate chism
te en
ell ig
ĠV ideo
Ġcl osed
Ġen v
Ġoff ice
Ġthem e
Ġfl o
Ġpos itive
Ġam ount
Ġsur f
Ġpol y
Ġmon ument
Ġcar ried
Ġph ys
Ġrequ ired
ĠCol le
Ġcamp aign
Ġstand ard
Ġdeb ut
Ġsold iers
Ġsuff ered
Ġfriend s
Ġfail ed
Ġbegin ning
Ġvill age
Ġremov ed
Ġprob ably
m itted
v in
Ġ ill
re y
Ġw at
Ġw ood
Ġf r
ar ing
Ġb all
Ġb aby
Ġb rief
as es
Ġto ld
Ġm akes
Ġd ate
ĠA v
ĠC ivil
ĠC atechism
un t
ĠB u
Ġfor ward
ith ic
ĠP ost
ĠW ood
ĠG rand
ĠN orm
ĠO ld
Ġv ess
Ġv ict
Ġpl ans
our s
Ġ3 6
Ġ3 00
Ġus ually
Ġwho le
Ġmost ly
Ġbo ats
amp ions
Ġra p
ole c
Ġform s
ĠLe on
air s
Ġhel ped
ĠYou ng
Ġcapt ured
ĠCent ral
ĠMad ero
ĠÂ £
Ġconv oy
Ġhig hest
Ġbecom ing
Ġfif th
ĠCamp b
Ġcra ke
sel ves
ĠDomin ican
b ack
c il
c ause
l ict
Ġa u
is l
Ġb atter
Ġin tern
al t
ing ton
Ġd er
Ġh it
ĠT imes
Ġre act
ĠC ast
ĠM et
im um
im ate
ut y
ut ure
Ġhe alth
od rom
Ġse vent
ri an
ak er
pt ion
Ġun c
Ġun s
ĠV al
Ġres idents
Ġ18 4
ors es
ĠSe ver
Ġne ut
Ġthem selves
Ġwe ap
Ġtr ade
Ġsy n
Ġfam il
Ġoper ation
Ġter rit
Ġter ms
ĠAll osaurus
Ġconst ructed
Ġcommand er
erv ation
Ġsupport ed
ĠBe cause
Ġinit ial
ĠAustral ian
ĠCommand er
ĠDes pite
ĠBill board
ĠSec ond
Ġsour ce
Ġexcav ation
sen al
ĠCra zy
yc ake
Ġquick ly
ĠPatt ycake
ĠFriend s
a ust
b ers
n ow
t o
in ent
in Ã¡
Ġs ays
Ġw estern
Ġf ired
as ion
ro ad
Ġm ight
Ġm atch
Ġh orses
Ġre ar
Ġre ason
ĠS und
ĠC up
ĠM er
ĠM iss
ĠH en
Ġst ri
Ġst ren
Ġwith d
ĠG roup
em s
and s
ĠL a
ĠL i
ĠU l
ĠU nder
ous ly
ran e
Ġinclud es
Ġne cess
Ġrem ix
ĠZ eal
ĠDe part
Ġcan n
Ġme ans
Ġ199 5
Ġver s
Ġca use
Ġmet al
Ġem b
Ġcount ries
Ġexp ressed
Ġdep art
Ġfe el
ĠAnd rew
Ġmar ried
Ġstory line
Ġgo ing
Ġfin ally
Ġattempt ed
ĠPe ter
Ġcamp s
Ġtyp es
Ġactiv ities
Ġmix ed
ĠRec ords
Ġcoun ter
ĠKore an
Ġheav ily
alys is
ĠTon inÃ¡
Ġstren g
ĠZeal and
ĠDepart ment
t ained
u ing
x imately
Ġa ut
Ġs elf
Ġw or
Ġc ost
en es
ic ation
Ġm at
Ġd one
ĠC ons
Ġl og
Ġl ink
Ġl eng
Ġn et
Ġn ature
ad d
ĠM L
ĠM useum
ĠP art
ĠG ab
ers how
ĠD ershow
ist on
Ġsh ot
ab it
art ial
ĠK ody
Ġen emy
ib ar
Ġj ournal
Ġshe ll
Ġover all
Ġsp ent
Ġwork s
Ġrel at
Ġrel ated
ĠZ anz
Ġbo x
Ġpe ace
orn ing
Ġ199 8
Ġind ustry
Ġind epend
Ġpr ivate
Ġoffic er
Ġsl ight
Ġdiv ine
Ġ197 0
Ġiss ued
Ġarchaeolog ical
Ġprop osed
ĠChe val
Ġrad io
Ġide a
Ġrespons ible
Ġtradition al
ĠAng el
Ġlaun ched
Ġoccur red
Ġproble ms
ĠBed ell
ĠPennsylvan ia
ĠDershow itz
ĠZanz ibar
ĠCheval iers
g as
l ies
o es
r ant
Ġt ons
on ed
Ġs af
it or
it te
Ġh ard
ou ra
ĠT y
ĠT om
ĠC P
Ġl ab
Ġn aval
ĠB ack
ĠH ob
Ġst op
ĠP arliament
ĠF oot
Ġat tend
Ġde ep
Ġse qu
ĠE v
ĠO de
ip le
Ġpl ot
ĠCh ronic
Ġcont ract
Ġj azz
Ġspe ed
Ġsc reen
ors hip
Ġ199 9
Ġinc or
Ġra il
Ġ9 0
ĠBl ue
Ġinst it
Ġdisc uss
Ġcomple t
Ġeng aged
Ġserv ices
Ġbr ing
Ġ195 0
Ġsit es
Ġleg isl
Ġstruct ures
Ġcour t
Ġmount ain
ĠMin ister
Ġassoci ated
Ġdiscover ed
Ġmag azine
Ġinsp ired
Ġfict ional
ĠRich ard
Ġequip ment
Ġdram a
ĠInf antry
ĠDire ctor
Ġcele br
Ġtwent y
ĠColle ge
ĠSever al
A T
Ġ ?
er a
Ġw ord
Ġf ighting
Ġf lying
Ġf ederal
Ġm ention
Ġh op
Ġth ings
ĠS y
Ġl abor
Ġe y
am a
ol f
ol k
ĠM y
ĠM il
ĠM id
ĠM ary
Ġg ra
ĠP re
ul es
ĠF in
th ing
Ġcon vent
ĠL o
ĠL ew
ĠD an
um e
Ġr an
ĠSt ra
Ġher d
ĠCh art
Ġun l
ĠV ar
ĠV alk
Ġres c
Ġus es
ĠTh ree
ree k
Ġj ob
ĠIt s
ound ed
rib ution
Ġprodu cer
Ġ199 6
Ġinc hes
Ġ198 0
Ġcontin ue
ash ion
Ġref used
Ġfin anc
Ġav oid
Ġinit i
Ġsol o
ĠJapan ese
iron ment
Ġcondu cted
Ġhosp ital
Ġnuc lear
Ġconclud ed
Ġdoc ument
ĠValk yria
b our
e z
f act
h ood
w ood
Ġt ur
it ation
Ġf uture
Ġb ad
Ġp un
ic a
ic ient
Ġm ax
ĠT urn
Ġl atter
ol id
ur g
ig o
ĠG irl
and er
ĠL ike
est s
ag od
Ġde g
Ġde ploy
Ġcom pl
Ġex ist
Ġch ange
our t
Ġu nd
nt hes
Ġ200 1
Ġy et
ran ia
Ġoff er
Ġpre par
Ġatt ention
Ġass ist
Ġalbum s
Ġra ised
Ġcre ate
Ġstud io
Ġbro ken
Ġlead ers
Ġdist inct
und red
Ġbook s
Ġext ra
Ġresp ond
Ġcontrol led
Ġmajor ity
Ġallow ed
Ġobs erv
Ġrespect ively
Ġchang es
Ġcond itions
Ġcas ual
ĠChar les
Ġaccom p
Ġtru e
Ġbroad cast
Ġleukem ia
Ġpra ised
Ġsubsequ ently
ĠHum an
ĠAre a
ellig ence
a o
i os
n est
s w
z z
Ġt akes
Ġa ctions
Ġs ociety
at on
Ġc er
is ters
Ġf ru
al ion
Ġp ow
ic ago
Ġd omin
ĠA ward
ĠA ston
Ġth ick
ĠS ing
ĠC ong
ol i
ĠI ron
ĠB ass
im in
ot te
us es
ver t
ĠR ad
ĠF ern
ill ery
ĠO ut
oc r
ip p
ell s
ish ment
Ġar ts
ĠCh icago
Ġun it
ĠV ill
du ction
Ġcomp an
Ġpart s
Ġman aged
Ġag ricult
ark er
Ġrem aining
Ġthem es
ail y
Ġnew sp
Ġfl ight
Ġac qu
az er
Ġpol ic
Ġbel ow
Ġconst it
Ġsl ide
Ġdiv ided
Ġprom oted
Ġiss ues
Ġattack ed
Ġrest aur
Ġche ss
Ġbr idge
Ġallow ing
ĠPl ay
Ġold er
Ġpur s
ĠCar ol
Ġcour se
Ġfore st
Ġredu ced
Ġask ed
Ġinform ation
Ġtow er
Ġaer odrom
Ġsil ver
Ġimmedi ately
ĠCold rum
ĠJew ish
Ġquest ion
ĠCharl otte
Ġrap id
ĠLeon ard
Ġleng th
c ers
m en
o e
r is
u gh
Ġ rom
he re
Ġc at
en ing
Ġin j
ro g
Ġm orning
ĠS al
ĠC rit
ĠC are
Ġn orthern
am ber
ĠM ill
ĠM ajor
ĠM ax
ĠB os
ĠW ork
ĠW ater
ĠL ive
ĠO mar
Ġv ia
all ed
all ow
qu are
ĠU T
ĠU rania
og en
Ġdis s
Ġro om
Ġne g
eat h
ĠAr k
fer ence
Ġsec urity
Ġbo ard
Ġprodu cers
aw a
Ġend ed
Ġwrit ers
Ġapp l
Ġform ation
Ġloc ation
Ġdec ision
ĠCon f
pect s
Ġepisod es
ĠFe i
Ġext rem
anc y
Ġmed ical
Ġbas k
ĠPe ople
ĠCol umb
Ġ196 0
Ġappro ach
Ġappro ximately
Ġarchaeolog y
Ġexper i
Ġexper ience
Ġcover ed
Ġeffect s
ĠCent er
Ġinflu ence
Ġpat tern
Ġaccept ed
Ġplann ed
Ġeffort s
Ġmanag er
Ġeduc ation
ĠThom as
bl azer
Ġparent s
Ġnet work
itte e
a ut
h ic
r d
r or
in ity
Ġs al
Ġw eather
it ude
Ġf ully
Ġto ward
Ġm olec
Ġm artial
Ġd yn
Ġh undred
ĠT ri
Ġre ject
Ġre inf
ĠS R
ad o
ĠB ook
ig g
Ġst ars
ch ange
Ġal tern
ĠL atin
est ival
ĠD ist
um n
ĠE aton
ant a
Ġch all
Ġle aving
Ġk ing
Ġab and
Ġad min
Ġdis m
Ġnum bers
aw s
Ġco ins
Ġreg ime
Ġact ing
Ġair port
ĠSh ort
Ġsur re
ĠGerman y
Ġpr ison
Ġhigh ly
Ġ194 2
Ġ194 3
Ġsecond ary
Ġmov ing
ĠCon t
Ġoffic ially
ĠCl ass
ĠAd d
ĠChr is
Ġmin utes
Ġcomple x
Ġconsid er
Ġadv ance
Ġsix th
Ġresult ed
Ġconc ent
Ġcult ural
Ġproject s
Ġcomb at
ĠAnt imony
Ġactiv ity
Ġfre qu
Ġvoc al
ĠGovern ment
ĠHell blazer
Ġtransfer red
Ġcycl one
Ġsurf ace
Ġfamil ies
ĠHen ry
Ġslight ly
Ġbask etball
B C
g n
t ic
u an
u ated
er gy
nd ing
Ġc m
Ġf ight
ar ters
Ġp air
Ġp urch
Ġto mb
ro vers
Ġm ut
Ġth ous
ĠS aint
Ġl if
ol ithic
Ġg ot
Ġst ay
ĠP ri
ch an
ĠG reen
em ed
ĠN ations
ĠL and
ĠL os
ĠD em
ĠO ff
oc ated
Ġv oice
Ġsh oot
ess ion
ĠCh ina
Ġab ility
Ġen ough
Ġcomp ared
Ġ4 00
ib r
Ġj ud
ĠIt al
ark ed
Ġsp ir
Ġcons isted
Ġme ant
Ġqu arter
ĠSh a
Ġsing er
Ġem ph
Ġlong er
Ġ198 8
Ġnear by
ĠPro te
Ġann ual
Ġ193 0
Ġdiv ision
Ġconf lict
Ġfac ilities
ĠAfric an
Ġfav or
Ġfig ure
Ġvari ety
Ġsum mer
ĠGold en
Ġly ric
Ġaver age
ĠAle x
ĠFoot ball
ĠChronic les
Ġcer em
b b
b reak
e x
i est
k ins
u ff
Ġ iron
Ġt im
Ġt ax
Ġs us
Ġo il
Ġo ur
Ġw ear
Ġb ird
Ġb ene
an o
an ced
Ġp an
Ġto ll
Ġd ance
ou ston
ĠT ime
ĠT rans
Ġre form
ĠS am
Ġn ation
ĠM us
Ġg iving
ĠH ouston
us band
ĠP et
ĠF our
ĠF low
ĠG ar
em ic
ĠN S
Ġan g
um ed
oc key
Ġper f
ĠTh rough
Ġim age
ress es
Ġne igh
Ġbo at
Ġinter p
Ġra re
ert ed
ĠCl ark
ank s
Ġ17 9
ĠFor ce
Ġprom ot
Ġdestroy ers
Ġpoint s
Ġmark et
Ġinflu enced
Ġtyp ically
ĠSte f
Ġsour ces
Ġhig her
Ġgrow th
Ġve hic
ĠLad y
ĠFI T
ĠBrook s
Ġmus ical
Ġsurround ing
Ġtem per
Ġult imately
Ġenv ironment
ĠBack ground
Ġincor por
ĠLew is
Ġfinanc ial
Ġrestaur ant
ĠUT C
O T
m on
r ate
r ack
Ġ Ã
on ent
Ġs ulf
or ic
Ġc aves
Ġf low
Ġb odies
Ġp ain
Ġp ound
Ġp ick
Ġm ur
ĠS ir
Ġl ives
om er
Ġn ormal
ĠThe atre
ĠB on
Ġg rew
ir t
ĠH ill
ĠH ome
ĠH ung
ow s
Ġal one
ĠD ay
ĠJ es
Ġex pected
Ġsh r
ell er
Ġle ave
Ġun able
og ue
Ġ3 9
ĠTh ak
Ġrec over
Ġro les
Ġro ute
Ġnew ly
Ġchar ge
Ġwrit e
Ġrecord s
Ġent ered
Ġcall ing
ĠGerman s
Ġpr inc
ĠBl ood
Ġstud ies
Ġbro ke
Ġfeat uring
Ġstru gg
Ġsupport ing
Ġattack s
Ġ192 0
Ġdem onst
Ġlist ed
Ġmed ia
Ġattempt s
Ġshort ly
ĠRoman ian
Ġarchaeolog ist
Ġsit uation
Ġbeg ins
Ġpresent ed
Ġbeh av
Ġrefer red
ĠPal est
Ġofficial s
Ġviol ence
ĠSec ret
Ġident ified
Ġbecom es
Ġplann ing
ĠCor ps
Ġhom es
Ġreve aled
Ġproper ty
ĠCr us
Ġmach ine
Ġdeterm ined
Ġteac her
ĠSm ith
ĠSund ay
ĠCP S
ĠHob bs
ĠGirl s
ĠFern and
Ġcompan ies
Ġemph as
ĠStef ani
e ter
g am
g Ã©
j oy
m e
n ey
r ical
u ous
Ġc le
Ġc ave
Ġf ear
Ġf ashion
Ġb ound
Ġp le
ic ations
Ġm ic
Ġd ro
Ġre pe
il ed
ĠS er
ĠS pe
st anding
Ġn ort
ĠI f
ĠB o
ĠB arker
ut ch
ĠP ublic
ĠR am
ĠF ast
ĠF air
ĠG ulf
Ġal ways
em a
Ġcon ver
ĠL l
Ġan alysis
os a
Ġhe art
ag ing
Ġpro hib
Ġse lected
ĠE ll
ort un
Ġch amber
ord er
ĠCh ild
Ġy our
ap ed
Ġcont rast
Ġcont rovers
Ġper man
Ġen ergy
Ġ18 0
Ġte nd
Ġte xt
Ġpart y
Ġplay s
Ġsp acing
ock s
ĠZ oo
ĠAr m
Ġass emb
Ġspec im
Ġco in
Ġend ing
ans as
Ġmain ly
Ġmon uments
Ġop in
Ġtrans l
Ġprote ct
ann el
Ġarm s
Ġbel ong
Ġimp act
Ġart ist
Ġart ists
Ġalong side
Ġgr ass
Ġ193 9
Ġperson nel
Ġhand s
Ġbas is
Ġbelie ve
Ġstand ing
Ġmark ed
ĠHait ian
Ġlevel s
Ġhistor ic
ĠMad ison
Ġz omb
Ġwall s
Ġchang ed
Ġrev olution
Ġindividual s
ĠBel g
ĠCre utz
ĠVictor ia
Ġprem i
ĠNorm an
Ġweap ons
Ġwithd ra
ĠDist rict
ĠItal ian
Ġlyric s
5 0
O K
T V
b o
c he
i ant
l in
l im
m ond
m ission
p ress
v at
w rit
Ġt ask
Ġs out
Ġw ing
Ġw ild
Ġw ounded
at ur
it able
or ter
or us
Ġc ust
en ge
Ġb ott
Ġin ner
ing u
as ure
Ġm o
Ġm ale
ou d
ĠT ra
Ġre ception
Ġre action
ĠS us
el ph
ĠC orn
Ġn in
Ġn ative
ĠM ac
ĠM ount
ĠB ow
ĠB oth
Ġg ives
ig ade
Ġst ep
Ġst ones
ĠR ul
ul a
ĠF urt
ĠN ight
ĠL ight
Ġcom ic
if f
if orn
Ġex tended
Ġsh are
Ġr ule
se c
ĠK n
Ġk ind
Ġ3 2
Ġcont emporary
Ġ201 6
ĠRe view
ĠY e
Ġte aching
oy age
itt ing
Ġ199 1
Ġinc ident
Ġact s
Ġsupp ly
Ġdo or
ĠAn other
Ġcre ation
Ġcount y
Ġart illery
Ġcomple te
aim an
Ġresult s
ĠPr ime
Ġexpl ained
Ġsent ence
Ġcolle ction
Ġvis ited
ĠCommand os
Ġfore ign
Ġgen us
Ġdoll ars
Ġdecl ined
Ġpil ot
emor ial
ĠUp on
ĠNaz aire
Ġwid ely
Ġliter ature
Ġprep ared
ĠCal iforn
Ġvers ions
ĠMid dle
ĠTurn er
agod a
Ġcasual ties
ĠCong ress
Ġsurre nder
ĠFast ra
ĠFurt ado
F A
b on
h ouse
k i
n own
y ing
Ġ ir
Ġ unk
Ġt all
Ġa im
Ġs ense
Ġo d
it ar
it ch
Ġc and
Ġf ill
Ġf uel
Ġb rick
al ing
Ġm em
Ġd u
Ġh ired
Ġh usband
ĠT emple
Ġre ally
ent ed
Ġl ic
Ġe as
ad elph
ĠB re
Ġg ar
et h
et te
ĠP ac
ra b
ĠN H
ĠD ÃŃ
ĠJ ay
Ġhe ro
ĠO x
ĠIn t
ĠIn ter
op er
Ġr iver
Ġu pper
Ġle ague
Ġnot es
Ġun ique
ĠV ir
per ial
ĠRe v
Ġsc ored
ang ing
ĠSe a
Ġprodu ce
Ġbu oys
Ġsupp lies
ert ain
Ġind ic
Ġsy nthes
Ġele ction
ines e
Ġappe ars
Ġ198 5
Ġreport s
Ġown ed
Ġgr ant
Ġins ide
Ġport ray
Ġrequ ire
elt own
Ġstart ing
ĠPe ters
Ġcolle ct
ĠHer gÃ©
Ġdeb uted
ĠBlack ie
ĠWe ek
Ġinflu ences
Ġrepresent ed
Ġwin ning
Ġgreat est
Ġcritic ized
Ġhistor ical
Ġmid dle
Ġauthor ities
Ġdiscover y
Ġer a
ĠEn ter
Ġsomet hing
Ġarg ued
Ġtreat ment
Ġpot ential
Ġeconom ic
Ġbur ied
Ġcop ies
Ġadapt ed
ceed ed
Ġadop ted
ĠBet ween
ĠCampb eltown
Ġnecess ary
Ġcann ot
Ġstreng th
Ġmention ed
ĠStra pping
ĠClark son
vat i
ĠCaliforn ia
adelph ia
ĠDÃŃ az
N A
g l
k y
l ines
Ġo pt
it ual
Ġc am
is ers
Ġf res
Ġm aster
Ġd ed
Ġd ata
le e
ĠT im
Ġre ach
ĠA ge
ĠS um
ĠC elt
ĠC ourt
Ġl ot
Ġl ower
ol s
ĠB ob
ĠH am
ĠH ow
Ġst ating
ut en
ut ions
ra pped
ĠW il
ĠW ay
ĠW ales
and ed
ĠN ightingale
ĠD en
ĠJ am
ĠJ ac
ag le
Ġde pend
Ġex hib
Ġsh a
Ġch o
Ġr ights
qu arters
ard en
Ġpl ant
ast ic
ĠCh ap
ĠCh inese
land s
Ġ3 3
Ġres emb
Ġcomp os
Ġrec ent
Ġrec omm
Ġ18 3
ib ly
Ġsc ript
ĠDe velop
ĠDe vin
Ġcan cer
Ġ199 3
Ġ199 7
Ġfl ag
Ġam ino
Ġcol or
Ġpo et
Ġdo ing
Ġsy mb
Ġtra in
Ġtra ffic
Ġ194 1
ĠAn iston
Ġ198 6
ĠAd am
Ġlead er
Ġ191 1
ĠFor ces
Ġland ing
ĠSc ot
ĠFran c
Ġpass ing
ste ad
Ġsuccessful ly
Ġview ers
Ġaff ected
Ġhy g
Ġesc ort
Ġaud ience
ruct ure
Ġmeas ure
Ġcreat or
ĠPar vati
Ġsepar ate
Ġfig ures
ĠRuss ian
Ġintens ity
Ġflood ing
ny i
ĠVill aret
Ġnewsp aper
ĠArk ansas
Ġthous ands
Ġmur der
Ġcand id
ĠPac ific
b ury
f all
h ist
h old
i at
i ate
m ical
p ing
p ire
p read
s y
u a
w h
w are
y th
Ġt rying
Ġs ides
Ġo x
Ġw ides
Ġw atch
at ings
Ġf ans
Ġb one
Ġp ay
Ġto day
ro s
ro ph
Ġm ission
ĠT ower
ĠA pp
ĠC oun
Ġl ived
ol en
ĠM od
ĠM ore
ĠM aster
ĠB C
ĠB art
Ġg ates
ac re
ig ration
ter ed
ĠH ot
ĠP ak
ĠP ress
ĠP erson
ĠR ail
ĠR OK
ul ed
ĠG ame
ĠL u
Ġcom es
ud d
ĠK h
ĠSt ory
ĠSt reet
cl us
Ġun p
Ġun ivers
ie uten
Ġ3 4
Ġcont ains
Ġad vent
Ġen joy
Ġdis pl
Ġdis aster
ĠRe ception
Ġpre c
Ġcomm issioned
Ġsc hed
Ġsc enes
Ġout l
Ġout break
Ġ8 00
Ġass ass
Ġass ault
Ġ6 00
Ġnum erous
Ġqu ality
Ġsy m
Ġele ment
Ġdef ences
Ġmov ement
ĠComm ission
Ġexp ed
ĠBro ad
Ġexpl os
Ġgo al
Ġgo als
ĠOr der
Ġpower ful
Ġclaim s
augh t
Ġfar m
ĠSte p
Ġrefer ence
Ġdel iv
ĠIm perial
Ġfact ory
Ġsurv iv
Ġesc ape
Ġcas es
Ġval ue
Ġcoll abor
Ġmeet ing
Ġeconom y
Ġloss es
ĠSl ayer
ĠRob yn
Ġmean ing
Ġri f
Ġpie ce
Ġsubmar ine
Ġflo or
Ġvess els
Ġsevent h
ĠUl ster
Ġrelat ively
Ġmax imum
ĠCarol ina
Ġperf ect
ĠFIT s
Ġnort heast
ĠRul er
ĠEnter tain
ĠDevelop ment
Ġt alk
er ve
on ents
re l
re ement
Ġs quare
Ġw orship
or ation
or ters
Ġc ited
Ġb ond
Ġp arliament
as c
Ġm is
Ġh air
le ph
ĠT re
ĠA p
ĠA st
ĠS ch
ĠS and
ĠM en
ĠM ike
ĠB oard
Ġas pects
ĠH urricane
ĠF er
ĠF red
ĠL ord
est ic
ĠD on
ĠJ ust
ist ry
ain e
oc aust
Ġex it
Ġsh ared
Ġr ate
ast y
ĠK aiman
Ġk il
Ġk ey
ru pt
ran ge
ult an
Ġcomp ounds
Ġrec ently
ĠAl g
Ġpre gn
ild ing
Ġsc ient
Ġatt ra
ĠOn ly
Ġear ned
Ġcan c
ily n
Ġprodu ct
Ġfl ights
Ġact ive
Ġac id
Ġret ired
ĠMar ilyn
Ġfollow s
Ġinv ited
ern on
Ġdec ades
Ġmov es
Ġcontin ues
Ġcar ved
Ġown ers
Ġcharacter istics
Ġdescrib es
Ġ191 4
Ġdesign ated
Ġserv es
Ġprom inent
Ġgu ard
Ġmod el
Ġav iation
Ġconf ir
Ġorgan ized
Ġcolle cted
Ġwin ter
Ġcomb ination
Ġjo in
Ġassoci ation
ĠIsrael i
Ġprim arily
Ġcy t
Ġcru iser
ĠHol ocaust
Ġcou p
Ġcou ple
aps ed
Ġfoc us
Ġexec utive
Ġparticip ated
Ġlik ely
Ġbattles hips
ampions hip
ĠGab bar
Ġlab el
Ġadmin ist
ĠFernand ez
Ġunk nown
ĠCelt ic
Ġwides pread
ĠCoun cil
ĠKaiman awa
c ription
o h
r id
r ong
u it
u fact
w ell
y gh
Ġ ess
Ġt aught
er u
Ġs quad
at ives
it age
it iz
it als
Ġc raft
Ġc ateg
an es
Ġp u
Ġp aid
Ġm ine
Ġd om
Ġd ating
Ġh abit
Ġre ag
il s
il es
ĠS en
ĠS ou
el ess
Ġl o
ad ed
Ġg e
ac ement
ĠH ere
ver y
ĠR y
ĠF ore
ĠF urther
ĠW ash
ĠG ate
Ġcon cept
ĠD ou
um ber
ĠJ er
ag on
Ġse asons
ĠE astern
ĠO s
Ġor b
Ġex cept
Ġr ural
se y
ud get
ĠU ygh
Ġk g
ear ch
ĠSt ar
ĠV oyage
ok e
Ġcomp osed
ĠAl bum
Ġ18 1
Ġman ufact
Ġj ump
ress ive
Ġsp ring
Ġnew s
Ġ7 2
Ġ7 5
Ġ7 9
Ġchar ges
Ġreg ional
Ġact or
Ġac ids
Ġele cted
ĠInd ustry
Ġsing les
Ġperform ances
row s
Ġfound ed
ĠComm ons
Ġreturn ing
ĠPro ject
Ġeng age
Ġpublic ation
anc ing
Ġallow s
Ġcolle ge
Ġstand ards
Ġdra wn
Ġarr ival
Ġmy th
ĠEx press
Ġleg al
ym e
ym es
Ġfun ction
Ġtrack s
Ġste am
Ġstat us
Ġfund ing
Ġenc oun
Ġpeak ed
Ġhon or
Ġthreat ened
Ġpract ice
ĠEr nest
Ġconn ect
Ġconn ected
Ġhor se
Ġschol ars
Ġincreasing ly
Ġachie ved
Ġcred ited
ĠVe eru
Ġpurp ose
ĠCast le
Ġlegisl ation
Ġdeg ree
Ġrapid ly
Ġreinf orce
ĠAdd ition
Ġbene f
ĠMus lim
ĠJes us
N L
a ith
d ess
i ar
i ated
m un
r as
r ative
t t
w ing
y les
Ġ rough
Ġa ired
in y
Ġthe ory
re ct
Ġs en
Ġs ay
Ġs ole
Ġo cean
Ġw ays
is is
Ġf olk
ar m
ar io
Ġb ed
Ġp en
Ġp al
Ġm ort
Ġm ob
Ġm oon
Ġd ry
Ġd ang
Ġd ict
ou red
ĠT our
ĠA rab
ĠS av
ĠS ound
om ers
ct ors
ad ing
am ic
ĠM ic
ĠM ir
ĠM art
ĠM int
ĠB h
ĠB en
ĠB BC
id er
Ġfor t
im ents
iv ity
us sion
ĠR el
ĠR AA
ĠW rapped
ĠG we
ĠG reg
Ġat tended
ĠJ ul
ĠJ ose
Ġhe ard
Ġhe ight
ag n
Ġse ek
ri al
ĠO p
ĠO ffic
Ġsu c
ew ay
ant ly
Ġch ief
ber g
ĠK ur
Ġ3 5
Ġ3 7
Ġcomp r
ĠTh ough
Ġ4 8
Ġdis play
ĠRe ines
iz es
Ġj oint
Ġag ent
Ġ7 0
Ġam b
end ed
Ġcol umn
Ġsever ely
Ġind ust
ific ations
Ġent er
Ġmon it
led ge
Ġstud ent
Ġcar rying
Ġdep th
Ġdist urb
ĠAll ied
Ġdid n
Ġ191 8
ĠFe el
Ġhum ans
ĠSc ott
ĠOr ig
ĠPol and
Ġbelie f
Ġimport ance
Ġinvol ving
Ġmy el
Ġcomb ined
Ġsuff ering
Ġsuff icient
Ġtri p
ĠNe olithic
Ġgl ob
ĠPort ug
rick et
Ġdecl ared
Ġauthor ity
Ġobs erved
ĠSu per
ĠRes earch
Ġbrother s
ĠPhil adelphia
Ġschol ar
Ġcomment ed
Ġmult iple
Ġphys ical
ĠVal ley
oura ged
Ġey e
ĠDan iel
Ġaerodrom es
ĠCrit ical
ĠAlex ander
ĠVir gin
wh ile
ĠPak ist
ĠStep hen
ĠAlg ernon
ĠWash ington
ĠRAA F
ĠGwe nd
S A
f ort
i ary
i ences
j o
p ass
t rack
w ich
w orth
Ã ¨
er ick
re c
Ġs unk
Ġs ave
Ġs ports
Ġo uter
Ġw alk
Ġw ords
or row
Ġb oy
Ġb urn
Ġb udget
al le
ic ed
Ġd ark
Ġh olid
Ġre ct
il is
ĠS ultan
st one
Ġe igh
Ġn or
ly wood
ĠM al
id ers
ig an
ot y
et ric
ĠP en
ĠF ort
ĠF ame
ĠF orm
ĠG ram
Ġan aly
ĠD ar
ĠD ue
ĠD ream
ag an
Ġde ity
Ġse ction
ĠE ach
ĠE ven
ĠO reg
ĠO cean
Ġsu st
ĠIn stead
ip al
Ġpl ain
te xt
ov il
ord in
Ġcont act
Ġ4 2
Ġ4 7
Ġ5 4
Ġ5 6
Ġ5 7
Ġser ial
Ġim ages
Ġsp read
ĠSe ason
ock ed
ĠAr senal
Ġunder t
Ġsec ure
Ġwe ight
Ġwe aken
Ġ199 2
Ġsub stant
Ġinter se
Ġret ire
Ġ9 8
Ġca using
Ġthere fore
Ġ12 0
ĠInd epend
Ġpres ence
Ġfam ous
Ġprote cted
Ġ198 2
Ġdep ression
Ġdist ance
Ġart ic
Ġdevelop ing
Ġ191 9
Ġresult ing
Ġgu itar
Ġorgan ization
Ġstar red
ĠBr ack
Ġcapt ain
Ġbre eding
Ġbeg un
ĠGu ard
ĠGu ide
Ġopp osed
Ġopp ortun
Ġord ers
ĠEm pire
Ġneed ed
ĠÂ °
Ġhy d
Ġtest s
Ġcivil ian
Ġcond ition
Ġsou l
Ġgrow ing
Ġcreat ing
ĠMor o
Ġmanag ement
Ġmot or
Ġcondu ct
Ġvoc als
Ġremain der
ĠPat rick
Ġcompet ition
ĠArchaeolog ical
ĠMo ore
Ġbatter y
Ġindepend ent
Ġcomplet ely
ĠMil itary
ĠVar gas
Ġiniti ative
Ġrespond ed
Ġfru it
Ġagricult ural
ĠCare y
ĠConf eder
Ġreject ed
Ġaband oned
ĠShort ly
ĠHung arian
ĠCrus ad
ĠLl osa
Ġsout heast
ĠYe ovil
Ġded icated
Ġhyg rom
ieuten ant
Ġsched uled
ĠGwend olen
ĠOreg on
a ctions
d ing
h a
h i
m od
n ell
r ons
r ument
s is
t ical
u x
u ge
w ar
x ual
y ond
Ġ ign
Ġt rou
Ġt ried
Ġt emple
re ts
Ġs le
Ġs pl
Ġs we
Ġs ales
Ġs ought
it all
it ness
Ġc ab
Ġc itiz
Ġf ly
Ġf ought
Ġb le
Ġb ank
Ġb order
an a
Ġin n
Ġp ark
Ġp ath
Ġp sy
ic op
Ġd a
Ġd ig
Ġd ut
Ġd ated
Ġh a
Ġh ill
Ġre ign
Ġre aching
ĠS NL
el d
el le
ĠC ec
ĠC AT
Ġl ay
ad ier
Ġbe ach
Ġbe yond
ĠB ranch
ĠB rian
Ġg or
Ġg raph
Ġg rand
im s
ac hes
ot es
ut ing
ce ived
et her
ĠP op
ul ate
ĠF ield
ĠG all
Ġal t
th ur
Ġcon ne
ĠL aw
ĠL iber
Ġan cient
os m
ĠD ubl
ĠD yn
ĠJ ai
Ġhe m
ag ement
ĠE agle
Ġv an
Ġpl at
Ġpl ane
ell ow
ge nd
Ġar rest
cl aim
Ġun iversity
ap y
ap pe
Ġcont ain
ok es
Ġrec onst
Ġdis e
Ġ5 1
Ġoff ers
ĠAl so
iz ing
Ġj un
ĠIt aly
Ġspe ct
Ġsc ale
Ġsp aces
int on
ĠZ ap
Ġ8 7
Ġme chan
Ġwe ak
Ġact ually
Ġac ute
Ġ9 7
Ġacc used
Ġind igo
Ġdef eat
Ġdef ense
Ġ194 4
Ġprote ction
Ġ198 4
ĠCl inton
Ġdesc ription
Ġset ting
Ġcar ry
ĠMe an
Ġter min
Ġback ground
Ġmin ute
Ġ193 7
Ġhel icop
Ġext ensive
Ġrun ning
isc us
Ġpopular ity
Ġappear ances
Ġrelationship s
ĠEgypt ians
ĠEar th
Ġhistor ian
Ġcommon ly
Ġcert ified
ĠMed way
Ġexcav ations
Ġval id
Ġlook ing
onn a
Ġpract ices
ĠGovern or
Ġlearn ed
Ġimpro v
II I
Ġchem ical
ĠSur vey
ĠDel ano
Ġpie ces
Ġemer g
Ġsculpt ure
Ġchap el
Ġrh yth
Ġnomin ated
ĠHosp itall
Ġfr ig
Ġwor st
add ock
Ġrom antic
Ġexperi enced
ĠOff ice
ibr ary
ĠSecret ary
Ġconver ted
Ġperman ent
Ġfres h
ĠEntertain ment
Ġpu zz
etric us
Ġhygrom etricus
Ġdut ies
ĠDubl in
b an
c ome
c hest
e ction
e cess
e enth
g ar
i ents
v ille
w ide
Ġt ry
Ġt rib
Ġa wards
Ġs em
Ġs and
Ġs ort
Ġw ars
Ġc ore
Ġc art
Ġb it
Ġb en
Ġb ig
al ions
Ġp et
Ġp ine
ro sc
Ġm outh
Ġm atter
Ġd ial
Ġd ru
Ġd ub
Ġd ates
ĠT ur
ĠT op
ĠC O
ĠC ull
st ances
ĠThe ir
ur ches
ly m
ĠM a
ĠM ov
ĠB ur
ĠB ost
ĠB ern
ĠB ull
Ġg as
im al
ir ty
ith s
ĠH ib
ĠH addock
Ġst ra
Ġst ores
us hed
ĠP rom
ĠP ass
ĠR os
ĠF ox
ĠF estival
ĠW ang
Ġcon sequ
ĠN ow
ĠL ake
os ure
ĠD est
ĠD aily
ĠD utch
ĠJ im
ag a
Ġde ck
Ġde emed
Ġse at
Ġsh ore
Ġsh ape
Ġr ating
Ġr ival
ĠK e
ĠSt ones
og rap
ran ged
Ġ3 8
ĠHe ad
Ġen l
Ġen z
ĠRe bb
Ġ5 2
Ġoff ensive
Ġshe l
Ġspe ak
ind s
Ġcons ist
Ġcons isting
Ġunder ground
Ġ6 1
Ġkn ew
oth ing
Ġcent re
Ġco ach
Ġact ors
ĠMar c
ĠMar ge
other apy
ĠJo e
Ġdire ction
Ġdef ence
Ġ194 6
Ġ194 9
air man
Ġdec or
Ġem ot
Ġob tained
ĠMay a
Ġdisc ip
Ġprov ince
ccess ful
Ġset s
Ġcar go
Ġdist ribution
Ġdest ruction
hel ess
Ġ191 3
Ġgod dess
Ġbatt alions
ĠPro duction
ĠAnd y
Ġgu est
Ġche ck
Ġfin ished
Ġed ge
Ġrequ ires
Ġrepl acement
Ġcapt ure
iqu es
Ġsk ills
Ġplan et
ps ons
ĠAir port
Ġyoung er
Ġsound track
Ġide as
Ġcirc um
ĠBatt alion
Ġtechn iques
ĠChar act
Ġcoll apsed
sp ace
ĠNB C
ĠSim psons
Ġren amed
Ġvol ume
Ġsett lement
ĠMag n
ĠLong acre
Ġpred ecess
Ġlet ter
Ġemer ged
ĠStud ios
Ġdetail s
Ġmethod s
ĠHosp ital
Ġbrief ly
Ġuns u
ĠAngel es
ĠEv ans
Ġaccomp any
ĠRad io
Ġcerem ony
Ġtemper ature
Ġenvironment al
Ġopin ion
ĠOx ford
Ġflag ship
Ġsurviv ors
Ġkil omet
ĠAlbum s
ĠJose ph
Ġholid ay
ĠBrack nell
Ġpsy ch
Ġdise ase
rosc op
ĠHib iscus
ĠRebb ie
B N
R A
b ed
c y
i as
l a
m ark
m ath
n es
p ic
p ond
r at
r ight
y al
Ġ i
Ġ id
Ġt ub
Ġt act
er g
Ġs un
Ġs port
Ġs quadron
Ġs isters
at o
Ġc ard
Ġc rop
is her
Ġf er
Ġf at
Ġf aith
Ġb ass
an ic
Ġp ul
Ġm ask
Ġd rum
le ction
ĠT od
ĠT ong
ĠT reat
il ing
ĠA D
ĠS MS
ĠC ro
ĠC op
ĠC ab
ĠC ard
ĠC AA
st ruction
om y
Ġe c
ĠM oon
ĠB ra
Ġg ained
Ġg rown
her ry
ce nd
ĠR et
ĠR em
ĠR og
ul ations
ra e
ĠW al
em an
ĠL ar
ĠL abor
Ġpro s
Ġpro ved
Ġcom ing
ĠO nt
ate ur
ak a
Ġch ose
Ġch urches
Ġr um
Ġr atings
ab led
te enth
ĠK im
Ġar senal
Ġk ings
ĠCh ief
cl usion
Ġun ion
Ġcont rib
Ġad ult
Ġres ign
ĠHe aven
Ġ4 6
Ġ4 9
Ġser ve
Ġte en
Ġro of
Ġpre fer
Ġsc ore
les h
Ġcons ists
ĠZ r
Ġ8 5
Ġev ac
ĠOn ce
Ġ7 1
Ġunder st
Ġfilm ed
olog ist
Ġsub s
Ġra inf
Ġapp arent
Ġsur vey
Ġsever e
Ġmain tained
Ġinv asion
Ġdef ensive
Ġhigh l
Ġ194 7
Ġinst rument
Ġ198 7
Ġarm ored
Ġsign al
ĠAd vent
Ġexp anded
Ġlead s
Ġown er
ton a
Ġadv anced
Ġserv ing
ĠAust ro
Ġstr ateg
Ġexpl ains
Ġocc as
ĠOr tona
Ġ195 2
Ġed ition
Ġdestroy er
ĠMon ument
Ġsystem s
Ġsouth west
Ġ25 0
Ġestabl ishment
Ġpolit ics
Ġgreat ly
ĠAir craft
Ġneed s
ourn ey
sh ire
Ġhold ing
Ġtechn ique
Ġdepict s
Ġdepict ing
Ġtre es
Ġaccom pl
Ġtreat y
Ġrelig ion
Ġcoast al
Ġgrad ually
Ġclos er
Ġren ew
Ġsepar ated
Ġinsp ir
Ġpil ots
ĠJe an
Ġdefend ed
Ġchem otherapy
ĠArchaeolog y
ĠGo at
Ġsculpt ures
gal iths
Ġpurp oses
ĠOper ation
Ġmor al
Ġpoly gam
Ġwat ers
ĠBu ilding
Ġreact or
Ġmat ches
Ġsaf ety
ĠTy pe
ĠMary land
Ġdocument ary
ugh t
Ġpurch ased
Ġrecover y
Ġcontrovers ial
Ġzomb ies
Ġcam era
ĠSum mer
ĠFranc isc
ĠSou thern
Ġplat form
ĠZap ata
Ġunsu ccessful
ĠOnt ario
Ġrainf all
E S
P A
P U
a ak
a ud
h aps
l or
m it
p ower
w ise
Ġt iss
Ġa head
in ich
in ema
Ġthe rap
re ted
Ġs in
Ġw arn
Ġc ul
Ġc osm
Ġf reed
Ġf itted
Ġf iring
Ġf lesh
an ish
Ġp age
Ġto m
Ġm el
Ġm int
Ġm ental
Ġd ow
ĠT u
ĠT OT
Ġre nd
Ġre ver
ent ially
ĠS atur
ĠC reek
Ġe th
Ġn ations
Ġn ightingale
ĠI S
Ġon es
Ġg reen
id den
ac ity
ĠH an
ĠH al
ĠH omer
Ġst ages
Ġst yles
ĠP ope
ĠF A
ĠF am
ĠF ront
Ġwh y
ĠW at
ĠW ing
ĠW all
ĠW alk
ĠG ood
ĠG reek
ĠN or
ĠL as
ĠL ieutenant
ag u
ag re
ist ance
od e
Ġse g
Ġse lect
ĠO l
res ents
ĠIn it
Ġr ace
ess ed
Ġpl aces
ĠK PA
Ġnot ing
ĠSt an
Ġher self
Ġun less
Ġy l
Ġint elligence
Ġcont aining
Ġcont ributed
Ġad j
Ġcomp uter
Ġ4 3
Ġdis appe
Ġ18 2
Ġro b
Ġpre ced
Ġag g
Ġcomm ission
ang es
Ġatt ributed
ens es
Ġcons ult
Ġass umed
Ġkn ots
Ġco al
Ġend s
Ġact ress
ans field
ĠNew s
Ġwhere as
Ġsome one
ug by
Ġent ry
Ġpr int
Ġdef in
Ġdef ined
ism s
Ġmov ie
Ġoper ated
Ġarm or
rop ri
Ġexp ress
Ġdist rict
Ġdist ingu
Ġ13 0
Ġeng ines
Ġ15 0
Ġ197 2
Ġrest rict
Ġstory lines
Ġgo es
Ġrun s
Ġhead ed
Ġhead quarters
Ġdem on
ĠPol ice
Ġorgan iz
Ġsent ences
Ġprog ress
Ġstar ring
ĠBr igade
Ġdeb ate
ograph ic
Ġposs ibly
Ġreal ity
ĠCar ter
Ġrepresent ative
Ġfun g
Ġfac ing
hen s
Ġdel ay
ĠIm port
Ġcr ime
ĠX III
Ġfact ors
Ġpat rol
Ã¡ n
Ġbase ball
Ġfund s
ĠEd ward
ĠRec ording
Ġdifficult y
Ġget ting
Ġrespons ibility
Ġdr ink
ÃŃ nyi
ĠMor rison
Ġclos ely
Ġden ied
Ġbomb ard
Ġsett le
Ġhosp itals
Ġoccup ied
ĠRuss ia
Ġproble m
Ġcurrent ly
ĠJe ff
Ġadapt ation
Ġnar row
ĠDef ence
Ġfell ow
Ġhous es
Ġaccount s
Ġregard ed
Ġsubmar ines
Ġfrag ilis
Ġterrit ory
Ġsequ ence
Ġinstit utions
ĠLo ose
Ġtur rets
Ġbad ly
Ġobserv ations
ĠLeonard o
ĠFlow er
ĠBon o
Ġshr ine
Ġple asure
writ er
Ġbott om
ĠNH L
ĠRev olution
Ġsymb ol
Ġenjoy ed
Ġassass ination
ĠFred erick
ĠDou gl
Ġsen ior
ĠCec ily
Ġreconst ruction
ĠMean while
Ġemerg ency
Ġdru g
ĠCull en
ĠBost on
ĠZr ÃŃnyi
ĠSatur day
C A
C O
H g
N S
V D
a ired
b les
c ru
c rib
d on
e ed
f are
g ing
h um
k s
k es
l ike
o T
p ly
p son
w hel
x ts
z ed
Ġ +
Ġt able
in et
Ġthe at
on ium
Ġs n
Ġs an
Ġs alv
Ġw ives
it an
Ġc iting
is hes
Ġf ix
Ġin h
Ġin Hg
al ent
Ġp it
Ġp ric
Ġp ush
Ġm om
Ġd uty
Ġh ot
ou is
ĠT or
ĠA ri
ĠA oT
Ġth r
ĠS on
ĠS pr
el en
ĠC D
Ġl aid
Ġl oad
Ġe t
un te
am ing
ĠM r
ĠM ot
ĠM ass
ĠB ol
ĠB ron
ig r
ot hes
ot illa
ter y
ĠH ockey
Ġst em
Ġst ories
Ġis ol
ĠP o
ĠP ower
ĠR a
ĠR o
ĠR Ã©
ĠW rit
ĠW omen
ĠG r
ĠG il
ĠL ouis
os is
ĠD ah
ĠJ os
ĠJ enn
Ġ19 00
Ġse ems
ri f
ĠE arn
ĠO bs
oc al
Ġv irt
Ġex change
Ġch oice
Ġr itual
ip l
ud a
ast rum
ĠK it
ian ce
Ġnot hing
ĠSt one
ĠSt ansfield
ĠCh annel
ĠV er
ĠV ol
Ġtw in
ie ge
per or
Ġrec re
Ġ5 9
ĠAl an
ĠAl bert
Ġdes ire
Ġro w
Ġro yal
Ġover whel
Ġag ree
Ġspe aking
Ġsc oring
Ġsp ons
ose xual
ens us
Ġcons c
Ġev il
ĠAr ts
Ġsec ured
Ġ6 2
Ġwe bs
Ġfl ank
Ġco ol
Ġam mun
Ġair field
Ġac ad
ĠMar sh
ck s
Ġsur pr
Ġrep resents
Ġdec ade
Ġno ise
Ġperform ing
Ġinst all
vent ion
Ġoper ates
ĠComm ittee
Ġimp lement
Ġshow ed
Ġany thing
Ġcommand ed
Ġmusic ians
Ġ191 0
Ġ191 5
Ġdesign s
ĠGe astrum
Ġ11 0
Ġclass ified
ĠBe ing
Ġ193 6
ues e
Ġ197 7
Ġpass age
Ġref ers
Ġdem ol
ĠPol it
Ġcap acity
Ġlast ed
Ġ196 1
ner gy
Ġexper iment
Ġeffect ive
Ġopp onent
Ġsk y
Ġsk in
Ġcommun ities
Ġdet ect
Ġel imin
Ġprop os
Ġcritic ised
Ġgl ass
Ġgener ation
ĠDes ign
ĠAm un
Ġgen re
Ġdecl ine
Ġfind ing
Ġaff ect
Ġcr isis
Ġfail ure
ĠHist oric
ĠEn n
Ġmag ic
ĠSp ain
ĠSp anish
Ġsurv ived
ĠAtl anta
Ġprogram s
ĠSu pp
Ġtechn ical
Ġentire ly
ify ing
ĠCra b
Ġbill ion
Ġmeas ures
urb an
Ġrecogn ized
ĠBrown s
Ġdou b
ĠAng l
ĠCo ast
Ġmot ion
Ġmiss ions
Ġemploy ed
Ġoccup ation
Ġelect ric
go ing
Ġimmedi ate
ĠFI FA
Ġknow ledge
Ġhapp y
Ġconcern ed
Ġrequest ed
ĠOper ations
Ġslow ly
Ġdi agn
Ġwat ched
ĠAv iation
ĠWood house
Ġneut ral
Ġterrit ories
ĠMer i
Ġshell s
Ġbox ing
ĠTri p
ĠClass ic
ĠDem ocr
Ġwear ing
Ġvehic les
ĠFair ies
Ġspecim en
ĠInt elligence
Ġgrant ed
ĠWeek ly
ĠMod ern
Ġexped ition
Ġdom estic
ĠFore st
Ġbenef it
ĠFeel ings
ĠPortug uese
Ġsust ained
Ġsubstant ial
Ġretire ment
ĠIndepend ent
Ġcitiz ens
ograp her
Ġcircum stances
Ġkilomet res
ĠIS BN
ĠDougl as
ĠEarn est
Ġammun ition
P a
a fter
c hel
e en
e per
i ot
i our
n ers
n amed
s in
t est
v ement
w all
y er
Ã ¶
Ġt ort
Ġt ree
Ġt ied
Ġt onn
Ġa th
Ġa ware
re al
Ġs om
Ġs elling
Ġo ri
Ġw ed
Ġw ard
or a
Ġc ards
en que
is f
Ġb ow
Ġp ack
Ġp ap
as ters
as ury
ro z
Ġm ist
Ġm bar
Ġd ri
Ġd og
Ġh all
Ġh Pa
Ġre asons
ĠA ctor
ĠS ub
ĠC le
ĠC ap
Ġl oyal
om ic
un ch
un ning
ol is
ol ics
Ġbe at
ur ies
ĠM ur
ĠB us
ĠB oy
ĠB ald
Ġg ift
id a
ig ation
ĠH on
Ġst ations
Ġst alk
Ġst anz
us al
ĠP anz
ĠP agoda
ĠR and
ĠG amb
Ġal leg
Ġcon sec
Ġcon text
ĠN ich
ĠN iel
ĠL ab
ĠD o
Ġit ems
od ed
ri er
ĠE nergy
Ġv ic
Ġv ice
op her
Ġex tend
Ġex isting
Ġr ub
Ġr ise
ip s
ip er
ess ions
ish op
Ġar cher
Ġar ranged
Ġnot e
Ġnot able
ĠSt ation
Ġun us
ĠV ice
ult ane
Ġad vert
Ġper mitted
Ġres istance
ĠHe alth
Ġrec ur
Ġrec ru
Ġdis rupt
ĠRe agan
ib be
Ġte xts
Ġspe ar
Ġcomm it
ious ly
Ġne ither
ail and
Ġcons ervation
Ġ6 4
Ġ6 5
Ġ6 6
ict ion
Ġprodu cing
Ġinc ome
Ġfl at
Ġair ports
ĠMar g
Ġsupp orters
Ġso ft
Ġele ctions
ĠAn n
Ġsing ing
Ġdif f
Ġpres erved
ĠCon n
Ġob l
Ġ198 9
ĠCl aws
ann a
ĠAd en
Ġexp osed
ony m
ather ine
Ġvar iation
Ġsuccess or
Ġ0 6
Ġclass es
Ġ193 8
Ġdiv orce
Ġdiv isions
Ġph ase
Ġcast les
Ġext ens
Ġgu id
Ġref lect
ĠOr gan
Ġport ion
Ġ192 6
Ġ195 4
Ġed itor
Ġstart s
Ġcap able
Ġworld wide
Ġbas ic
Ġprog n
Ġtit led
Ġposs ibility
Ġcover s
Ġeffect ively
Ġappear ing
ĠEx eter
Ġdet ected
Ġel se
Ġel abor
ĠCar ibbe
Ġstrong ly
Ġtyp ical
Ġten ure
Ġdeath s
Ġkill ing
enc ies
Ġview s
ĠHar rison
ĠPal enque
Ġke pt
Ġtour ist
Ġread er
ĠCath olics
Ġdepict ed
Ġtre ated
Ġrecogn ition
Ġfield s
Ġleukem ic
Ġobject ive
por ation
Ġbur ial
Ġhost ed
Ġsubsequ ent
Ġreb u
Ġens ure
Ġabs or
ĠVe gas
Ġphot ograph
Ġvess el
Ġvict ory
Ġintern al
rane an
ĠML s
Ġdiscuss ed
Ġbring ing
Ġresc ue
Ġprepar ation
Ġleaders hip
Ġaccomp an
Ġpow ers
Ġpow ered
ĠSing les
ĠBos i
ĠBos n
ĠColumb us
Ġaltern ative
Ġdism iss
Ġspir it
Ġtim ber
ĠThrough out
ĠPalest ine
Ġteacher s
Ġrepe ated
Ġpremi ered
Ġwithdra w
Ġmem ory
Ġgar rison
ĠJam ie
ĠScot land
Ġcandid ate
ĠPerson al
ĠKh an
Ġreag ents
ĠUygh urs
ĠAddition ally
Ġindust rial
ĠVirgin ia
ĠPakist an
Ġweaken ed
ĠGuard ian
Ġsle ep
ĠLabor atory
Ġtom bs
Ġdow nt
ĠImport ance
ĠEnn is
ĠCaribbe an
A F
D S
c le
c ation
d ney
e ch
h ire
i en
i able
j an
n ance
r idge
w in
x is
z her
z og
Ã ³
Ġ ere
Ġt ick
in us
in cess
Ġthe atre
Ġs aves
Ġw itness
it o
it led
it arian
or ial
Ġc old
Ġc ities
Ġc row
is key
Ġf an
Ġf al
Ġf le
Ġf old
Ġb ul
Ġto uring
ro om
Ġm ess
Ġm ile
Ġd ies
Ġd rew
Ġd iet
Ġd aily
le com
ĠA A
ĠA round
Ġth irty
ĠS ym
ĠC ub
ĠC ricket
st ream
Ġl it
Ġn ick
Ġn urs
un sw
ol ved
ol itan
Ġon to
ur i
ur ation
ĠM all
ĠM att
ĠB a
ĠB i
ĠB ore
ĠB ank
ĠB rand
ĠB aby
ĠB alt
ĠB udd
Ġg ang
Ġg ross
Ġfor th
im inal
ĠH ur
Ġst ore
ut ional
et ics
ĠP ier
ĠR ow
ĠR ay
ra ge
ĠF all
ĠF oli
ĠW u
ĠW ars
ĠG ully
em ies
ĠL es
ĠD is
ĠD ang
ĠD VD
ĠJ un
Ġhe re
ag ogue
Ġse ctor
ĠE p
ĠE du
ill ing
ĠO roz
Ġsu itable
Ġex pect
Ġsh if
Ġch ance
ĠK a
our ces
ĠSt r
Ġun con
Ġy outh
ĠV an
Ġint r
Ġcl othing
Ġab oard
Ġcont ained
Ġper mission
ok ed
ĠTh ailand
Ġ5 3
Ġ5 5
Ġpart ly
Ġpart ies
ach t
Ġj et
Ġover l
Ġag reement
Ġcomm ittee
ĠUn it
ĠSe as
Ġ8 9
ĠDe p
ins ula
Ġam ph
Ġam ateur
Ġsub st
Ġqu ake
Ġ9 00
ĠLe g
Ġthere after
Ġent ering
ĠWh at
ĠBl of
Ġrep airs
Ġdec ides
Ġcre ws
Ġgovern or
ann ed
Ġarm ament
Ġexp ans
Ġcar bon
Ġdist ributed
pect ive
Ġbatt alion
ĠPro v
ĠPro test
Ġ11 8
Ġ193 1
Ġland s
Ġland fall
Ġ197 9
Ġexpl o
Ġocc asion
Ġdiffer ences
Ġ192 9
ister ed
ĠTe levision
Ġisland s
Ġbelie ves
Ġ196 4
ĠJack ets
atter ed
ĠBr unsw
Ġmark s
Ġarchaeolog ists
Ġsit u
Ġsk et
Ġel der
ĠHait ians
Ġtri es
Ġtri als
rum ents
ĠWith in
Ġste ad
Ġbattle cru
Ġmount ed
Ġmount ains
ĠMin istry
ĠChe mical
Ġstat istics
Ġpar ish
ĠGeor g
Ġsignificant ly
ĠHol lywood
ĠWilliam s
Ġaccom mod
Ġ186 1
ĠCor poration
Ġbill s
Ġhar bour
Ġrese ar
Ġsuper v
Ġtransport ation
Ġgrad uated
Ġmaterial s
ĠHigh land
Ġhouse hold
Ġengine ers
Ġden omin
Ġmiss ing
Ġlaun ch
Ġdaugh ters
Ġreve als
Ġprot est
Ġprot ests
ĠMag azine
Ġstation ed
Ġfict ion
Ġcop y
Ġfoc used
ĠEr zher
Ġcal iber
Ġnuc le
ĠTer rit
Ġabs ence
ĠAb out
Ġsecret ary
Ġarchitect ure
Ġrh yme
Ġder ived
Ġstri ke
ĠLi SA
Ġaut om
Ġlink ed
Ġstop ped
Ġexist ence
Ġneg ative
Ġmolec ules
Ġconsider able
ĠPri or
Ġbird s
Ġpan el
Ġneigh bor
Ġinterp ret
Ġincorpor ated
ĠThak ur
ĠThak sin
Ġbehav iour
Ġnin th
Ġdispl aced
ĠBroad way
Ġconfir med
Ġreinforce ments
Ġrough ly
ĠMart in
Ġartic le
Ġspl it
Ġrhyth m
Ġsem i
Ġdecor ated
Ġpredecess or
Ġaccompany ing
ĠFrancisc o
Ġcul min
ĠWat son
ĠGil bert
Ġwebs ite
ĠTrip oli
Ġtonn es
Ġaccompan ied
ĠFoli ot
ĠOroz co
ĠBlof eld
ĠBrunsw ick
ĠErzher zog
a wn
b es
b al
b orn
f riend
g en
g ery
h aust
n ic
n app
n ormal
p at
r ad
r ase
u ate
Ã ¼
Ġ #
Ġ ic
Ġ ur
Ġ rib
Ġt ail
Ġt urb
Ġt ells
Ġt anks
he rent
Ġa st
in ery
er c
re es
Ġs am
Ġs ons
Ġs ens
Ġs oci
Ġw olf
Ġw rong
it a
it ated
or ida
Ġf it
Ġf ast
Ġf ert
Ġf air
Ġf aced
Ġb rand
Ġb ones
Ġp ounds
ro us
le te
le ase
ĠT ot
Ġth ing
ĠS il
ĠS yn
el ly
ĠC a
ĠC am
ĠC arl
Ġn est
Ġn orm
am ents
ĠM el
ĠM ood
ĠM ix
ĠM uch
ĠM TV
ĠB as
Ġg ather
ig er
ot ing
ĠH it
ĠH ind
ĠH aw
Ġst reet
ul u
ĠF ound
ĠW eather
ĠG ra
Ġal le
ers ey
and a
and al
ĠL in
est one
ĠD C
ĠD u
ĠD or
ĠJ r
ĠJ on
ĠJ ason
ĠJ ournal
ag er
Ġde leg
Ġpro ve
ĠE leph
ĠO lym
res pond
Ġv oted
Ġex clud
Ġex isted
Ġex clus
ant i
Ġsh ar
Ġr u
Ġr ig
Ġr ich
Ġr ising
ĠU r
ĠK enn
ell a
ĠSt u
ia o
ĠCh ampionship
ap es
ub le
ie val
Ġcl in
Ġab normal
Ġen cl
ĠTh ing
ĠTh ai
ĠAl ong
Ġother wise
Ġpart ial
Ġim ag
Ġim pl
ĠUn ivers
Ġsc he
Ġsc ience
ph y
Ġrem ark
Ġrem ember
Ġrel ative
ĠZ agre
Ġ8 2
Ġ8 4
Ġ8 6
Ġ8 8
vel and
Ġ7 7
Ġunder w
ĠDe v
Ġchar ity
Ġass erted
Ġ6 3
ict ure
Ġcent uries
Ġreg ions
Ġact ual
Ġair space
Ġra ise
ĠWhe re
Ġqu al
Ġform al
az a
Ġmain t
Ġmain tain
Ġinv ent
ĠAs ian
Ġele v
Ġtra ined
Ġ194 5
Ġdec re
ĠJohn son
Ġinst ance
Ġinst ruments
ĠComm on
ĠComm un
Ġbro wn
Ġcount ies
Ġprov iding
Ġmill ime
Ġrece ives
Ġinf antry
Ġinf rast
Ġmin ister
Ġmin imum
Ġdescrib e
Ġ191 7
Ġreturn s
Ġ197 3
Ġprom pt
Ġext rat
Ġgu ides
ĠChrist ine
ĠChrist opher
ĠUS S
Ġmod er
Ġ192 5
Ġdem and
ĠTe am
Ġwill ing
Ġorgan ised
Ġcamp us
Ġnorth west
ĠBr idge
omet ric
Ġappro ached
Ġturn s
Ġtit les
Ġsit com
Ġcell ular
Ġopp os
Ġtown s
Ġpolit ic
Ġrepresent ing
Ġlim it
ĠSte ve
Ġsol id
Ġrefer ences
ĠAnt iqu
Ġsuggest s
ĠIm p
ĠEm peror
Ġevery thing
Ġclub s
Ġmag n
Ġintrodu ction
ĠMc G
ĠMed ical
Ġaud ition
Ġcru isers
Ġtre nd
Ġenc ouraged
Ġhar m
ĠBey ond
Ġmeas uring
Ġsw allow
ĠBar row
Ġrecogn ised
Ġ188 9
ĠFl orida
ĠSim ilar
ĠPar is
Ġdev ast
Ġve get
Ġcoun cil
Ġtow ers
Ġfall ing
ĠMag ic
Ġsail ors
Ġequip ped
Ġmer ch
Ġlearn ing
Ġimpro ved
Ġrul es
Ġclear ly
Ġvisit ors
Ġkeep ing
Ġhapp ened
Ġabs ol
ĠPer form
Ġanim al
Ġanim als
Ġadop t
Ġsurround ed
Ġtem ples
Ġcross ed
Ġcred it
Ġbattles hip
ĠMont real
ĠVictor ian
Ġhous ing
Ġsearch ing
ĠUN ES
Ġarchitect ural
Ġteac hes
Ġregard ing
Ġsac red
ĠSo ir
Ġexam ples
Ġwood en
ĠCampb ell
Ġstri k
Ġfeel ings
Ġjournal ist
Ġsaf e
Ġrail road
Ġcomplet ion
Ġhop ed
Ġlabor atory
Ġconvent ion
Ġpun ishment
Ġdeploy ed
Ġprepar ing
Ġassist ant
Ġdomin ant
Ġdiss ip
Ġextrem e
Ġextrem ely
ĠBook s
Ġchall eng
Ġfrequ ently
Ġquarter back
ĠTrans port
Ġinterp reted
Ġvehic le
Ġbehav ior
ĠPalest in
Ġcle an
Ġdro pped
ĠChild ren
Ġdu o
Ġsha res
Ġpoet ry
iat us
Ġwatch ing
Ġrif le
ĠTre asury
Ġattra cted
Ġcyt ogen
Ġess ential
ĠRy an
ĠExpress way
Ġdisturb ance
ĠGram my
ĠCrusad er
Ġconne ction
Ġtermin us
chest ra
ĠCO s
ĠDest roy
Ġcrop s
ĠTod ay
ĠRet urn
Ġfung us
ĠCle veland
Ġdownt own
Ġcrow d
ĠBore as
ĠHur on
ĠMood y
ĠZagre b
Ġextrat ropical
ĠUNES CO
B S
d in
g u
g ers
h y
h ar
j i
l ers
l ock
l ings
m et
m ates
p es
p ent
p ir
r ator
r ino
t ure
Ġ urban
Ġt ale
Ġt ank
Ġt empor
he tic
in i
Ġthe sis
er ia
er ry
on ies
re ets
Ġs ke
Ġs oph
Ġs ession
ed e
Ġo ct
Ġw ave
Ġw orth
at ab
it ia
or ced
Ġc up
Ġf ur
Ġf unk
Ġf estival
Ġb ra
Ġb ranch
Ġin du
Ġin duction
Ġp ure
Ġp aint
as co
Ġto urn
Ġm a
Ġd ie
Ġd ens
Ġd read
Ġh ier
Ġh iatus
le ton
ĠT ess
ĠT ell
Ġre ven
il st
Ġth in
ĠS ay
ĠS ab
ĠS omers
ĠS elen
ĠC ult
ĠC ape
ĠC amb
ĠC BS
st ed
Ġl ov
Ġl iqu
Ġl ayer
Ġwas n
ol ia
ĠM es
ĠM ut
ĠM ach
ĠM ys
ĠB ad
ĠB ang
ĠB elf
Ġfor b
Ġfor cing
ac ent
Ġas h
ĠH or
ĠH un
ĠH ay
ĠH art
ĠH ard
ĠP il
ĠP ot
ĠP iper
ĠR oc
ĠR oll
ĠR hod
ĠR AF
ĠF ear
ĠF ood
ĠG M
ĠG PU
ĠN Y
ĠN ash
ĠL t
ĠL y
ĠL act
ĠL yn
Ġan ch
os en
ĠD am
ĠD ark
um a
Ġhe ar
ĠE st
ill es
ill as
ill ance
ĠO h
Ġsu re
if er
if ul
if est
if orm
oc ation
Ġv o
op l
igh ter
Ġex ception
Ġex haust
Ġex erc
ak ed
Ġsh ots
Ġsh aped
Ġch osen
Ġr ays
ab les
ĠU s
ĠU nt
ast s
ĠK ent
ĠK ev
Ġle gend
Ġun f
ĠV ern
ign ment
Ġcont ent
ok ing
Ġcomp rom
Ġdis band
Ġman ner
Ġag ency
Ġspe nd
Ġspe aker
Ġup s
Ġup gr
ĠSe vent
ĠSe ven
ft ing
Ġrel ocated
gan s
Ġcons ent
ve illance
Ġ7 3
Ġ7 00
Ġass ess
ins on
Ġfl ed
Ġreg iment
Ġam id
Ġinter change
Ġac claim
Ġra in
Ġsupp osed
Ġapp ropri
Ġ9 5
ĠLe e
ten ance
Ġmain land
Ġmain tenance
Ġap art
Ġcall s
ĠAs h
Ġrep air
Ġtrans ition
Ġmet all
Ġinst alled
Ġ198 1
Ġoper ational
Ġoper ating
ivers ary
Ġprov isions
Ġadd ing
Ġcontin ental
Ġrece iving
Ġdest ination
ĠPro g
Ġann ually
ĠFe ast
ĠBe fore
Ġmar row
Ġland ed
ook ing
Ġ197 1
Ġ197 4
Ġ197 5
Ġuse ful
Ġref uge
Ġhead s
Ġ192 1
Ġ192 2
Ġ195 9
Ġlist en
Ġlist ing
Ġmed al
Ġmed ium
Ġreview ed
emp o
Ġsim ply
Ġbas in
Ġnorth ward
ĠPl ot
Ġestabl ish
Ġestabl ishing
arch y
ĠHer itage
Ġeven ing
Ġvis ual
ĠCent re
Ġsk ull
Ġwind ows
Ġequ al
ĠTw ins
Ġwin ner
Ġbar row
Ġcritic ism
Ġfac ility
Ġnov els
ĠAm ong
Ġfail ing
Ġstat ute
Ġprofess ion
Ġer r
iter ranean
ĠPal ace
Ġgood s
Ġcirc ulation
Ġfund ament
Ġviol ent
ĠMc C
Ġsurv ive
Ġcivil ians
ĠMed iterranean
Ġaccept able
Ġident ity
Ġident ify
Ġearl iest
Ġcor rect
Ġcor respond
ĠHol y
rem e
Ġfre eway
AS A
Ġsuper ior
Ġ188 0
cher s
Ġroad s
Ġengine ering
ĠQue ens
Ġhom osexual
Ġren ov
Ġobject s
Ġsail ing
Ġpra ise
Ġpers ons
Ġimpro ve
Ġcal c
Ġserious ly
Ġreb ell
Ġnar rative
Ġconcern s
ĠNaz i
Ġpoor ly
Ġsat ell
Ġdisp at
Ġprep are
Ġtarget s
Ġfr ame
Ġdepart ed
ĠPart y
Ġinstit ution
ĠChart s
ĠSing h
Ġagricult ure
Ġacqu ired
Ġpolic y
Ġinj ured
Ġmolec ular
Ġhundred s
ĠProte ins
Ġfavor ite
Ġ179 4
ĠSpe cial
ĠBelg ium
Ġpremi ere
Ġmo ored
ĠCorn wall
ĠKn ights
Ġlic ens
ĠBre ese
Ġindic ate
Ġsynthes is
Ġdeliv ered
ĠAp pe
Ġpregn ancy
ĠJul ian
Ġsuc ceeded
Ġcolumn s
ĠScott ish
ĠOrig in
Ġhem m
roscop ic
ĠTreat y
ĠCab ral
Ġinspir ation
Ġtiss ue
Ġtherap y
Ġeth nic
Ġorganiz ations
Ġsettle ments
ĠSpr ing
ĠDah l
Ġritual s
Ġairfield s
ĠAngl o
Ã¶ n
Ġsom ew
Ġwed ding
ĠMur phy
Ġconsec utive
ultane ously
Ġdismiss ed
ĠRow son
ĠDang erous
ĠEdu cation
Ġexpans ion
Ġnorm ally
ĠFound ation
Ġalle ged
ĠStu art
Ġinfrast ructure
Ġtempor arily
ĠTess a
ĠSomers et
ĠBelf ast
ĠKev in
C L
I D
T A
a Ã
b ody
c est
e ver
f ire
h at
h ua
l s
l oad
m es
p ah
r ates
r int
s ogn
t he
v ant
Ã ¤
Ġ ut
Ġ urg
Ġt un
Ġt ut
Ġt one
Ġt emporary
he m
he w
in ated
in ary
at ically
Ġc od
Ġc ry
Ġc atch
Ġc rown
Ġf ishing
ar ant
ar ia
ar ius
Ġb ind
Ġb ull
Ġp up
Ġp agoda
as y
Ġto ols
ic ide
Ġh am
Ġh ol
Ġh ind
Ġh ockey
ĠT an
ĠT enn
Ġre vers
ĠA k
Ġth row
ĠC u
ĠC oll
ĠC ateg
Ġn ob
ĠThe n
ĠI d
Ġon going
ĠM u
ĠM ort
ĠB at
ĠB ir
ĠB urn
ĠB eller
Ġg ust
Ġg ets
ĠH u
ĠH orus
ut ation
ĠP C
ĠP ers
ĠP igg
ĠR on
ĠR ear
ĠR ap
Ġwh iskey
ĠW iz
ĠW els
ĠG em
Ġal ter
Ġcon g
ĠN ote
ĠL ate
ĠL ine
ĠL iz
ĠL amb
Ġan ime
Ġan ger
ĠD ave
ĠD isc
ĠJ ersey
ag ues
Ġpro c
Ġpro ceed
Ġpro ceeded
pe are
ĠE ight
ĠE very
ĠE ASA
ĠO ak
Ġv ac
Ġv ow
Ġv ary
Ġv ote
Ġor n
Ġch rom
Ġch ronic
Ġch annel
Ġch orus
ab il
pt y
pt on
ip el
ud es
Ġpl ate
ast e
ĠK ar
ĠK ir
ack s
Ġle ct
Ġk er
Ġun iform
ĠV ert
Ġab ol
Ġper ceived
Ġper haps
Ġres ources
Ġcomp ar
Ġcomp onents
hed ral
ĠTh ird
ĠAl f
Ġafter math
Ġj ew
Ġro se
Ġro ll
oy d
Ġcomm emor
ang ular
Ġsp ot
Ġrem n
ren adier
form ation
ĠAr thur
Ġship ping
Ġbo il
Ġprodu ces
Ġwe alth
Ġinc om
Ġbu oy
Ġfl u
Ġinter ior
Ġret reat
ters on
Ġtr uth
Ġqu ant
Ġ9 9
ĠSh akes
Ġdo ors
Ġca ught
Ġsur ge
ĠLe ban
Ġso il
ug g
ĠAt t
Ġent ertain
Ġloc ally
ĠAs ia
Ġele gans
Ġtra v
Ġ12 2
Ġ194 8
Ġdec omm
ĠAn up
ful ly
ĠCon ference
Ġob st
emb le
Ġstud ied
Ġoper ate
Ġest uary
ann ing
ann ah
Ġadd ress
Ġimp rison
Ġexp osure
ĠMe galiths
Ġter ror
Ġrece ive
Ġconst ruct
erv es
Ġopen ings
Ġfe ed
Ġ17 6
Ġ0 3
Ġann iversary
Ġ11 4
Ġ11 7
Ġ193 5
Ġprom ote
ĠPr ism
ĠPr ivate
uth or
Ġpass es
ĠOr sogn
Ġport s
Ġ192 7
Ġ195 7
ĠTe chn
Ġattempt ing
Ġconf ront
ĠPl an
ĠPl ayer
Ġ196 8
Ġstand s
ĠRoman ia
Ġdeb ris
Ġrepl ied
Ġappro ved
Ġperiod s
Ġmark ing
Ġcommun ication
Ġwind ow
Ġfun ctions
Ġprop ag
Ġsuggest ing
ĠAm end
Ġchart s
Ġmount s
Ġfind s
Ġcr iminal
Ġrock s
ĠX in
Ġassoci ations
Ġinterest s
Ġsignific ance
amb ers
com ing
co pe
Ġcirc le
Ġchang ing
Ġconv in
Ġcond em
Ġesc aped
Ġhold s
Ġmass ive
Ġhar bor
Ġ187 0
Ġve ter
Ġmiss ile
Ġhon our
Ġbomb ers
ĠMex ican
Ġprevent ed
ĠPat terson
Ġrul ing
ĠGl as
ĠSw ed
Ġregular ly
Ġanim ated
ĠDef ense
Ġinvestig ation
ĠStud io
Ġimm igration
cient ious
Ġhous ed
Ġblock ade
Ġill ust
ĠCivil ian
Ġunc lear
Ġ184 9
Ġremix ed
ĠGab ri
Ġcelebr ated
ĠSy stem
Ġconvent ional
Ġjob s
Ġaerodrom e
Ġappl ied
Ġpattern s
Ġchall enge
Ġprison ers
Ġshoot ing
ĠProte in
Ġreform s
Ġrare ly
Ġsulf ide
ĠBlood y
Ġassemb led
Ġspecim ens
ĠSus an
Ġeas y
Ġportray ed
Ġsha ft
Ġdeliv ery
ĠAst rae
ĠFer din
Ġproduct s
ĠJer usal
ĠMic hel
Ġmyel oid
Ġglob al
ĠPen insula
Ġdig ital
ĠDyn asty
Ġjun ior
Ġ87 8
Ġhelicop ters
Ġfrig ates
Ġenl isted
erg renadier
ĠFam ily
Ġseg ment
ĠInit ially
Ġyl ide
ĠBron x
Ġacad emic
Ġpropos al
ĠSupp ort
Ġath let
Ġstanz a
ĠPanz ergrenadier
Ġunus ual
Ġfal se
ĠProtest ant
Ġoccasion ally
Ġsket ch
Ġoppos ite
ĠDestroy er
ĠMys ore
ĠRhod e
ĠLact arius
ĠCateg ory
ĠPigg ott
ĠWels h
ĠVert igo
ĠShakes peare
ĠOrsogn a
ĠAstrae us
ĠFerdin and
ĠJerusal em
P L
c ript
e u
e ke
g on
g ow
h ler
i ob
i Ã¨
m ore
m osp
n a
o en
r ating
t ation
t ah
v ity
y a
y ard
y cl
Ġ ice
he astern
Ġa cted
in er
on el
on ial
re p
Ġs ib
Ġs itting
Ġs iege
Ġo ption
Ġw re
Ġw el
Ġw ait
Ġw ants
Ġw aves
at ively
it chel
or gan
Ġc inema
en ger
Ġf ir
Ġf ra
Ġf ranch
Ġb low
Ġin te
al a
Ġp ier
Ġp hen
as hed
Ġto uch
ic ate
Ġm un
Ġm ales
Ġd uration
Ġh un
Ġh ip
ĠT en
ĠT ay
ĠT ax
ĠT ai
Ġre un
Ġre nder
il ation
il ian
ĠA I
ĠA z
ĠA my
ĠA uthor
ĠS et
ĠS ri
ĠS ign
ĠS ix
ĠS uch
ĠS ipp
el i
el oc
el ve
ĠC as
ĠC el
ĠC roy
ĠC lear
ĠC lement
ĠC oty
Ġl ob
Ġl ane
Ġl osing
Ġn ut
Ġn av
un es
un ction
am m
am os
ol in
Ġbe am
ĠM un
ĠM and
ĠM ack
ĠM ah
ĠM itchel
ĠB al
ĠB ig
ĠB all
ĠB ru
ĠB ann
ĠB oys
Ġg ain
Ġg one
Ġg amb
Ġg olf
Ġfor ty
im er
im ens
ac le
ac les
ir ts
ot he
ĠH a
ĠH op
ĠH aving
ĠH oms
Ġst im
Ġst ream
ĠP itt
ĠP oint
ĠR om
ĠR ivers
ch ar
ĠF re
ĠF ive
ĠF act
ĠF isc
ĠW in
ĠG en
ĠG round
ĠG ael
ĠG aga
em pl
Ġcon j
Ġcon clusion
ĠL im
ĠL ank
Ġan th
ĠD own
ĠD eath
ĠD NA
ĠD arden
um es
ĠJ en
ĠJ up
ĠJ ones
ag s
Ġpro port
ri fic
ĠE ve
ĠE lect
Ġcom ed
Ġcom ments
Ġcom fort
ĠO cc
if ically
Ġex act
Ġex cess
Ġr am
ard o
ip h
Ġpl ants
ĠK arl
ĠK atherine
ian g
Ġle aves
Ġar rang
ight ed
ure au
ous es
Ġun rest
og uan
Ġy ellow
ap ers
ign ity
Ġcl othes
ass ad
Ġad ul
Ġad mitted
Ġper c
Ġres igned
Ġen emies
Ġcomp osition
Ġrec alled
Ġ4 1
Ġdis ag
Ġdis abled
ĠAl amos
Ġdes cend
ach ute
Ġman ual
Ġafter wards
Ġj ourney
Ġover t
Ġover se
Ġspe nding
ĠUn like
ang ed
Ġsp ur
Ġne ck
Ġatt ached
we ig
reat h
rib le
ĠAr d
ict ed
Ġfilm ing
ob a
aw are
Ġfl int
Ġfl ash
Ġco ined
Ġco oper
Ġreg ul
Ġreg ulation
Ġend ors
Ġsub ty
Ġinter action
Ġac res
Ġwrit es
Ġwrit ings
Ġqu ite
Ġqu oted
Ġapp rec
Ġform ally
ick s
Ġ9 1
Ġ9 3
Ġver se
Ġdo ctor
Ġsur gery
Ġrele ases
Ġind icated
Ġrecord ings
Ġent itled
Ġloc ations
Ġpr iv
Ġrep et
Ġrep ublic
Ġrep utation
Ġtrans form
ĠAn th
ĠAn cient
Ġmil itia
Ġfound ation
rol l
ĠMan ual
Ġdisc ussion
Ġwar fare
Ġgame play
Ġmusic ian
Ã© t
Ġ0 9
Ġgr ade
ĠPro f
ĠPro to
oss ible
Ġann oy
Ġconsid ers
ĠBe ach
ĠSc ience
ah a
Ġche f
Ġbr ig
Ġ195 8
ĠMon ica
Ġbelie ving
ĠPl aying
Ġ196 7
ĠBr ad
Ġturn ing
Ġfoot age
ival ent
Ġlate x
Ġopp onents
Ġauth ors
Ġsk ill
pend ed
ĠPh ys
ĠTw ice
Ġstrong er
Ġstruct ural
enc ing
ĠRepublic an
ĠAnt on
ox ide
ĠIm m
ĠEm ily
Ġview ed
Ġevery one
Ġpat ron
ĠChe ss
Ġstat ement
ĠHar vey
Ġinterest ed
Ġprofess or
Ġearth st
Ġmix ing
ĠPal in
ĠMich igan
Ġrad ius
Ġz one
Ġz oo
Ġannoun ce
Ġviol ation
Ġsurv iving
Ġdifficult ies
ĠMed ia
Ġarg ues
Ġpoem s
ĠIsland s
Ġ189 0
Ġestim ates
ĠCo oper
ĠHigh way
Ġdon ations
Ġvol unte
Ġemploy ment
Ġpot entially
Ġask s
Ġsee ing
Ġinform ed
Ġreve al
Ġprot agon
Ġvari ations
ĠKore a
Ġremov al
Ġfall en
Ġsail ed
Ġintens ified
atin um
Ġrul ed
ĠPrince ton
Ġly ing
Ġconcern ing
Ġcele b
Ġmuseum s
Ġsat isf
ĠArt ist
Ġgirl s
Ġdi ame
Ġnomin ations
utz pah
Ġphys ic
Ġbatter ies
Ġunc ertain
Ġweap on
Ġsyn agogue
Ġemb arked
Ġdepart ure
Ġcelebr ate
ĠSy dney
Ġunl ike
Ġassist ance
Ġdomin ated
ĠPlay ers
Ġpurs ue
Ġquestion ed
Ġinj ury
ĠWork s
ĠColumb ia
Ġdyn amic
Ġking dom
Ġmut ual
ĠSha oguan
ĠGar th
Ġneigh bour
Ġpromot ion
Ġpick ed
Ġprinc ipal
Ġstrugg le
Ġemphas is
ĠEll is
Ġrevolution ary
ĠMount ain
Ġstep s
Ġfill ed
ĠHow ard
ĠJac ob
ĠChap at
Ġrecomm ended
ĠAdam s
ĠRail way
ĠRail road
Ġadvent ure
Ġcollabor ation
Ġrif les
Ġpregn ant
Ġadminist ration
Ġhabit at
Ġencoun tered
Ġdict ator
ĠSav annah
ĠOp en
ĠOffic er
Ġanaly zed
ĠDar win
Ġopportun ity
ĠConfeder ate
ĠHospitall ers
Ġpuzz les
Ġwars hips
Ġenz ymes
ĠCharact ers
ĠMagn olia
Ġtub es
Ġpul led
Ġmask ray
ĠRem ix
Ġinstrument al
Ġoccas ions
Ġbombard ment
Ġfix ed
Ġmom ent
igr ants
Ġisol ated
ĠObs erv
Ġelimin ate
ĠNiel sen
Ġere cted
ĠBudd hist
Ġsitu ations
ĠHighland ers
Ġdenomin ation
ĠEleph anta
ĠDev on
Ġmerch ant
ĠPalestin ian
Ġdens ity
Ġdread n
ĠVern e
ĠSevent eenth
Ġfundament al
Ġrebell ion
Ġsatell ite
Ġdispat ched
ĠOrigin ally
Ġsomew hat
ĠTenn ant
ĠWiz ards
ĠGem ma
ĠLamb ton
Ġentertain ment
Ġconvin ced
ĠGlas gow
eke nd
oen ix
ĠTay lor
ĠSipp y
ĠCroy don
Ġgamb ling
ĠFisc her
8 2
E C
V P
c el
i h
i oc
i ations
i ants
j e
j Ã¡n
k now
m n
m outh
n al
o oth
p an
r ich
t inent
u v
u ating
w an
x i
y e
y i
z a
Ã ¢
Ġt ape
Ġt elling
Ġt enth
he t
Ġa ided
in ations
in du
in sey
er al
on ic
on omy
re te
Ġs ad
Ġs ell
Ġs ung
Ġw ore
at us
it ely
it ively
or er
or jÃ¡n
is ations
Ġf ault
Ġf asc
ar ity
Ġb in
Ġb es
Ġb al
Ġb ought
Ġb orrow
Ġin land
Ġin fer
Ġin hib
al ty
Ġp ump
ing al
ic ial
Ġm al
Ġm ound
Ġm ind
Ġm ock
Ġm ush
Ġm emor
Ġd ress
Ġd rop
Ġd ipl
Ġd ignity
Ġh ang
ĠT urt
Ġre op
il ly
ĠA er
ĠA way
ĠS ite
ĠS pec
el a
el ine
ĠC at
ĠC ur
ĠC ome
ĠC ase
ĠC arn
Ġl at
Ġl ists
Ġl oud
Ġl ibrary
Ġe gg
ad ic
ol t
ĠI V
ĠI ll
ur er
ur is
ly n
ly ph
ĠM G
ĠM I
ĠM aur
ĠM umb
ĠM VP
ĠB and
ĠB ask
iv ated
iv als
ot a
ot ic
ĠH unt
ĠH indu
Ġst yl
Ġst rict
et o
et ts
ĠP ay
ĠR av
ĠR ome
ĠF ar
ĠF le
ĠF ree
ĠF lying
ĠW ily
ĠW elling
ĠG ot
ĠG ama
ĠG arden
ĠG iants
th i
Ġcon ve
Ġcon ference
ĠN i
ĠN at
ĠN ear
ĠL ud
ĠL ast
ĠL ane
ĠL ibrary
ĠL ocal
ĠL ulu
Ġan cest
Ġat mosp
os o
os y
os ion
ĠD w
ĠD et
ĠD iss
ĠD uck
um ption
ĠJ ill
ĠJ ud
Ġhe n
ag en
ist ol
av ed
od ore
Ġse es
Ġse emed
ĠE igh
ort ion
Ġv ent
Ġv ul
Ġv ide
Ġv ision
Ġv ital
ĠIn c
op les
ew here
igh ters
Ġex ch
Ġsh ift
Ġch ampionship
Ġr ated
Ġr acing
ip ede
Ġpl ed
Ġpl atinum
ment ed
te es
ĠK en
ĠK now
ord ers
ell i
ru ption
ĠSt and
ĠCh as
ĠCh airman
ĠCh utzpah
ost ic
cl es
Ġun named
ap se
ĠV ers
ĠV enge
ĠV asco
Ġtw ice
Ġint ention
Ġcont est
Ġcont ribution
Ġres erve
ĠHe nd
out s
Ġen h
Ġcomp onent
ĠRe con
ĠRe action
ric ted
ĠAl b
ib ious
ĠY u
Ġman ip
Ġman ifest
Ġro ots
Ġag es
Ġsc ar
Ġsc ra
Ġsc ope
Ġatt itude
ind er
ĠZ ion
ĠZ weig
Ġunder standing
iss ance
Ġ6 9
Ġme gal
ĠCom b
ĠCom edy
Ġpe aking
Ġreg istered
Ġac know
Ġra ising
Ġret ained
ĠMar ia
Ġsupp l
Ġform at
Ġ9 2
Ġdo z
Ġfour teen
Ġsur veillance
Ġpol l
Ġmain stream
ĠAmeric ans
Ġrep aired
Ġ12 1
Ġpres ents
ĠCon struction
Ġlong est
Ġob tain
Ġ198 3
ĠMan agement
ĠIs is
Ġprov ides
Ġsign s
Ġimp ression
Ġimp ossible
ĠAd orjÃ¡n
Ġexp ression
Ġcharacter ized
Ġeff icient
erv ative
pect or
Ġsuccess ion
Ġ191 2
Ġ191 6
Ġcomple ting
Ġmay or
Ġeng agement
Ġant ib
Ġant iqu
Ġconsid ering
ĠJan elle
Ġclass ic
Ġclass ical
Ġadv ice
Ġadv ancing
ĠBe h
ĠBe gin
ash i
Ġph ara
Ġph rase
ĠTown ship
Ġext ent
Ġpublic ations
Ġpass eng
Ġbr igade
Ġport ico
Ġdiffer ence
Ġ192 3
Ġ192 8
Ġ195 3
Ġmed ian
Ġmed ieval
Ġcap s
Ġsim ple
Ġbas ement
ĠCol er
Ġcolle ctions
Ġold est
Ġpubl isher
ĠBr istol
Ġbre ed
Ġbre aking
Ġjust ice
Ġinvol ves
Ġinvol vement
Ġopp osition
Ġreal ized
ĠCent ipede
Ġequ ivalent
Ġtrad ed
ĠPh oenix
augh ter
Ġstrong est
Ġformer ly
Ġfriend ship
Ġlow est
ĠNe vert
Ġband s
Ġlim estone
Ġput ting
Ġgen es
Ġjo ining
Ġpat ients
ĠHist or
Ġmix ture
Ġhelp ing
Ġhy p
ĠMc D
Ġtest ed
ĠRec ord
Ġread y
Ġaud iences
Ġtechn ology
Ġcut ting
Ġlook ed
Ġ189 7
Ġ186 2
ĠTr ack
Ġlangu ages
Ġbusiness es
Ġfem ales
ĠFl ight
ĠSim pson
Ġmeet ings
Ġfif ty
Ġ190 9
ffic ient
part s
Ġhon ours
Ġask ing
Ġdeal ing
be e
ĠAg ust
Ġaer ial
ĠRuss ell
ĠRich mond
Ġpercent age
Ġdraw ing
Ġbi ological
Ġpred omin
ett es
Ġsubject s
Ġdefend ing
ĠQu ite
Ġcross ing
Ġachie ve
Ġchap ter
Ġdisp ute
Ġquest ions
Ġdetail ed
Ġexam ined
Ġvict ims
Ġwithd rew
Ġtypes et
ĠCons ervation
Ġjournal ists
Ġrelat ives
Ġindepend ence
Ġey es
Ġgra ve
Ġgra vity
hood s
Ġbridge head
Ġforest s
rog en
Ġneg ot
aut iful
Ġconcent ration
Ġconcent rated
Ġfrequ ent
Ġpurch ase
Ġjud ge
Ġpain ted
Ġpound er
Ġprinc ip
Ġmic rol
Ġtransl ation
Ġbelong ing
Ġzomb ie
ĠBelg ian
Ġopt ions
hist oric
Ġunivers ities
ĠDon ald
Ġcraft s
Ġcateg ories
ĠHere ford
ĠOffic ial
Ġmonit ors
Ġrect angular
Ġeigh teen
Ġopportun ities
Ġign ored
Ġgor illa
Ġgraph ic
Ġalt ar
Ġimprov ements
Ġstra ight
Ġconsequ ence
Ġtact ics
Ġfat al
Ġadult s
ĠAdvent ures
Ġstrateg ic
Ġaccompl ish
ĠStan ley
Ġpreced ing
Ġdrink ing
crib ed
ĠWrit ing
Ġrecre ational
Ġconsc ious
Ġdri fting
Ġvic inity
Ġarcher y
Ġextens ively
Ġguid ance
ĠOrgan ization
ĠRay mond
Ġamph ibious
Ġshar p
ĠTransport ation
atab ase
ĠCamb ridge
ĠUnt il
ĠProg ram
ĠDangerous ly
ĠMort imer
ipel ago
ĠAlf red
Ġdecomm issioned
iob ook
Ġsib lings
Ġfranch ise
Ġphen omen
ĠGael ic
ĠJen kins
iph any
Ġperc ussion
Ġdiame ter
Ġdipl om
ĠMaur ice
ĠMumb ai
ĠBask etball
Ġvide os
Ġpasseng ers
ĠNevert heless
A r
C onn
G S
R E
R I
R NA
a ver
a ug
b a
b ro
b ound
b ook
c ase
d den
e or
e es
e qu
g om
i ac
k ok
l an
m o
m at
m iss
n atural
n eath
o ir
p ut
r in
r im
u cc
u nder
u able
Ġt ip
Ġt rough
Ġt ens
Ġt rick
Ġt alent
Ġt empo
Ġa x
Ġa ro
in als
on a
re z
Ġs ic
Ġs oc
Ġs tern
Ġs ars
Ġo de
Ġw et
at oes
Ġf ant
Ġf usion
Ġb ore
Ġb ah
Ġb oys
Ġb anks
Ġb anned
Ġp ull
Ġp ages
Ġp ushed
Ġp icture
Ġto pped
ic it
ic ity
ro c
ro x
ro ke
Ġm ac
Ġm and
Ġm athe
Ġm emorial
Ġd ish
Ġd ual
Ġh orn
Ġh az
le ted
ĠT est
ĠT ang
ĠT oso
Ġre actions
Ġre organ
ent ions
il ton
ĠA ut
ĠA ch
ĠA qu
ĠA ud
ĠA ren
ĠA ges
ĠA ki
ĠS ister
ĠS ports
ĠS quare
el ed
el es
ĠC red
ĠC urt
ĠC herry
ĠC NS
st s
Ġl un
Ġl iv
Ġl ig
Ġl ies
om al
om ical
Ġn ons
Ġn aut
ad a
ad en
am in
ĠI ow
Ġbe ats
ur ance
ĠM em
ĠM os
ĠM ission
ĠM emorial
ĠB arn
ĠB ird
ĠB ened
Ġg all
Ġg ap
Ġg athe
Ġg rain
id ges
im et
im ore
ac on
ĠH el
ĠH ud
ĠH amp
ĠH orn
ĠH ans
Ġst ib
Ġst reets
us etts
ĠP u
ĠP oe
ĠR h
ĠR ang
ĠR CA
ul ous
ĠF ather
ĠF ingal
ĠW orth
ĠW ick
ĠW arn
ĠW ander
ĠW inds
ĠG a
ĠG er
ĠG ary
ĠG ib
ĠG onna
Ġal ien
em eter
Ġcon qu
ĠN et
ĠN ights
ĠN aval
ĠN ether
ĠL ic
ĠL owe
ĠL uc
Ġan sw
ĠJ ess
ĠJ ell
ĠJ oy
Ġhe at
ag ne
ag iar
Ġde als
Ġde eper
Ġse ct
Ġse ize
ill on
ĠO il
oc ent
Ġv int
Ġv ault
op y
ew art
ate gy
Ġex ists
Ġsh ut
Ġch ast
Ġch air
Ġch airman
Ġch ambers
Ġr ing
Ġr ugby
ab eth
se x
ip itation
ĠU pper
ast ing
ĠK um
ĠK ong
ĠK ap
ĠK ail
ĠK ras
Ġar sen
Ġnot ably
ĠSt rand
ĠSt yle
ĠSt ewart
Ġher itage
ĠCh ampions
Ġun st
og ether
Ġy ield
Ġy ards
ap a
ust er
ĠV ai
Ġtw elve
per ate
Ġcl im
Ġcl imate
Ġab ilities
pl ed
port ed
Ġrec onna
ĠRe lease
Ġoff ering
mer cial
over e
Ġ18 00
ib ilities
Ġte ach
Ġpart ially
ach an
ach usetts
Ġman eu
Ġplay off
Ġro oms
Ġag ents
Ġag encies
Ġsc r
Ġsc attered
Ġout f
Ġout s
Ġsp o
ĠSe e
Ġrem arked
Ġatt rib
Ġatt ract
Ġ7 4
Ġ7 8
Ġsec uring
Ġbo om
amp ion
ĠCom mercial
Ġfilm m
ob e
olog ies
Ġinc red
Ġfl av
Ġend ang
Ġsub con
Ġsub stit
Ġsub mitted
ĠMar gin
ole v
Ġsupp orter
ert iary
ĠJo an
Ġnumber ed
ĠLe v
ĠLe ad
Ġind eed
ific ial
ern er
Ġent h
Ġele ven
Ġbl own
Ġtra w
Ġdef e
Ġop ined
ĠAn con
ĠAn ne
Ġ10 2
Ġmov ies
Ġappe al
Ġoffic es
Ġgovern ments
Ġorig ins
ĠCl air
Ġoper a
ĠIs les
Ġarm oured
Ġcontin uous
Ġexp ensive
Ġter r
Ġdep os
ĠAll en
Ġconst antly
Ġback ed
ĠWar ren
Ġcommand os
Ġinf l
Ġinf ilt
Ġvar ied
Ġart work
Ġfe ud
Ġfe els
Ġ17 0
Ġmin imal
Ġdescrib ing
Ġgr ay
Ġsl ip
Ġann ex
Ġchild hood
ĠAnd r
Ġ193 3
Ġperson ality
ĠFor bes
Ġ197 6
Ġconc rete
ĠSc he
enn y
enn is
Ġpass enger
Ġstr ing
Ġstr ategy
Ġdown load
Ġref uses
ĠOr d
Ġfin ishing
Ġmod ified
Ġmod els
Ġ16 0
Ġ192 4
Ġdem ocr
Ġhand ed
Ġconf used
Ġsim ultaneously
Ġ196 9
Ġhuman itarian
Ġdra ws
Ġrepl ace
Ġprof ile
Ġmemb rane
ner able
Ġmark ers
Ġclaim ing
Ġexper t
Ġexper ts
Ġexper iments
Ġcover ing
ĠRep resent
ĠGu ang
Ġopp osing
min ster
Ġel ite
Ġord nance
Ġord inary
Ġwest ward
Ġfun n
Ġbar ometric
Ġsuff er
Ġfar ms
ĠNe il
Ġfac es
Ġgl iders
ĠDes cription
Ġfew er
Ġfleet s
Ġdel ays
Ġgen etic
Ġchart ed
Ġdecl aring
rie ze
iet h
Ġless ons
Ġinterest ing
Ġer osion
sequ ently
Ġpar alle
ĠTru st
Ġfront al
ask a
Ġcirc ular
Ġcirc uit
ico e
Ġlaw s
Ġappoint ment
sh ore
Ġtest ing
Ġrev ised
Ġread ing
Ġarg uments
Ġstudy ing
Ġdoes n
Ġdepict ion
br idge
Ġrank s
Ġ189 5
ĠTr inity
ĠTr insey
Ġtru cks
Ġmeas ured
Ġcreat ive
medi ate
Ġinterview s
Ġinterview ed
Ġpast or
ĠSim on
Ġengine er
Ġdon ation
Ġ190 3
Ġfav our
Ġmiss iles
leg raph
Ġdeal t
Ġcorn er
Ġpers u
Ġpers isted
Ġintens ify
Ġdram atic
ĠSl ide
ĠRob inson
Ġelect ron
Ġelect ronic
Ġhost ile
ĠJe ep
Ġblack s
uck y
Ġbi ography
ĠSw amp
Ġheav ier
Ġeduc ational
Ġens uring
Ġens emble
ĠTer ri
Ġexec uted
sc ape
Ġmach inery
Ġthink ing
Ġinvestig ate
Ġwid er
ĠStud ies
Ġtravel ed
Ġpresident ial
Ġchap ters
ĠMont gom
ĠBer lin
Ġamount s
ĠAv a
Ġsevent een
Ġneut rino
Ġdepart ment
Ġcounter att
oura ge
ĠTom orrow
Ġsequ ences
ĠFin n
Ġunl ik
Ġiniti ated
Ġdistinct ive
Ġpolic ies
Ġconstit ution
ĠCare er
Ġdyn asty
Ġaband on
ĠCont emporary
Ġlif ted
ĠPri ze
ĠSha olin
ĠÃ Ĺ
Ġdemonst rated
Ġcle ared
Ġprohib ited
Ġcontrovers y
Ġopin ions
bo at
che ster
Ġaim ed
Ġod d
Ġeas ily
Ġrequire ments
ĠJac qu
Ġdepend ing
Ġresemb le
Ġcompos er
Ġrecomm end
Ġmeasure ments
Ġoutl aw
Ġsym pt
leph one
ĠJust ice
Ġcanc elled
Ġowners hip
ĠOs ato
Ġscholars hip
Ġbed s
Ġmob il
Ġdang er
ĠRel ig
Ġseek ing
Ġdisplay ed
Ġburn ed
ĠConfeder acy
Ġtrou ble
Ġcab inet
Ġgor illas
Ġarrest ed
ĠHospitall er
Ġdial ogue
Ġdub ious
ĠTur k
ĠCro at
ĠWal ter
Ġresign ation
Ġteen age
Ġevac uation
Ġrenew ed
Ġfreed om
ĠHal f
Ġadj acent
Ġdisappe ared
Ġrestrict ions
Ġtheat rical
ĠSon thi
ĠMass achusetts
Ġoverwhel ming
Ġdoub t
Ġori ented
Ġpap al
ĠBus iness
ĠRand y
ĠGamb ia
ĠNich ol
Ġrub ble
Ġrecru ited
Ġcommit ment
ĠMarg aret
onym ous
Ġ06 00
Ġabsor bed
Ġnick n
ĠBalt imore
ĠEp iphany
ĠStr achan
ĠDep uty
Ġbattlecru isers
Ġresear chers
Ġast ron
ĠJon athan
Ġunderw ent
Ġmaint aining
Ġpolitic ians
ĠPerform ance
Ġstrik ing
Ġcytogen etics
met rical
Ġma at
ĠCult ural
ĠMut inus
ĠMach ine
ĠBang kok
Ġcomprom ise
ĠCornwall is
Ġbind ing
Ġpropag anda
Ġcondem ned
Ġveter an
ĠBru ins
ĠArd an
ĠProf ess
Ġannounce ment
Ġborrow ed
ĠMG B
ĠRav ana
Ġconve ction
Ġvul nerable
ĠVenge ur
Ġmegal ithic
Ġacknow led
ĠBegin ning
Ġbah t
ĠCred its
Ġnaut ical
ĠIow a
ĠBened ict
Ġgathe red
ĠPoe hler
ĠRang ers
ĠWorth ing
ĠWander ers
emeter y
ĠNether lands
ĠJell icoe
Ġvint age
Ġreconna issance
Ġsubcon tinent
ĠAncon a
ĠMontgom ery
P EC
T RE
a us
b ur
d own
f ace
f orce
h ant
h ost
h orn
h anna
k a
l ix
m ers
m its
n s
n all
o ch
p et
p ike
r ations
r ays
t es
t ar
t hen
u in
u its
v ous
w ater
y ram
Ġ x
Ġ il
Ġt um
Ġt aste
he nt
Ġa w
Ġthe r
Ġthe ories
re ction
re hens
Ġs ale
Ġs now
Ġo ars
Ġw a
Ġw art
Ġw ings
at ra
it ors
it imate
or ous
or ough
Ġc ite
is a
Ġf est
Ġf ate
Ġf ame
Ġf ine
ar i
ar th
Ġb ub
Ġb oss
Ġin aug
al ore
al og
ing ly
ic ipal
ic herry
ro ft
Ġm ild
Ġm eat
Ġm ys
Ġm ash
Ġm igration
Ġd ream
Ġh o
Ġh its
Ġh ope
Ġh ills
Ġh idden
ou l
ĠT ree
ĠT rib
ĠT ina
il iation
ĠA ven
ĠS in
ĠS ic
ĠS ak
ĠS ans
ĠS oon
ĠS ocial
ĠS napp
ĠS PEC
ĠC i
ĠC ru
ĠC rown
Ġl b
Ġl ie
Ġl oot
Ġl iber
Ġl oses
om ber
Ġn ic
Ġn one
Ġn avy
ad ow
am ics
am eless
ĠI D
Ġbe ings
ur rection
ĠM w
ĠM at
ĠM ole
ĠM aj
ĠM emb
ĠB ou
ĠB ul
ĠB ree
ĠB ach
ĠB eat
ĠB orn
ĠB ah
ĠB ox
Ġg arn
Ġg iant
Ġg alle
id el
Ġfor get
im urt
iv an
ac o
Ġas pect
ir a
ig all
ig ue
ter ing
ation ally
ow ers
Ġst ood
Ġst ret
Ġst ability
Ġst roke
et ies
ĠP ett
ĠR od
ĠR ub
ĠR oy
ĠR ico
ĠR ugby
ch o
ul s
ra ined
ĠF if
ĠF ab
ĠF und
ĠF ederal
ĠW ies
ĠW ell
ĠW ign
ĠW right
ĠG re
ĠG or
ĠG al
ĠG ill
ĠG ree
ĠG ames
ĠG ross
Ġal tered
em it
em as
em ark
Ġcon vey
ĠN ob
ĠN ameless
ĠL an
ĠL iv
ĠL og
ĠL ife
ĠL erner
est yle
os omal
ĠD h
ĠD illon
ĠJ in
ĠJ ing
ist ant
unk ers
Ġde ce
Ġpro ced
ain ts
Ġse as
Ġse am
Ġse ated
Ġse nding
Ġse lection
ri k
ĠE s
Ġcom ics
ĠO b
ĠO t
ĠO z
ĠO sc
Ġsu p
if ies
oc c
Ġv ast
Ġv ener
Ġv eto
ĠIn s
op al
all s
Ġsh op
Ġsh ield
Ġsh allow
Ġr id
Ġr ac
Ġr ay
Ġr ates
Ġr anging
Ġr anges
ab s
ab its
art en
ard ed
ĠU tah
ast ed
te b
ĠK id
ĠK ate
ĠK ree
ĠK ey
ĠK Ã¶n
ell ation
Ġk W
Ġk iss
Ġk ick
cl ad
og ie
ĠV en
ie ce
per ed
Ġcl oud
Ġab use
Ġab road
Ġcont r
pl ant
Ġper ception
ok en
ect or
ond er
Ġcomp ilation
ĠTh ose
ĠTh ames
Ġrec onc
Ġdis order
ĠRe ign
Ġoff s
ib ars
ĠY ing
Ġman ages
Ġafter ward
ile y
Ġover s
Ġpre t
Ġag ed
Ġsc rap
Ġsp an
ĠSe an
Ġrem ove
Ġwork er
Ġthem ed
ail ed
Ġrel ie
ren ce
Ġcons pir
Ġcons cientious
ĠZ ilt
Ġev ident
Ġear ning
Ġchar ged
ict ions
Ġme ters
Ġcent ers
Ġinc idents
Ġfl otilla
Ġpos itively
Ġam end
Ġ9 6
Ġver tical
Ġcol our
Ġcol ours
ĠSh in
Ġca uses
Ġsy nd
Ġpop ulations
ĠWh it
ĠBl o
Ġ12 00
Ġdec ide
ĠAn y
ĠInd ust
Ġob v
Ġfound er
rol led
Ġdesc ript
ĠComm odore
Ġwar m
Ġarm our
Ġbel t
Ġprov in
Ġsign ing
ull ivan
Ġimp ressed
ĠAd ri
ĠAd ult
ĠMe h
Ġter med
Ġshow ing
Ġthough ts
Ġart ificial
Ġ17 5
Ġarch ipelago
Ġcomple ment
Ġgr ace
Ġann ular
Ġant ic
Ġclass ification
Ġ193 2
ped ition
Ġph one
Ġperson ally
Ġland scape
Ġ197 8
Ġprom ise
Ġpublic ly
Ġattack ing
Ġrest ore
Ġrest ored
Ġrest ricted
ĠSc ient
ĠSc ots
ĠSc reen
ĠSc apa
ĠPr incess
ĠEng ine
Ġexpl ain
Ġexpl icit
Ġbr ut
Ġbr ight
Ġcontrol s
Ġ195 1
Ġ195 5
Ġ195 6
Ġdem o
Ġdem ons
ĠTe lecom
Ġdestroy ing
Ġmed ic
Ġhand b
ĠMon uments
Ġorgan isation
Ġorgan isms
Ġ196 3
Ġdeb t
Ġrepl ay
Ġprof it
Ġappro val
Ġappro aching
Ġcapt ains
Ġmark ets
isc uous
Ġarr iving
Ġplan es
ĠEx ec
ĠEx pedition
Ġcommun ications
Ġamong st
Ġdet on
Ġequ ally
iven ess
Ġleg acy
Ġtrad ing
Ġtrad emark
Ġdirect ors
Ġfun ny
Ġtri al
Ġtri ple
Ġtri oxide
Ġcour ty
Ġgl iding
Ġgl ider
Ġyoung est
Ġste el
Ġste ep
Ġste amed
Ġdel iver
Ġdel iber
Ġorigin ated
Ġpost ed
Ġhistor ians
ĠEm ma
Ġaff ord
Ġaff airs
Ġcr ash
Ġfail s
Ġassoci ate
Ġpri ests
Ġmother board
ĠAc ross
ĠComp osition
Ġsound s
Ġide al
Ġfund ed
Ġrespect ive
ĠMc K
Ġce ase
Ġce iling
Ġtour ism
Ġaud iobook
Ġcas em
Ġcru ise
Ġarg uing
ĠSong s
br id
Ġcut s
Ġ189 1
ĠTr imurt
ĠBar ry
Ġ187 7
Ġtransport ing
ĠFl otilla
Ġclos est
Ġclos ure
ming ham
Ġ190 2
Ġdeter ior
Ġbomb s
Ġobject ives
ĠAg ricult
ĠBel le
aval ry
Ġpers pective
Ġconcert s
Ġdraw ings
Ġproper ties
Ġrul er
Ġtorpedo es
ĠPatt y
Ġexec ution
Ġlik ed
Ġlik ened
Ġnar rator
que hanna
ĠYear s
Ġcomment ing
Ġliter ary
Ġdisp ers
ĠMont agu
ĠMont agne
Ġdeterm ine
Ġdoc uments
ĠJew s
Ġmult i
ĠNot able
Ġdead line
Ġnomin ation
Ġblock ed
Ġsexual ity
Ġmor ally
oph on
Ġill ness
Ġ36 8
Ġder iv
Ġ184 0
ĠLa ure
ĠUl t
Ġremix es
Ġcann on
Ġlog s
ĠAngel o
Ġattend ant
Ġcelebr ity
ĠPre par
Ġconvent ions
Ġresc ued
ez vous
Ġtur ret
Ġmax im
Ġdeploy ment
Ġextra ordin
ĠOut side
ĠOut standing
Ġpurs ued
Ġrom ance
ĠMill er
Ġappl ication
Ġexperi ences
Ġreinf orced
igg ing
Ġstay ed
Ġspir itual
Ġiron clad
ĠSam uel
Ġflow ers
Ġshr ines
Ġprinc iple
Ġstrugg led
Ġdemonst ration
Ġbound aries
Ġdro ve
ĠSer ies
ĠBo ogie
Ġcust ody
ĠSus quehanna
Ġnin et
ĠMac Ar
Ġod es
Ġhusband man
Ġhero es
Ġsynthes ized
Ġcollect ive
ĠWil son
Ġcho ose
Ġcompos itions
iat ric
ĠApp ro
ĠBC E
Ġoutl aws
Ġexplos ive
Ġtalk ing
Ġscient ists
Ġadminist rative
oh ang
Ġsquad rons
Ġhabit ats
ĠRy der
ĠFurther more
Ġorb it
Ġ181 9
Ġconnect s
Ġpen alty
Ġpal ace
Ġmob ile
Ġdang erous
ĠArab ic
ĠGreg or
Ġsuc ceed
Ġjoint ly
Ġsufficient ly
Ġeigh th
ĠLiber al
Ġhelicop ter
Ġfrig ate
Ġpuzz le
Ġtrib es
Ġcart oon
Ġpet ro
ĠBern ard
ĠBull s
Ġemot ional
Ġdiscip les
ĠCharact er
ĠLar ry
Ġunderst and
Ġsubs id
Ġpolygam ist
aud ev
Ġrend ezvous
Ġdistingu ished
ĠJeff rey
Ġinh abit
Ġpush ing
ĠMot or
ĠBol iv
rif ice
ĠAlbert a
Ġdemol ition
Ġdemol ished
Ġdetect ive
Ġadvert is
Ġrecur ring
Ġelabor ate
Ġrepeated ly
Ġbul k
Ġmess age
ĠPier re
ĠLeg acy
Ġelder ly
Ġinterpret ation
Ġsam ples
Ġfert il
ĠTot ten
ĠHind i
ĠDu ke
Ġexclus ive
Ġabnormal ities
ĠUnivers e
Ġinvent ory
Ġmillime ters
Ġabsol ute
pent er
Ġpaint ings
Ġtourn ament
ĠTell icherry
Ġreven ge
ĠSelen ites
Ġliqu id
ĠHart ley
ĠPil ot
ĠRoll ing
ĠGPU s
Ġvo iced
Ġappropri ate
Ġcry st
Ġpup ils
ĠBir mingham
Ġcong reg
Ġjew el
Ġremn ants
Ġboil ers
ĠLeban on
ĠAnup ong
ĠTechn ology
Ġfra ud
ĠAI L
ĠJup iter
ĠOcc up
assad or
ĠImm emorial
ĠObserv atory
ĠTurt le
ĠWelling ton
ĠEigh th
Ġphara oh
ĠMcD on
eor ological
ĠCurt is
ĠHud son
agiar ism
Ġchast ity
ĠKum ar
ĠKail ash
ĠKras nyi
Ġarsen ic
Ġdefe ated
Ġunlik ely
Ġsympt oms
Ġacknowled ged
Ġil leg
rehens ive
Ġwart ime
Ġmys elf
ĠSnapp er
ĠSPEC TRE
Ġgarn ered
ĠWign er
ĠGree ce
ĠKree ft
ĠKÃ¶n ig
ĠZilt oid
ĠTrimurt i
ĠMacAr thur
3 0
F L
H O
I V
N f
S tation
V I
a ic
a res
b it
b en
b ow
b eat
b ey
b ec
b urg
c over
c ock
c ourt
d o
e f
e g
f ast
f ather
f ront
f Ã¼
f tees
h an
h ou
i ets
j a
j iang
k er
k ley
l ore
m i
m ary
m ount
o ons
p ics
p oned
r st
r ised
s es
t ime
t elling
u ished
u ously
u fficient
v is
v ine
w en
w estern
x im
z ao
Ġ els
Ĩ st
Ġt ent
Ġt ight
Ġa ft
Ġa ug
in z
er r
er ver
Ġs q
Ġs ed
Ġs ang
Ġs ick
Ġs ank
Ġs ized
Ġs ample
Ġo h
Ġo ak
Ġw ins
Ġw ick
Ġw ards
it is
or ious
Ġc ow
Ġc ov
Ġc ites
Ġc ricket
en ged
is ive
es ar
es ter
Ġf il
Ġf urn
Ġf ox
Ġf lee
Ġf ighters
Ġb ay
Ġb are
Ġb omber
Ġin e
Ġp over
Ġp airs
Ġp agod
Ġp itch
Ġto ured
ro t
Ġm ir
Ġm ature
Ġm asters
Ġd ust
Ġd ivers
Ġd ressed
Ġd ancing
Ġd imens
Ġd atabase
Ġh at
Ġh ide
Ġh ull
Ġh anging
le ased
le ts
le ctions
ou ver
ĠT alk
ĠT ropical
Ġre nt
Ġre jo
ent on
il ty
ĠA S
ĠA zz
Ġth ro
ĠS k
ĠS her
ĠS ud
ĠS hip
ĠS up
ĠS ony
ĠS quad
ĠS now
el in
el age
ĠC E
ĠC ork
ĠC ock
ĠC ake
ĠC ert
ĠC ai
ĠC rane
st in
Ġl ust
Ġl ose
Ġl ibr
Ġl anes
om ics
ct s
ol es
ol ph
ol ve
ol era
ĠI TV
Ġbe ar
Ġbe autiful
ur as
ĠM as
ĠM other
ĠM ull
ĠM oney
ĠB un
ĠB ab
ĠB enn
ĠB rest
ĠB aker
ĠB ishop
ĠB illy
Ġg ig
Ġg ate
Ġg aining
ir p
ir y
ig a
ig en
ot o
ot ion
ot ton
ĠH y
ĠH ad
ĠH ope
ĠH ugh
ĠH utch
Ġst all
Ġst ick
Ġst ink
ut s
ut t
us an
ĠP it
ĠP or
ĠP ur
ĠP ear
ĠP rem
ĠP usan
ĠR u
ĠR ud
ĠR ash
ĠR af
ĠR ID
ch t
ul ating
ra ged
ĠF il
ĠF em
ĠF Ã©
ĠF eder
ĠF rey
ĠF ashion
ĠF ashi
Ġwh ites
Ġwh ilst
ĠW ives
ĠW isc
ĠG B
ĠG et
ĠG ard
ĠG ang
ĠG rant
Ġcon ce
Ġcon tend
Ġcon ven
ĠN on
ĠN av
ĠN ame
ĠN atural
ĠN FL
ĠL et
ĠL ist
ĠL ost
ĠL ang
ĠL akes
est ion
os ely
ĠD unning
ĠJ ules
ĠJ ourney
ag ara
ist ration
Ġpro l
Ġpro of
Ġpro claim
Ġse ized
Ġse ctions
ĠE U
ĠE ric
ĠE conom
ill iant
ĠO K
ĠO tt
Ġsu dden
oc ate
Ġv s
Ġv on
Ġv it
Ġv ir
ĠIn v
ore tical
Ġex ile
ak ers
Ġch ains
Ġch ampions
ab el
ud ad
ess es
Ġpl ague
Ġpl acing
rit ies
te fact
ĠK urt
ell ular
Ġk id
Ġk ids
ear s
ĠSt at
ĠSt ill
ĠSt ony
ĠSt rong
Ġun ex
og lyph
ue ux
ĠV oice
ĠV okes
Ġint ense
per field
Ġwhe el
ult y
ĠHe avy
Ġen force
Ġus ual
ĠTh us
Ġrec ount
Ġdis emb
Ġdis app
ĠRe f
ĠRe al
ĠRe uter
Ġ5 8
over y
ĠY am
Ġte lephone
iz abeth
Ġman oe
Ġafter sh
Ġj oy
Ġj uris
Ġro ut
Ġim min
are ll
Ġover come
Ġpre f
Ġag ing
Ġag rees
Ġspe ech
Ġcomm enced
ons in
Ġsp ar
Ġsp oken
int s
ph ant
Ġrem in
Ġrel ied
Ġrel ating
Ġrel iance
Ġcons ort
Ġcons olid
Ġear n
Ġbo ost
Ġkn ocked
Ġpe oples
oth y
Ġspec ified
Ġspec ulated
Ġspec ifically
Ġwe ekend
olog ists
Ġbu y
Ġbu ck
aw ay
Ġfl ame
Ġco ordin
Ġreg iments
Ġsub urb
Ġac re
Ġra pe
Ġra ids
ĠMar ie
ters hire
end ra
Ġqu it
Ġqu iet
ĠNew man
Ġsupp lement
Ġ9 4
Ġver teb
ert o
ĠSh op
ral tar
ĠJo ey
Ġsong writer
ĠLe gend
Ġacc ident
Ġele ctor
Ġele phant
Ġmon k
ĠWh o
Ġrep rodu
Ġ12 7
Ġtrans mission
Ġtrans plant
Ġmil k
Ġ10 6
Ġcre ates
Ġfam ine
Ġem pty
ĠMay o
Ġinst ruct
Ġinst inct
emb ly
Ġsm oke
Ġarm ies
Ġprov ision
Ġimp rint
rop olis
rop olitan
ĠAd apt
ĠAd min
Ġcontin uing
ram a
Ġter rain
Ġdam aging
Ġdep uty
Ġdist rib
Ġcharacter ised
ep ing
Ġart istic
Ã© e
Ġsl op
Ġsl ots
Ġadv ised
Ġadv ocated
Ġ193 4
Ġph il
Ġland ings
Ġhel ps
Ġins ufficient
Ġ15 2
Ġprom ised
Ġgu ide
Ġgu ilty
ĠChrist ians
Ġpass ages
Ġref lected
Ġexpl an
Ġexpl oration
ĠCanad ians
Ġbr ings
ĠOr chestra
anc ers
Ġed ited
uc lear
ĠYork shire
Ġreview er
Ġreview ers
Ġhand led
Ġconf ron
ĠPe ace
Ġorgan isations
Ġsent enced
aur us
Ġlast ing
ĠJu an
Ġ196 5
Ġdra ftees
Ġhal ted
Ġrepl acing
ograph ical
Ġlocal ization
Ġvis ible
Ġposs ession
Ġdifferent iation
Ġarr ives
Ġreal ised
ĠCommand o
Ġmy ster
ĠWe b
ĠEx per
ĠEx pl
Ġleg ally
Ġpresent ation
ops is
Ġinflu ential
Ġcomb inations
Ġbar rel
Ġbar rows
Ġbar rier
Ġfar ming
ĠNe br
Ġcur ve
Ġcur ved
Ġcour ts
Ġtimes l
ĠAnt i
Ġfore ver
Ġpost hum
Ġpost poned
Ġaff air
ĠMin nes
ĠPark er
Ġspecial ized
ĠHar old
Ġdiscover s
Ġsimilar ly
ĠAct ress
Ġer ror
Ġnational ist
ĠEn v
Ã¡ rez
Ġpri ze
ĠAss istant
ĠAss embly
ĠMich a
Ġrad iation
ĠComp an
Ġsound ing
Ġfinal e
Ġviol ations
reg ular
Ġhy brid
ĠEd ge
Ġprogram me
Ġrev ival
Ġread ers
Ġ24 0
Ġaud io
Ġarg ue
Ġcor por
Ġval uable
Ġrespons es
Ġrank ing
Ġ186 3
ĠTr acy
ÃŃ n
Ġsw ord
ĠMor gan
ĠBar b
ĠBar ra
Ġ187 6
Ġ187 8
Ġ187 9
Ġredu ce
Ġredu ction
Ġredu cing
Ġ27 5
Ġdev oted
yc le
Ġdon ated
inc ible
Ġemploy ees
Ġadvant ages
Ġinform al
Ġleukem ias
Ġobject ors
Ġsett led
Ġcommercial s
ĠAg ency
ĠFilm s
ĠEl izabeth
Ġmer ge
ĠRob ot
Ġprevent ing
ĠInf lu
Ġrul ers
Ġgre y
ĠSov iets
isting uished
Ġknow ing
Ġdefend ers
Ġminor ity
Ġparticip ate
Ġhor ror
Ġthink s
Ġlet ters
Ġcross es
Ġinvestig ated
Ġround s
ont in
ĠDr unk
Ġtravel s
Ġaver aged
Ġsearch l
ĠOver all
Ġ185 0
Ġ185 4
Ġsac rific
Ġsac rifice
Ġfrag rance
ĠSm all
ĠGrand e
ĠNorm and
ĠMet hod
Ġneut ron
Ġsyn c
ĠUnder neath
Ġwor se
Ġcost s
Ġmat ters
Ġsequ el
Ġscreen play
Ġrail s
Ġhop ing
ĠPre c
Ġcompl icated
nthes is
ĠVill age
Ġnewsp apers
Ġacqu ire
Ġconstit u
Ġconstit utional
ĠPlay Station
Ġcat aly
ĠMill igan
Ġnetwork s
aut la
Ġsal ary
Ġlif estyle
Ġjud g
Ġsus pended
Ġang ry
Ġpromot ing
Ġpromot ional
Ġtemper ate
Ġincorpor ates
ĠÃ Ĩst
Ġrecover ed
ĠLl oyd
Ġperman ently
Ġtend s
bo oba
Ġtask s
Ġtask ed
ĠBow l
Ġsurrender ed
Ġportray al
ĠBob by
Ġdepend s
Ġexhib its
Ġcho oses
Ġcandid ates
Ġox ide
ros aurus
roph y
Ġunivers e
Ġexplos ion
Ġfarm ers
Ġperfect ly
Ġbond s
ĠAp ost
Ġscient ific
Ġcanc eled
Ġconfir m
Ġwinter ing
Ġcateg ory
Ġreag ent
ĠSen ate
Ġlo an
umber ed
ĠUygh ur
Ġmanufact ure
Ġmyth s
Ġfunction al
ĠAddition al
arm endra
ĠMir anic
ĠGreg ory
ĠKur stin
Ġcompr ising
Ġmonit oring
worth iness
Ġburn ing
Ġrect ory
oty pe
Ġundert aken
Ġinterse ction
ĠCrusad ers
Ġble nd
Ġinn ov
Ġlay ers
Ġgraph ics
ĠGall ian
ĠLiber ty
Ġmechan ical
Ġvalid ity
Ġtrib ute
ĠTur key
ĠMov ie
ĠBull och
ĠProm iscuous
ĠKe ith
ĠHead quarters
Ġshel ter
Ġspeak ers
Ġconsist ent
Ġpsych iatric
Ġid ol
ĠCop perfield
Ġec osy
Ġrum ors
Ġunderst ood
ĠAdvent ure
Ġoccas ional
Ġaccompl ished
Ġwarn ed
Ġmel od
Ġrever se
ĠWalk er
Ġadj ust
Ġdelay ed
Ġsan ct
Ġpric e
ĠAri hant
ĠJenn ifer
Ġvirt ue
Ġvirt ually
Ġsurpr ise
Ġmagic ian
Ġdiagn osis
Ġtort ure
Ġaware ness
ĠLab our
ĠLab rosaurus
Ġdiff ered
Ġobl igation
Ġprogn ostic
Ġfle x
Ġnurs ery
ĠMatt hew
ĠBa ibars
ĠWars aw
ĠJun yi
Ġoverl ooking
Ġstead ily
Ġaccommod ate
born e
Ġturb ines
ĠCa esar
ĠBas anti
ĠGra ves
ĠOlym pic
ĠUr n
Ġimag ination
ĠCommun ity
Ġmoder ate
ĠAntiqu aries
ĠImp Ã©t
Ġswallow ed
ĠSimilar ly
Ġveget ation
Ġdissip ated
Ġchalleng ing
Ġsoph istic
Ġhier oglyph
Ġash ore
ĠHor iz
ĠHun ter
Ġexhaust ed
Ġdisband ed
Ġlisten ers
Ġerr ors
Ġcorrespond ing
ĠQueens land
Ġlicens ed
ĠAppe als
Ġhemm ema
Ġurg ent
Ġham pered
ĠTan aka
ĠCu autla
Ġchrom osomal
Ġwealth y
Ġimprison ed
ĠAmend ment
ĠGabri elle
ĠSupport ing
Ġwre ck
Ġfir m
Ġreun ited
ĠMack in
ĠLank a
Ġsubty pes
Ġapprec iated
ĠAnth ony
ĠAnton io
Ġearthst ar
Ġvolunte ered
Ġprotagon ist
Ġceleb rities
Ġmemor able
ĠCat hedral
ĠPay ne
ĠFle ming
ĠLud low
ĠDw ight
ĠChas uble
ĠComb ined
Ġdoz en
Ġconscious ness
Ġphenomen on
Ġdiplom atic
Ġsoc cer
eles cope
Ġlun ar
ĠPu erto
ĠGib raltar
ĠLic ence
overe ign
Ġspo iled
ĠAndr Ã©
Ġnickn ame
yram id
ĠAven ue
ĠCi udad
ĠBach chan
Ġgalle ys
ĠGor illa
ĠDh armendra
ĠOsc ar
Ġsup reme
ĠYing zao
Ġpret ty
ĠMeh booba
ĠExec utive
Ġmaxim us
Ġextraordin ary
ĠGregor ian
audev ille
Ġels ewhere
Ġaug mented
Ġpover ty
Ġpagod as
ĠAzz arell
ĠSud an
Ġstink horn
ĠRaf ael
ĠFrey a
ĠWisc onsin
ĠDunning ton
tefact s
Ġmanoe uv
Ġjuris d
Ġimmin ent
ĠNebr aska
ĠMinnes ota
ĠÃĨst hetic
Ġecosy stem
ĠImpÃ©t ueux
ĠAzzarell o
6 9
B E
C I
G N
L C
M usic
O S
W ork
a uty
b re
b ing
b age
b urn
b aden
c ano
d s
d ong
e aster
f eller
g ated
g ration
i i
i ety
j ust
j ection
k o
k ed
k az
l os
l ik
m ate
n u
n z
n am
n ight
n oon
o z
o Ã
o an
o itation
p oint
r ist
r aying
s ons
u o
u is
v or
v ation
v arn
w a
w here
Ġ ~
Ġt ong
Ġt art
Ġt ide
Ġt orn
in tend
in ently
Ġthe e
on ia
re ll
Ġs ter
Ġs od
Ġs ink
Ġs alt
Ġw ine
Ġw orn
at em
at ile
it udes
or ces
or adic
Ġc ere
Ġc ens
Ġc emetery
en z
is p
es ters
Ġf et
Ġf ond
Ġf ier
Ġf aster
Ġf rieze
ar ation
Ġb a
Ġb an
Ġb act
Ġb old
an ium
Ġin tend
al f
al in
al gam
Ġp in
Ġp est
Ġp unk
Ġp ill
Ġp ian
Ġp iston
as m
Ġto ler
ic i
ic ating
ro e
Ġm ood
Ġm ines
Ġm RNA
Ġd war
Ġd aco
Ġd ancers
Ġh ay
Ġh ym
ion e
ou st
ĠT s
ĠT ar
ĠT rou
ĠT att
ĠT up
ĠT rophy
Ġre ass
Ġre int
Ġre aches
ent le
ĠA L
ĠA BC
ĠA xis
Ġth read
ĠS id
ĠS ave
ĠS yl
ĠS chol
ĠS alt
ĠS isters
ĠS pector
ĠS ullivan
ĠC ou
ĠC over
ĠC aster
ĠC irc
ĠC inema
ĠC ensus
st ers
st ate
Ġl ion
Ġl ock
Ġl ighter
Ġl iner
om ing
Ġe art
Ġe ase
Ġe aves
Ġn om
Ġn ave
Ġn atur
un s
un er
ad in
ad ers
ad uri
Ġwas h
am il
am ation
am ely
ol ving
ĠI g
ĠI ra
ĠI ke
ĠI gn
ĠI RA
ĠI GN
Ġbe ars
Ġbe auty
ur st
ĠM S
ĠM ing
ĠM ess
ĠM ine
ĠM udd
ĠB P
ĠB an
ĠB ell
ĠB ased
ĠB ase
ĠB omb
ĠB ush
ĠB DS
ĠB ureau
Ġg ro
Ġg ast
Ġg ene
Ġg lee
id ation
Ġfor g
im m
im id
iv o
iv ial
ac ements
Ġas ide
ir is
ir ate
ir able
ĠH at
ĠH ear
ĠH old
ĠH ath
Ġst ress
Ġst able
Ġst ained
Ġst air
Ġst rand
Ġst rain
Ġst ucc
ut her
ut land
us i
ĠP an
ĠP as
ĠP ubl
ĠR est
ĠR ain
ĠR ight
ĠR ace
ĠR ick
ĠR aid
ch air
ra ver
ra ine
ra cted
ĠF M
ĠF u
ĠF olk
ĠF arm
ĠW es
ĠW ind
ĠW emb
ĠW olf
ĠG az
ĠG rec
em en
th ood
Ġcon form
Ġcon ception
Ġcon clus
ĠN f
ĠN ike
ĠN acht
Ġby pass
ĠL em
ĠL iam
ĠL iter
Ġan k
est y
Ġat rox
os oph
ĠD ur
ĠD one
ĠD ann
ĠD istinguished
ĠJ azz
ĠJ utland
ag ers
ist ent
av kaz
od ge
od ox
Ġpro sec
Ġpro xim
Ġse nd
Ġse ap
ĠE vent
ill er
ill ed
Ġsu icide
res cent
if eng
Ġv i
Ġv en
Ġv ig
Ġv ass
Ġv ague
Ġv otes
Ġv andal
Ġv eloc
ĠIn n
ĠIn tern
ak i
Ġsh all
Ġsh oes
Ġsh irt
Ġch olera
Ġr at
Ġr idge
Ġr ises
Ġr iding
ab h
ab hum
art et
ess ing
Ġpl agiarism
ĠU k
ĠU CL
ov en
ĠK I
ĠK au
ĠK ee
ĠK erry
ĠK avkaz
ack ets
ord ination
ian a
ell or
ge ant
our se
ish nu
Ġar tefacts
Ġnot ice
ĠSt ock
ĠSt aff
ĠSt ruct
ĠSt ructure
ĠSt range
ĠCh ong
ĠCh aak
Ġun h
Ġun com
Ġun just
og ues
Ġy e
ub e
ub ic
ĠV i
ĠV anc
ĠV atic
ĠV ishnu
ff en
ff ect
land o
ire ct
orm a
Ġab und
Ġcont ing
ass y
pl ace
du le
Ġad mir
Ġad equ
Ġres id
out ing
Ġen orm
Ġen abled
Ġus age
Ġcomp at
Ġcomp iled
Ġcomp rehensive
ĠTh ings
Ġdis gu
Ġ5 50
Ġoff shore
ĠAl tern
Ġdes ert
Ġdes erted
Ġdes perate
ĠY et
ĠY our
Ġte lev
Ġte lecom
Ġpart ners
iz er
Ġman age
Ġafter noon
Ġj eal
Ġj unt
are st
man n
oy le
Ġover r
ke feller
Ġpre cept
Ġpre tend
Ġcomm itted
Ġup r
Ġout standing
one ga
Ġsp ore
Ġsp ouse
Ġsp ots
Ġsp okes
ph ony
Ġrem uner
we ight
Ġall ocated
ail s
ĠZ omb
ve z
Ġev al
ĠAr med
att i
att le
Ġunder go
Ġbet aine
Ġchar ter
iss ipp
amp s
Ġcan al
Ġass ign
Ġass ignment
Ġ6 8
Ġme galiths
ob l
orn ey
Ġco at
Ġco ordination
Ġend uring
Ġact resses
Ġam algam
Ġsub d
Ġsub t
Ġinter im
Ġinter cept
Ġinter vention
Ġra ins
Ġra iding
Ġqu ot
Ġqu ote
ĠNew sted
Ġsupp ress
Ġform ing
Ġcol ors
Ġpo ol
Ġpo etic
Ġdo ctors
az ines
ĠLe o
Ġind irect
ĠAt omic
Ġpop ul
ars h
Ġpr ime
Ġpr incess
Ġrep orter
Ġrep rised
Ġdec isive
ĠInd ies
Ġpres erve
Ġmov ements
Ġem p
ĠCon cept
ĠAfter math
Ġinst ru
Ġfound ing
ĠMan chester
Ġcrit eria
Ġsm ugg
ae us
Ġcould n
Ġimp ressive
Ġcontin uously
ram s
ty m
ĠCan on
ĠCan al
ĠAll ies
Ġcommand ers
erv ing
Ġfe es
Ġfe ver
Ã© val
Ġmin i
Ġmin ing
Ġ0 1
Ġ0 5
Ġ0 7
Ġdesign er
ĠGe ffen
ĠPro du
Ġsl a
Ġsl ave
Ġsl aughter
ĠFe et
Ġ11 2
Ġsupport s
Ġant agon
Ġperson a
Ġmar ch
Ġland mark
Ġins pect
Ġins isted
Ġprom ising
ĠBro ther
Ġgu ilt
ĠPr Ã©val
ĠAust ria
Ġexpl oded
iam ond
ĠOr lando
ĠQ ing
Ġrun way
Ġhead ing
Ġfin ish
Ġ16 9
Ġprev alent
Ġdem ographic
Ġav o
Ġhand le
Ġconf isc
Ġconf idence
Ġconf usion
Ġorgan ic
Ġshort age
ĠPl aces
ĠJu Ã¡rez
Ġ196 2
Ġ196 6
Ġstar board
Ġcolle agues
lev ard
ĠHer ald
Ġdeb ated
Ġprof ound
Ġcapt ive
Ġcapt uring
ĠAustral ians
Ġpoint ed
Ġvis its
Ġimport ed
Ġwater way
ĠWest minster
yl ogen
Ġjust ify
isc ent
ĠGu ild
ĠGu atem
Ġarr ive
ĠCommand ing
ĠCommand ments
Ġmembers hip
Ġauth ored
ĠWe in
Ġcountry side
ĠDiv isions
Ġleg s
Ġleg itimate
Ġtrad itions
Ġel ig
ĠTw ent
Ġrepresent atives
uk i
ym ph
Ġbar rage
Ġbeh alf
Ġprop ose
Ġpress ing
ĠAir ports
Ġcour ses
Ġfac il
Ġfac ade
Ġfac ulty
ĠWith out
Ġste als
Ġbattle field
ĠEm my
eng u
Ġshould er
Ġfind ings
Ġaff inity
Ġtot ally
ĠChe ers
Ġless er
Ġstat ue
Ġstat ues
ĠHar v
ĠHar ry
Ã¡ l
Ġpar ade
Ġpri est
Ġrad ar
Ġrad ial
Ġz ones
Ġmag azines
ĠSp ir
ĠSp ace
Ġintrodu ces
Ġke en
ĠÂ µ
Ġide ology
Ġviol ated
Ġlaw yer
ĠMc E
ĠEd ith
ĠSec urity
Ġcivil ization
stit ution
stit utional
Ġconv oys
Ġce ased
Ġesc apes
ĠDav ies
ino is
ĠSu ff
ĠSu varn
Ġcor rid
Ġcor ruption
Ġground s
ĠHol id
Ġval ues
Ġenc ycl
Ġdr ive
Ġdr ivers
Ġdr iving
Ġdr iven
lect ive
Ġ186 5
Ġ186 9
ĠGreat est
Ġtru st
Ġavail ability
Ġsw im
ĠBar bar
Ġsuper st
Ġsuper natural
Ġrecogn ize
Ġ187 4
Ġgrad uate
Ġgrad uating
Ġclos ing
Ġmarri ages
Ġbreak s
Ġbreak out
Ġbreak fast
ĠPar achute
Ġfif teen
Ġ190 1
Ġ190 5
Ġpot atoes
Ġsepar ately
Ġvari ants
ĠKore ans
ĠAg ain
ĠAg reement
ĠAg nes
Ġlack s
Ġoccup ying
Ġaer opl
Ġspace craft
Ġ45 0
Ġmer ely
Ġlearn s
ĠFrank lin
head s
Ġfoc using
Ġproper ly
ĠEr n
Ġterm inal
Ġbi ographer
ĠCre x
ĠCre te
Ġcompet ed
Ġcompet itive
Ġkeep ers
Ġhapp en
ĠDire ctors
ĠPhil ip
ĠPer iod
Ġcome back
ĠSur v
ĠThom pson
Ġcycl ones
Ġround ed
ĠArt illery
ĠBet h
Ġimm igrants
Ġphot o
Ġdeterm ining
ĠAdmiral ty
Ġtwent ieth
Ġ185 3
Ġprem ises
Ġsac ram
ĠSo orma
Ġexam ination
ĠCharl ie
Ġfrag ments
Ġcampaign s
Ġball ad
ĠBu ilt
Ġvict ories
Ġintern ed
Ġintern et
Ġintern ationally
ĠMet ropolitan
Ġuns ure
Ġsyn th
Ġfamil iar
ĠSund ance
ĠMiss issipp
enes is
Ġlink ing
Ġindepend ently
Ġlab our
Ġattend ants
Ġdeep ly
Ġscreen ed
Ġincor rect
ĠFin ally
ĠLo ire
Ġavoid ing
Ġdeg ener
Ġpurs uit
ĠSal a
ĠWork ing
ogen ic
Ġappl ications
Ġaltern ate
Ġchall enged
ĠCont in
Ġvocal ist
Ġmut ations
Ġfavor able
Ġcerem onies
kins on
Ġtax es
Ġsus pected
ĠPet rie
Ġang le
Ġemphas ised
Ġfear s
ĠBo at
Ġprohib ition
Ġtend ed
Ġtransl ated
Ġprotect ing
Ġbelong ed
Ġwithdra wn
Ġmo ist
ĠTra ining
ĠBow yer
Ġir regular
Ġod or
Ġlic ence
Ġgar age
ĠDen ise
Ġexhib it
Ġexhib ited
Ġcho ir
Ġescort ed
Ġunp op
Ġadvent ures
Ġoutl ined
Ġassass ins
Ġsym p
Ġsym metrical
Ġelement ary
Ġexped itions
Ġfarm land
Ġcollabor ated
ĠAst ron
ĠSand wich
Ġattra ction
ĠOs iris
Ġconnect ing
Ġsole ly
ĠBh aduri
Ġseek s
ĠKur fÃ¼
Ġindust ries
ĠOrig inal
Ġbelief s
Ġscholar ly
ĠPakist ani
Ġboy friend
ĠDream Work
Ġinterse ctions
Ġhyd rogen
Ġswe et
Ġswe pt
Ġble eding
Ġinn ocent
ĠPop M
ĠGall ery
Ġconne ctions
Ġjun ction
Ġmechan ism
Ġben eath
ĠMov ing
Ġstra ined
ĠProm oted
Ġenz yme
Ġshel ters
Ġdiscip line
Ġgoddess es
Ġpsych ological
roscop y
Ġfer al
Ġdrum s
ĠCard inal
ĠRog er
ĠRog atti
ĠLar ge
Ġevac uated
Ġapparent ly
Ġpolygam y
Ġpage ant
Ġrend ition
ĠNor way
Ġagg ress
Ġagg ressive
Ġdistingu ish
Ġdrug s
Ġsalv os
Ġpit ched
Ġthr one
Ġload ed
Ġet c
ĠBol lywood
ĠRo om
Ġoverwhel med
Ġimplement ed
Ġmist aken
Ġloyal ty
Ġdisrupt ed
ĠConn ery
Ġprogn osis
Ġrebu ilt
Ġphotograph s
ĠBosn ians
Ã³ n
Ġtick ets
ĠMall ory
ĠBrand t
Ġshif ted
ĠKa iser
ĠKa ifeng
Ġsubst rate
ĠProv ince
ĠGeorg ia
Ġnucle ot
ĠTerrit orial
Ġculmin ation
Ġic on
Ġur anium
ĠSil ver
Ġgather ing
Ġexclud ed
ĠKenn edy
Ġclin ical
Ġelev ated
Ġaudition ed
Ġdissip ating
Ġchalleng es
Ġske leton
Ġbra very
Ġlov ed
Ġforb idden
ĠRoc kefeller
ĠDam age
Ġups et
ĠAsh bee
Ġmetall ic
Ġrefuge es
ĠDahl onega
aÃ ±
Ġrevers ibility
ĠBeller ophon
Ġgust s
Ġproc ured
Ġvow el
ĠKir k
Ġtrav elled
ĠXin jiang
ĠSwed ish
Ġmun icipal
Ġrender ed
ĠCas ual
ĠMah Ã©
Ġconj unction
Ġarrang ement
Ġadul tery
Ġregul atory
Ġrepublic an
Ġtransform ed
Ġsatisf y
Ġneighbour ing
ioc ese
Ġmush room
ĠIll inois
ĠDuck s
Ġpled ged
ĠMaria h
ĠBeh ind
ĠColer aine
ĠHistor ical
ĠAgust ÃŃn
Ġprincip les
Ġmicrol ights
ĠAch ille
ĠAren a
ĠHamp shire
ĠRh ymes
Ġunst able
Ġscr ut
Ġfeud al
Ġannex ed
ĠGuang dong
Ġparalle l
ĠBerlin er
ĠNichol as
ĠID F
idel ity
ĠPett it
ĠRub in
ĠWies baden
ĠGal way
ĠGross er
ĠNob el
ĠLiv in
Ġovers aw
ĠBlo om
Ġobv ious
Ġprovin cial
ĠScient ific
ĠUlt imately
Ġinhabit ants
Ġadvertis ement
Ġcryst all
Ġjewel ry
Ġilleg al
Ġcov et
Ġlibr aries
ĠBenn ett
ĠFÃ© lix
ĠFeder ation
Ġproclaim ed
Ġdisapp oint
Ġremin iscent
ĠAdmin istration
Ġexplan ation
ĠJuan ita
Ġtimesl ot
ĠMicha els
ĠCompan ion
Ġsearchl ights
ĠNormand ie
Ġsophistic ated
Ġtong ue
Ġdwar f
ĠTatt nall
ĠTup olev
ĠCaster man
Ġeart hen
Ġnatur ally
ĠIra q
ĠMudd ling
ĠBase ball
ĠHath or
Ġstucc o
ĠWemb ley
ĠGrec ian
ĠNacht igall
Ġproxim ity
ĠEvent ually
Ġveloc ity
abhum i
ĠVanc ouver
Ġjeal ous
Ġjunt a
ĠSuvarn abhumi
ĠMississipp i
ĠKurfÃ¼ rst
ĠDreamWork s
A R
B g
C E
D AT
H A
H L
I E
P M
P CL
R DAT
T B
T X
U RDAT
a un
a ac
a os
a ude
a illes
b i
b ot
b ath
b led
c ut
d ated
e an
e le
e ater
f e
g ud
h ol
h aw
h yl
i y
j in
j ad
k l
k ill
l ie
l ife
m el
m atic
m uda
m aha
n ery
n umbered
o os
p ot
p anic
r ine
r arian
s ol
t ie
t ically
t rak
u pt
u rop
v ings
w on
w ed
w atch
y es
y ards
y tic
y gen
z es
z hou
Ġ *
Ġ ion
Ġt al
Ġt ack
Ġt ell
Ġt iger
Ġt ertiary
he art
he ops
Ġa irst
in ction
in osaur
Ġthe or
Ġthe ft
Ġthe rop
er ary
er land
on k
on al
on ts
Ġs ab
Ġs qu
Ġs urn
Ġs ins
Ġs ob
Ġs emic
Ġo ath
Ġw ishes
at ics
it ars
it Ã¤
it abh
it watch
or ary
or ia
Ġc in
Ġc ir
Ġc ure
Ġc ous
Ġc ock
Ġc yl
Ġc uis
Ġc ubic
Ġc attle
en ess
is or
es on
Ġf o
Ġf ish
Ġf ool
Ġf ights
Ġf ulf
Ġf idelity
Ġf onts
Ġb ol
Ġb ran
Ġb ron
Ġb rain
Ġb ells
an th
an ist
an xi
Ġin g
Ġin cl
Ġin clusion
al ism
Ġp or
Ġp ig
Ġp ant
Ġp se
Ġp ace
Ġp ink
Ġp ale
Ġp ione
ing a
as hes
Ġto x
Ġto y
Ġto oth
Ġto ugh
ic ism
ic ulous
ro d
ro tt
Ġm aj
Ġm igr
Ġm amm
Ġm entions
Ġd orm
Ġd rown
Ġd imin
Ġd well
Ġh ur
Ġh ire
Ġh ook
Ġh aven
Ġh uge
ou rag
ĠT oy
ĠT aking
ĠT yn
ĠT rey
ĠT uff
ĠT iger
ĠT irp
ĠT LC
Ġre ly
Ġre de
ĠA ction
ĠA part
ĠA PL
Ġth y
Ġth orough
ĠS ac
ĠS ue
ĠS af
ĠS ites
ĠS ully
ĠS yria
ĠS iege
ĠS overeign
el ines
el lect
ĠC A
ĠC y
ĠC er
ĠC ave
st n
st ick
Ġl ord
Ġl ys
Ġl augh
Ġl ung
Ġl ingu
Ġl umber
om p
om ore
Ġe at
Ġe agle
ct uation
Ġn it
Ġn Ã©e
Ġn amely
un c
ad ows
ĠThe mes
am an
ol a
ol ly
ĠI an
ĠI ran
ĠI NS
Ġbe aring
Ġon wards
ur ate
ĠM D
ĠM P
ĠM W
ĠM ang
ĠM ason
ĠM enn
ĠM oll
ĠM artial
ĠM TB
ĠB ud
ĠB ian
ĠB io
ĠB alk
Ġg le
Ġg ear
id able
im p
ac c
ac he
ig hed
ig ger
ig aret
ig rated
ot ten
ter ial
ĠH ong
ĠH ip
ĠH ood
ĠH ang
ĠH ills
ĠH ao
ĠH oz
ĠH URDAT
ow ing
her ic
Ġst or
Ġst ew
Ġst aged
Ġst aying
Ġst alled
Ġst abil
ut or
ut ely
us cript
ay ers
et ime
ver end
ĠP le
ĠP ike
ĠP oll
ĠP lym
ĠP unch
ĠP PCL
ĠR N
ĠR ector
ch ow
ul ates
ra ke
ĠF al
ĠF ly
ĠF ord
ĠF inal
ĠF ried
ĠF ires
ĠF itwatch
Ġwh ate
ĠW S
ĠW it
ĠW ant
ĠW oman
ĠW ait
ĠW rang
ĠW ald
ĠW add
ĠW ells
ĠW HO
ĠG ro
ĠG un
ĠG ri
ĠG ord
ĠG arn
ĠG iel
ĠG rey
ĠG lyn
ĠG TX
Ġal g
Ġal k
Ġal um
Ġal ignment
em ics
th rough
Ġcon fer
Ġcon vers
ĠN el
ĠN um
ĠN ap
ĠN ice
ĠN AT
ĠL ore
ĠL ear
ĠL ower
ĠL anc
ĠL iver
ĠL af
ĠL ask
ĠL iao
ĠL ooking
ĠL odge
est ed
Ġat omic
ĠD E
ĠD un
ĠD ig
ĠD ow
ĠD ry
ĠD ance
ĠD ata
um s
rom e
ĠJ ade
ĠJ ane
Ġit em
Ġhe aven
Ġhe aring
ag ged
ag ua
ist ence
unk er
av a
av is
av ia
od es
Ġse w
Ġse em
Ġse ctors
ri ps
ĠE mer
ĠE ug
ĠE xt
ĠE arl
ĠE RA
ĠO R
ĠO ur
ĠO ric
ĠO maha
Ġsu ited
if act
if fer
oc aly
oc hem
op ra
ew ork
ew ise
Ġor ange
Ġor chest
Ġex empl
ant our
Ġsh ock
Ġsh orter
Ġsh attered
Ġch ip
Ġch ances
Ġr ic
ab ric
qu is
pt ic
ip her
ber ry
Ġpl ut
Ġpl us
Ġpl um
Ġpl ates
Ġpl aster
ast rous
ov es
ov ic
ĠK at
ĠK al
ĠK elly
ĠK heops
ack et
ell o
ge on
Ġle ap
Ġle aked
Ġar che
Ġar terial
ical s
Ġk it
ĠSt op
ĠCh ul
ĠCh and
ĠCh oms
ĠCh opra
ous ness
Ġun re
Ġun ified
Ġun off
Ġun rel
og y
ĠV is
ĠV ik
Ġtw ee
orm s
own ed
ition ers
Ġint ellig
Ġint imid
Ġint ellect
per t
per ors
Ġcl ar
Ġcl ust
Ġ3 50
pl acements
ok y
Ġres pected
Ġres erved
Ġres umed
Ġres erves
ough ts
ond aga
Ġen act
Ġus ers
Ġcomp are
Ġcomp elled
Ġcomp aring
Ġrec ip
Ġrec apt
Ġdis gr
Ġdis astrous
ĠRe verend
mer ged
ĠAl gy
Ġman power
Ġman uscript
Ġj ail
Ġro utes
Ġover h
ke ley
Ġpre historic
Ġag round
Ġag rarian
Ġcomm ended
Ġsc re
Ġsc ores
Ġsc andal
Ġsc orer
Ġsc utt
Ġout ages
ang a
Ġsp in
Ġsp ite
Ġsp elling
Ġsp oke
Ġsp ouses
Ġsp oradic
ĠSe g
ĠSe af
ĠSe aly
Ġne arest
Ġrem od
Ġrem ote
Ġatt ained
we alth
Ġall osaur
ail ing
ind ed
ĠBrit t
Ġcons umed
Ġcons ensus
ĠOn ondaga
Ġship ments
Ġsec ular
Ġass ert
Ġass ists
Ġ6 50
Ġme als
ĠCom ic
Ġkn ife
Ġpe as
Ġpe ers
ob ile
Ġspec ulation
Ġwe igh
Ġwe ighed
Ġthan ks
Ġfl ies
Ġco inc
Ġco oking
Ġreg ained
Ġreg ret
Ġreg ulated
Ġreg urg
Ġact ively
Ġam az
Ġam ids
Ġam ple
Ġair line
Ġair play
Ġsub ordin
Ġsub merged
Ġinter actions
Ġinter mediate
Ġret ro
Ġret ail
ck ed
end ar
Ġqu arters
Ġapp ly
Ġform ula
Ġform idable
ick ens
ĠSh ir
ĠSh aw
ĠLe igh
Ġsome body
Ġso ap
Ġacc us
Ġthere by
Ġap se
Ġap olog
ĠAt omics
ĠAs ide
Ġbl ank
Ġmon itor
Ġmon archy
ĠWh ilst
Ġtra its
Ġtra pped
Ġtra uma
ĠBl ock
ĠBl ues
Ġdef ine
Ġhigh ways
Ġop ens
Ġdec isions
Ġtrans miss
ism o
ĠAn alysis
ĠAn imal
Ġ10 5
Ġperform er
Ġsecond s
Ġmet ab
Ġem perors
Ġem placements
ĠCon c
ĠCon vention
ĠMay ne
Ġinst ances
Ġgovern ing
ĠMan eater
ĠCl aire
ĠCl imate
ĠCl aude
Ġdisc ouraged
Ġdisc ontin
Ġest ate
ĠIs le
Ġsm ooth
Ġsign ature
Ġsign aling
up a
Ġep ic
Ġep id
Ġexp and
Ġcar ving
Ġcar vings
ane a
Ġter rible
Ġreport ing
Ġany one
Ġseason al
Ġdist ant
ĠAll an
Ġconst ant
Ġcommand s
Ġcommand ing
erv a
Ġinf ected
Ġopen ly
Ġvar ies
Ġart ifact
Ġfe e
Ġ17 2
Ġ17 4
Ġ17 7
Ġ17 8
ĠGe ography
ĠGe ological
Ġsl aves
Ġsl ope
Ġ13 4
Ġline age
Ġeng ined
Ġeng aging
Ġ11 1
Ġ11 9
Ġadv ances
Ġsix teen
ĠBe au
Ġdiv erted
Ġph ylogen
Ġmar ble
Ġcast ing
Ġland own
Ġconc ur
Ġext ant
Ġrest oration
ĠSc iences
Ġgu y
Ġgu itars
Ġstory telling
Ġposition ed
Ġref it
Ġref use
Ġref using
Ġincre ases
anc a
ĠUS A
Ġcontrol ling
yn es
ĠQ ian
Ġfin est
Ġfin ance
Ġfin als
ĠTe legraph
Ġlist ings
Ġlist ening
ĠPol ic
abl anca
Ġhand ling
ĠMon th
ĠMon ten
ĠMon roe
Ġconf ident
Ġsim pl
Ġbas es
ĠCol onel
Ġshort ages
ĠPl ant
Ġprog resses
Ġorder ing
Ġpubl ishing
apt ist
ĠHer oes
ĠRoman o
ograph ics
Ġtop ics
Ġvis iting
Ġsit uated
ĠSouth west
ĠHis panic
Ġcult ures
Ġinvol ve
Ġreal ise
Ġgold en
Ġpur ified
Ġdet ached
Ġel bow
ĠPh ot
ĠPh oe
ĠCar penter
ĠReg ular
ĠReg ister
Ġpolit ically
Ġrepresent ation
uk a
achel or
ploy ment
Ġfun erary
app a
ĠNe ut
Ġkill er
Ġeast ward
Ġgl az
Ġgener ated
Ġgener als
fic ial
Ġlim its
Ġlim iting
Ġste pped
Ġste aling
Ġsol ve
Ġsol ution
Ġsol uble
Ġrefer ring
Ġrefer enced
Ġdel ight
ĠAnt illes
ĠPort s
ĠAm jad
ĠAm itabh
Ġactiv ists
Ġgen res
Ġhistor ically
rent ial
ĠEm b
Ġthird s
Ġauthor ized
Ġ14 0
Ġaff il
Ġcr imes
Ġcr imin
ĠX u
ĠX VI
ĠPark s
Ġpat ient
ĠHar ris
Ġsimilar ities
Ġwant ing
ĠEn uff
ĠPal mer
aul ed
ĠAc ute
Ġintrodu cing
Ġsound ed
ĠÂ ²
Ġsomet ime
Ġcirc ulated
ĠMc L
Ġsurv ives
ĠMark et
Ġident ification
itz erland
Ġcru ising
Ġcru cial
ĠSu icide
ĠArch itect
Ġ40 3
Ġtre as
Ġlook s
ĠGod s
Ġenc ourag
Ġ189 3
Ġ189 4
Ġ189 8
Ġcoll apse
Ġdr iver
Ġcommer ce
Ġ186 0
Ġ186 7
Ġfre ely
Ġmass acre
Ġhar ass
ÃŃ a
Ġtor rential
Ġsw itch
ĠMor ris
Ġinvest ors
Ġestim ate
ores cent
Ġ187 5
Ġ188 1
Ġ188 7
Ġbroad er
Ġgrad ual
Ġmanag ers
Ġdev il
Ġdev olved
Ġdon ors
Ġ190 8
Ġfav oured
Ġmot if
Ġren owned
ential s
ĠOther s
Ġvol unt
Ġvol umes
Ġvol cano
Ġ31 9
Ġhon est
ĠCamp aign
Ġvill ain
Ġvill ages
Ġbomb ing
ĠServ ices
Ġprot esters
Ġsett lers
Ġvari ant
Ġcra b
Ġcra kes
Ġthreat s
Ġoccup y
ĠFilm ing
ĠAcad emic
Ġmer ged
ĠSar ah
ĠAssoci ated
Ġfoc uses
ĠPat rol
cast le
Ġsum mar
Ġcal ib
Ġprior ity
ĠSw itzerland
ĠCr isis
Ġtype writer
Ġreb el
Ġly rical
ĠRober ts
Ġens ured
Ġmus k
Ġmus cle
ĠCross es
Ġparticip ation
Ġparticip ating
ĠQu estion
Ġhor iz
Ġconclud es
ĠChristian a
ĠChristian ity
Ġcertain ly
ĠSur rey
ĠDel aware
ĠThom son
Ġinvestig ations
ont o
Ġsat ir
ĠDr atch
Ġcomment ary
Ġsculpt ed
Ġcred its
Ġbirth day
Ġdraft ed
Ġphot ography
Ġgirl friend
Ġsecret ly
Ġult imate
Ġ185 8
ĠBer kley
ĠBer muda
ĠBer keley
Ġexam ining
Ġ44 0
Ġaccess ible
Ġblock s
Ġmethod ologies
ĠSb F
Ġflo ating
Ġpoly the
Ġwat ches
Ġvict im
Ġ36 0
back s
Ġau x
Ġder ives
ĠMet al
ĠMet all
Ġterrit orial
Ġnecess ity
Ġfeel ing
Ġstreng the
Ġwor ried
ĠCons ervative
add y
ĠZanzibar i
ĠTy p
ĠHob bit
Ġattend ing
ĠChronic le
Ġmountain ous
Ġfictional ized
Ġlabor ers
ĠMy res
ĠMil ton
ĠFin ance
Ġherd s
bour ne
Ġpun ctuation
Ġdeg rees
Ġcompl aints
Ġoffer ings
Ġprepar ations
Ġobserv es
Ġobserv atory
sw orth
Ġfru st
Ġfru iting
Ġacqu iring
Ġconstit uted
Ġforest ed
Ġforest ry
allow ay
Ġextrem es
Ġdyn amics
Ġreject s
Ġdism ember
ĠAdd ington
Ġfrequ ency
Ġthous and
Ġcerem onial
Ġsus pic
Ġpan els
ĠFour teenth
ĠGar uda
Ġmarket ed
Ġmarket ing
rack s
ĠÃ ī
Ġsulf onium
Ġstrugg les
ĠCrus ade
Ġcle ver
Ġbound ary
Ġmic roscopy
ortun ately
Ġchamber ed
Ġassemb ly
Ġbelong s
bo ards
che mical
writ ers
Ġsout heastern
Ġcust oms
Ġcust omers
ĠKn ight
Ġir re
Ġeas ier
ĠRev ival
Ġindic ates
ĠTim or
ĠBob c
ĠHam as
ĠHam ilton
ĠChap ter
Ġresemb les
Ġrecomm issioned
Ġ183 6
Ġsymb olic
ĠScot ia
ĠFranc is
Ġox ygen
ĠMore los
ĠHot el
ĠPerson nel
ĠLu is
Ġunp aid
Ġprec ipitation
ĠCommission er
Ġbond ing
Ġscient ist
Ġcanc ellation
Ġcateg or
Ġlo osely
ĠFore ign
agon al
ĠOs aka
Ġorb its
Ġencoun ter
Ġhorse power
Ġmort ar
ĠBh opal
Ġfort ifications
Ġ37 0
Ġcompr ised
Ġcompr ises
Ġamb assador
ĠPortug al
pass es
pass ing
Ġdark ness
ĠMal ini
ĠForm er
Ġcontact ed
Ġundert ook
Ġtrou bles
Ġcab bage
Ġgrand father
Ġvan ished
Ġweak ness
Ġdefeat ing
Ġrhyth ms
Ġbig gest
Ġdub bed
ĠJim my
Ġenl ar
Ġconsist ently
Ġemot ion
Ġcheck ed
Ġtub e
Ġtact ical
Ġsport ing
Ġcard inals
ĠCard iff
ĠBra h
ĠBra z
ĠRog ers
Ġrum ours
Ġcontrib utions
Ġprefer red
Ġhighl ights
Ġhighl ighted
Ġunsuccessful ly
aak nal
Ġsin ful
Ġwarn ing
Ġcosm os
ĠFA B
ĠInit ial
Ġcommission ing
Ġconsult ant
Ġprint ed
Ġdefin itely
Ġpric es
Ġmom ents
Ġhot els
ĠTor onto
unte ers
ĠRÃ© sol
ĠJos h
ĠJos hua
ĠObs erver
ĠVol unteers
Ġspons ors
Ġglass es
Ġaffect ing
Ġelectric ity
Ġdiagn osed
Ġpack ed
ĠSub sequently
ĠCap ital
ĠCap ablanca
ĠHon orary
ĠDo ctor
Ġextend s
Ġextend ing
Ġguid elines
Ġreflect s
Ġreflect ing
Ã³ w
ĠSym ons
ĠSym phony
Ġgross ing
ĠLes ter
ĠLes lie
ĠDis ney
Ġexpect ations
Ġshif ting
Ġuncon stitutional
Ġcarbon aria
Ġexplo it
Ġbattlecru iser
Ġaccommod ation
Ġhousehold s
ĠTerrit ory
Ġinterpret ations
Ġsoci eties
ĠTot al
ĠSyn opsis
ĠMel bourne
ĠHaw kes
ĠDor othy
Ġdeleg ated
ĠOlym pics
Ġexclus ively
Ġencl osed
Ġsche dule
Ġremark able
Ġdecre ase
ĠCommon wealth
Ġmillime ter
Ġprompt ed
Ġlimit ations
Ġmagn itude
ĠMcG uin
Ġdevast ating
Ġadopt ion
Ġsoph omore
Ġoct agonal
Ġindu cted
ĠSab re
ĠMes olithic
ĠLt d
Ġanch ored
ĠOh io
Ġexerc ised
Ġupgr ade
Ġprofession ally
Ġrenov ated
Ġlicens ing
Ġhemm emas
Ġtut or
Ġrevers ed
Ġthrow ing
ĠId ol
ĠBeller ive
Ġvary ing
Ġquant ities
Ġtrav elling
Ġ117 0
ĠXin hua
ĠMichel in
Ġwait ing
Ġinte gration
ĠTax onomy
ĠTai wan
ĠAz ores
ĠAuthor ity
ĠSign ific
ĠMitchel l
ĠMitchel ls
ĠFact ory
ĠWin ter
ĠLim antour
Ġanth rop
ĠElect ric
Ġdescend ed
Ġoverse as
Ġcooper ation
Ġrepet ition
Ġdreadn ought
Ġdreadn oughts
Ġbal ance
Ġreop ened
ĠAer odrom
ĠCarn ival
Ġhen ce
ĠStand ard
ĠVers ailles
Ġenh ance
ĠZion ism
Ġsuppl ied
Ġantib ody
Ġpredomin antly
Conn or
Ġaro se
Ġsars ens
Ġmathe mat
Ġliv eli
Ġlig and
Ġnons ense
ĠWick ford
ĠWarn e
Ġconqu est
ĠChampions hips
ĠLev i
Ġenth usi
Ġterr ace
ĠSche er
ĠOrd nance
Ġdemocr acy
ĠRepresent atives
Ġpersu aded
Ġcounteratt ack
ĠHalf way
bur gh
then ed
Ġther m
Ġfest ivals
arth y
Ġbub bles
Ġloot ing
ĠMw anga
ĠFif th
ĠGre ater
emit ic
Ġconvey ed
ĠEs sex
ĠOb ama
Ġreconc iliation
Ġconspir ators
Ġsynd rome
ĠAdri atic
Ġhandb ag
Ġcourty ard
ĠMcK ay
Ġdispers ed
ĠPrepar atory
ĠBoliv ar
ĠOccup ation
Ġhat red
ĠSup reme
ĠCock burn
ĠPear l
ĠPrem ier
ĠRID OT
Ġvit ro
ĠInv incible
Ġunex pected
ĠYam aha
Ġrout ine
Ġconsolid ation
Ġverteb rae
Ġmyster ious
ĠEnv ironment
Ġsync ret
ĠHoriz ons
ĠMackin ac
Ġbact eria
Ġpill ars
Ġreint rodu
ĠHat cher
ĠRest aur
Ġank le
osoph y
ĠDone gal
ĠDann y
Ġrat io
Ġunh app
ĠVatic an
Ġadequ ate
Ġenorm ous
Ġtelev ised
ĠZomb ie
Ġsubd iv
tym ology
Ġconfisc ated
ĠHarv ard
ĠSpir it
ĠÂµ g
Ġcorrid or
ĠHolid ay
Ġunpop ular
aÃ± ol
ĠCasual ties
Ġscrut iny
Ġtherop od
itÃ¤ n
Ġcuis ine
Ġpant he
Ġpse ud
ĠTirp itz
ĠSaf ety
ĠMang alore
ĠMenn on
ĠMoll oy
ĠHoz jan
ĠPlym outh
ĠPPCL I
Ġwhate ver
ĠWrang ler
ĠGiel gud
ĠNAT O
ĠLiver p
ĠLask er
ĠOric on
ĠChoms ky
Ġintellect ual
ĠSeaf orth
Ġcoinc ided
Ġamids hips
Ġtransmiss ions
Ġdiscontin ued
ĠPhoe be
Ġcrimin als
Ġstrengthe ning
ĠRÃ©sol ue
ĠMcGuin ness
1 5
5 9
6 0
D P
G A
I OS
M I
P ass
P aul
S S
T RA
W ASP
a et
a fer
a que
b ted
b oll
b odies
c a
c r
c an
c ence
c ially
c rie
c ott
c ologist
d a
d est
d ate
d ish
d iocese
f or
f am
f ir
f est
f ound
f old
f oot
f unction
g ian
h r
h al
h ran
h ael
h agen
h urst
i ors
i ability
j as
k in
l ide
l ake
m ith
m und
m aster
o or
o is
p g
p it
p ost
p ublic
p hew
r ac
r us
r ass
r one
t op
t own
t ale
t heless
u ct
u ers
v ens
w ild
w ick
y on
y eloc
z er
z ing
z ir
z boll
® t
Ã §
Ġt et
Ġt ap
Ġt ran
Ġt ents
Ġt rol
Ġt une
Ġa unt
in as
in ities
Ġthe ater
Ġthe olog
er able
er ias
on om
re ated
re cht
Ġs ight
Ġs ous
Ġs ax
Ġs essions
ed est
Ġo wed
Ġw is
Ġw ish
Ġw ished
Ġw elf
Ġw ield
Ġw ishing
at ers
at ist
at ters
at ures
at itude
at isf
it ate
it ating
or ge
or ph
Ġc un
Ġc ors
Ġc ars
Ġc arn
Ġc ash
Ġc ros
Ġc ensus
Ġc avalry
Ġc otton
en a
es que
Ġf us
Ġf als
Ġf ires
Ġf ancy
Ġf iled
Ġf abric
ar o
ar is
ar ched
ar cer
ar agua
Ġb ent
Ġb ell
Ġb ark
Ġb ert
Ġb ars
Ġb ishop
Ġb ureau
Ġb reath
an im
an elli
an agara
al id
Ġp int
Ġp aying
Ġp awn
Ġp yramid
Ġp edest
ing er
as ma
ic ing
ro it
ro oms
ro iled
Ġm um
Ġm ere
Ġm ate
Ġm ap
Ġm ail
Ġm ason
Ġm aps
Ġd ent
Ġd il
Ġd ug
Ġd ull
Ġd ys
Ġd uel
Ġd arker
Ġh ole
Ġh urt
Ġh abits
Ġh arsh
le ans
le af
ĠT ed
ĠT ow
ĠT ip
ĠT ud
ĠT ony
ĠT ourn
ĠT iber
ĠT rian
ĠT ao
ĠT arant
ĠT ogether
ĠT elescope
Ġre in
Ġre ward
Ġre cept
ent ers
il berg
ĠA P
ĠA ther
ĠA ten
ĠS ol
ĠS old
ĠS omet
ĠS ox
ĠS hips
el and
ĠC N
ĠC od
ĠC ess
ĠC our
ĠC ran
ĠC ass
ĠC reat
ĠC hes
ĠC ool
ĠC row
ĠC rew
ĠC ox
ĠC off
ĠC rows
ĠC ider
ĠC atherine
Ġl ith
Ġl over
Ġl uc
Ġl ights
Ġl ament
Ġl ocked
Ġl ymph
Ġe cho
Ġn iece
ad ium
ad sen
ad vant
ĠThe ory
am i
am ount
am ium
am ma
ol n
ol od
ol ate
ĠI R
ĠI ce
ĠI ch
ĠI FA
ĠI CA
ĠI cel
Ġon line
ĠM ult
ĠM oth
ĠM ember
ĠM aid
ĠM Ã©
ĠM bar
ĠM orning
ĠB es
ĠB ent
ĠB ish
ĠB ry
ĠB ath
ĠB anc
ĠB uck
ĠB reak
ĠB aptist
Ġg aming
Ġg host
Ġg amma
id ian
id ency
im a
iv ia
ac her
ac int
ac ular
ir teen
ig rant
ĠH om
ĠH ug
ĠH ull
ĠH ama
ĠH ilberg
Ġst reak
Ġst range
et heless
ver ton
ĠP E
ĠP am
ĠP ra
ĠP red
ĠP ap
ĠP ict
ĠP ick
ĠP erman
ĠP resent
ĠP asc
ĠP icture
ĠP addy
ĠR en
ĠR un
ĠR if
ĠR ound
ĠR aj
ĠR uth
ĠR idge
ĠR ush
ĠR oo
ĠR ule
ĠR NA
ĠR atings
ĠR iga
ul amium
ra ction
ĠF L
ĠF at
ĠF el
ĠF ire
ĠF eat
ĠF reed
ĠF uture
ĠF amic
ĠW ed
ĠW as
ĠW ard
ĠW ool
ĠW eston
ĠW atch
ĠG and
ĠG ong
ĠG iz
ĠG ob
ĠG ene
ĠG ift
ĠG har
ĠG Ã¡l
ĠG DP
Ġal co
em ia
em ployment
th odox
and ering
Ġcon formation
ĠN C
ĠN P
ĠN Z
ĠN ation
ĠN os
ĠN ine
ĠN ub
ĠN ass
ĠN ile
ĠN ix
ĠN ick
ĠN ancy
ĠN othing
ĠN uclear
ĠL or
ĠL am
ĠL ith
ĠL ow
ĠL ess
ĠL angu
ĠL inc
ĠL aws
ĠL inga
Ġan alys
os ures
os ene
ĠD er
ĠD ri
ĠD oc
ĠD ors
ĠD ock
ĠD rag
ĠD oes
ĠD igg
ĠD ennis
ĠD rama
um ph
um ps
um acint
ĠJ ar
ĠJ unkers
Ġhe d
Ġhe red
od ied
Ġse ed
Ġse ism
Ġse arched
pe pt
ri or
ĠE P
ĠE S
ĠE le
ĠE ver
ĠE qu
ĠE nt
ĠE ss
ĠE lection
ĠE rik
ĠO ral
Ġsu nd
Ġsu it
ere nd
oc l
oc co
Ġv ib
Ġv ars
Ġv oyage
Ġv audeville
ĠIn sp
ĠIn herent
op a
op p
op ard
op olitan
ew ater
Ġor al
Ġor chestra
Ġex empt
ant is
ant ing
Ġsh ower
Ġsh aring
Ġsh oe
Ġsh irts
Ġch ain
Ġch ase
Ġch ann
Ġch icks
Ġch ampion
Ġch aos
ong ed
Ġr ivers
Ġr ush
Ġr ushed
Ġr arity
ab ilities
ab oud
art ing
qu et
qu arter
pt ical
se v
se ason
ber y
ud ed
Ġpl aque
ov ed
ĠK o
ĠK er
ĠK are
ĠK ings
ĠK iss
ĠK obe
ame ters
ine a
Ġu h
Ġle ased
Ġle agues
Ġar c
Ġnot iced
ĠSt arting
ĠCh al
ĠCh ak
ĠCh ure
ĠCh anc
ĠCh anging
ĠCh ih
ĠCh ampion
ĠCh ucky
ĠCh uo
cl ave
Ġun w
Ġun ity
Ġun ited
Ġun ions
Ġun used
Ġun aware
Ġun employment
ap uri
ran k
ran ger
ĠV it
ĠV ic
ĠV el
ff man
Ġtw ins
Ġint ent
Ġint act
Ġint ensive
Ġcl ock
Ġab ortion
Ġcont rad
pl ane
pl oitation
Ġbut t
Ġad mits
Ġper pet
Ġper ipher
Ġres on
Ġres ur
Ġres olution
ome ch
ĠHe zboll
Ġen com
ime ter
Ġcomp art
Ġcomp ens
Ġwho ever
act ive
Ġrec ast
Ġrec alls
Ġdis advant
ĠRe ed
ĠRe ports
Ġoff end
Ġoff ense
Ġoff enses
ric e
ric ts
ĠAl min
ĠY an
Ġpart ed
Ġpart ition
Ġpart ner
ach ment
Ġj ets
Ġj imm
Ġshe ar
Ġro t
Ġro oted
Ġim itated
man ship
Ġover th
Ġpre clud
Ġcomm end
Ġsc en
Ġsc atter
Ġout come
ons et
ang led
Ġsp ores
Ġsp ont
Ġsp arked
Ġsp awn
ĠSe x
ĠSe ction
ĠSe ga
ĠSe lective
tern al
Ġne phew
Ġrem ission
Ġatt orney
Ġall ies
ind a
Ġrel ation
Ġrel ate
Ġrel ates
Ġrel iable
Ġrel ocation
ens ed
Ġcons um
Ġcons ervative
Ġ8 3
Ġnew er
Ġev olved
rib e
rib ed
ĠAr g
Ġunder lying
Ġship ped
ĠDe an
ĠDe Paul
Ġchar itable
Ġass isted
Ġass umption
Ġ6 7
Ġme ets
ĠCom ing
ĠCom ics
Ġkn ight
Ġkn ock
Ġprodu ctions
ob i
olog ic
Ġ00 00
Ġinc idence
aw it
aw all
aw atra
Ġfl ot
Ġfl own
Ġco aching
Ġreg ards
Ġend g
Ġair s
Ġair ing
Ġair worthiness
Ġsub sc
Ġinter ch
Ġinter act
Ġinter ven
Ġra vine
Ġret ain
Ġret ard
Ġret ains
Ġret ention
Ġret iring
ĠMar ine
ĠMar io
ĠWhe el
Ġtr ace
Ġtr ivial
ans on
Ġform ations
ick ing
Ġcol oured
ĠSh l
ĠSh ow
ĠSh oot
Ġpo pe
ĠShe n
ĠJo h
ĠLe ices
ĠLe ading
Ġacc idents
ific ate
Ġinv ention
Ġinv aded
ĠAt um
Ġbl ues
Ġmon othe
ĠWh y
Ġtra il
Ġtra ins
Ġtra ged
ĠBl u
Ġdef ining
Ġdef eats
Ġdef ault
Ġdef enses
Ġ12 5
Ġop ium
Ġdec ree
Ġdec oration
Ġtrans p
Ġtrans iting
ĠInd ex
ĠInd eed
Ġ10 4
Ġ10 8
Ġ10 9
Ġperform s
Ġmet re
Ġmet ric
Ġmet als
Ġmet eorological
Ġpres ervation
Ġpres erving
ĠJohn ny
Ġcre x
Ġappe als
Ġappe aled
Ġem pt
Ġem bar
ĠCon vers
Ġinst ructed
Ġfound ers
Ġgovern ed
Ġstud ios
ĠMan ager
Ġoper ative
velop ed
Ġdesc ent
Ġdisc ern
Ġdisc arded
ĠIs aac
Ġbro od
Ġwar rant
ann e
ann on
ann es
Ġcount ing
Ġprov en
Ġprov oke
Ġadd ressed
Ġadd resses
Ġsign als
Ġimp erson
ĠAd van
Ġep it
Ġep ox
Ġcar ri
Ġcar ries
ĠMe V
Ġany body
Ġdam ages
Ġdep ress
Ġdep ressed
Ġdep leted
Ġmill ions
Ġdist inction
Ġdist ricts
ĠCan cer
ĠAll enton
ĠAll Music
ep s
Ġinf ring
Ġinf ection
Ġdest ruct
Ġfe as
Ġfe ared
Ġfe eding
Ġ17 3
Ġmin isters
Ġ0 4
Ġ0 8
Ġgr ating
Ġgr ants
ĠGe opy
Ġgun nery
ĠPro per
Ġ13 5
Ġ13 8
Ġline ar
Ġline up
Ġ11 5
Ġadv ocate
Ġhum or
Ġhum our
Ġhum ane
ĠAnd re
Ġdiv ing
Ġdiv orced
Ġdiv inities
Ġmar ry
Ġmar ched
pr ise
ven ge
Ġins pe
Ġins cription
Ġ15 8
Ġprom ul
Ġprom yeloc
Ġbuild ers
Ġext ract
Ġext ingu
Ġpublic ity
Ġiss uing
Ġrest ed
Ġgu ards
Ġgu arant
ĠFran z
ĠFran ces
enn ial
enn ium
ĠAust rian
ah an
ĠNorth umber
Ġstr at
Ġref res
Ġref erend
Ġexpl ore
Ġexpl orer
Ġche ek
Ġche ese
Ġbr idges
ĠOr ion
ĠOr well
ĠOr leans
Ġport ions
Ġport rays
ĠUS GS
Ġfin anced
Ġmod est
Ġed ible
Ġed itions
Ġed iting
Ġdem anded
ĠAugust us
ĠAugust ine
ĠPol es
Ġmed als
Ġcap abilities
Ġhand ful
ĠMon ster
ĠMon crie
ĠNic ol
ĠNic aragua
ĠNov a
Ġworld ly
ĠCol omb
Ġ30 5
ĠPl anning
Ġprog ressive
Ġstar ter
Ġpubl ish
ĠBr ig
ĠBr ight
omet ry
osp el
Ġcapt ures
Ġcapt ives
Ġcapt ivity
iqu erias
Ġbre ast
Ġbre ach
Ġposs essions
Ġposs ibilities
yl on
Ġcult iv
ĠCount ies
ĠGu y
ĠGu inea
Ġarr ay
Ġreal istic
Ġpur ple
Ġmy st
Ġplan ets
ĠWe ird
ĠWe bb
ĠEx p
Ġequ ated
Ġel dest
Ġpresent ing
ĠTw ain
ĠCar r
ĠCar ver
ĠReg ional
Ġwin ters
Ġcomb ine
Ġdirect ing
Ġsold ier
Ġfun eral
Ġbar racks
Ġprop oses
app ed
Ġpress ed
Ġpress ures
Ġkill s
Ġgl ac
Ġgener a
Ġcame os
ĠDes crib
ĠSte vens
Ġsol ar
Ġsol ved
Ġsol ving
Ġvarious ly
ĠPort land
Ġsuggest ion
Ġtro op
Ġput s
Ġactiv ist
ox onium
ring ton
Ġpost c
Ġpost war
Ġchart ing
ĠIm age
Ġdecl aration
Ġ14 9
iet ies
ĠMin erva
ĠHar rel
Ġ21 5
ĠAct ing
Ġer oded
Ġer upt
Ġcert ification
Ġpar as
Ġpar ad
Ġpar ody
Ġpar achute
Ġpar ameters
ĠGA SA
com p
Ġobs ervation
Ġz oos
Ġmag ical
ĠBill s
Ġ28 0
Ġcy cle
Ġviol ate
ĠEd mund
Ġsurv ival
sh ine
Ġnever theless
ĠMed al
Ġaccept s
Ġaccept ance
Ġident ical
Ġrev ived
Ġexcav ate
Ġcru el
Ġarg ument
Ġcor ps
Ġsex ually
Ġ40 2
Ġdepict ions
Ġrespons ibilities
Ġ189 6
Ġdr unk
Ġgrow s
Ġplann ers
Ġtradition ally
ple te
ĠCor iol
ĠCra ig
Ġtru ly
Ġhar v
Ġ22 0
Ġpeak s
Ġsw orn
ĠMor occo
ĠBar ack
Ġindivid ually
Ġinvest ment
Ġsuper f
Ġ187 1
Ġ188 3
Ġ188 4
Ġ188 5
Ġ188 8
Ġtransport ed
Ġbroad ly
Ġbusiness man
ĠCo al
ĠFl oyd
Ġengine ered
ĠQue bec
Ġdon or
Ġ190 6
Ġ190 7
Ġprocess ions
Ġfav ored
Ġmiss ed
ĠRes pect
Ġ31 4
Ġemploy ee
Ġpot ato
Ġpot tery
Ġvill agers
Ġcra zy
Ġthreat en
Ġpract ical
Ġlack ed
Ġlack ing
Ġoccur s
Ġoccup ies
Ġaer ob
Ġsail s
Ġsail or
Ġfree ze
Ġmust er
ĠPres ervation
Ġsil ence
Ġpra ising
ĠEl bridge
ĠRob e
Ġelect ro
Ġimpro ving
Ġhost ilities
ĠInf inity
Ġaccording ly
cast ing
Ġcal m
Ġpred iction
Ġpred icted
Ġred es
ett a
ĠGl enn
ĠGl iders
ĠGold berg
ĠGold hagen
Ġspecific ations
Ġprior ities
ĠSan ford
Ġeduc ated
Ġens uing
Ġsubject ed
Ġhapp ens
ĠTer i
ĠTer ry
Ġmean while
ĠQu onset
Ġmach ismo
Ġstaff ed
ĠPer haps
Ġconclud ing
Ġadop ting
ĠAb ove
ĠNaz is
ĠDel hi
ĠDef ensive
Ġinvestig ating
Ġri ff
ont ium
Ġsat ire
Ġtravel ing
Ġachie vement
Ġliter al
ĠBet ter
Ġimm un
Ġimm ature
Ġphot ographer
ĠSun Pass
ĠSun shine
ĠNot ting
Ġrh ymes
Ġ185 6
Ġtarget ed
Ġtarget ing
Ġslow er
Ġslow ed
ĠStorm s
Ġblock ing
ĠPennsylvan ian
Ġmor ph
oph one
Ġflo ors
Ġpoly pept
Ġphys ics
Ġill um
Ġball istic
ĠBu nder
ĠWood land
olec ules
Ġbatter ed
Ġreact ors
ĠCast anea
Ġunc le
Ġunc over
ĠVal ent
Ġ184 4
Ġsyn onymous
Ġmatch ing
Ġreason able
ĠMer c
ĠGroup s
ĠLa verton
Ġvers es
Ġemb ark
Ġemb roiled
ĠAndrew s
Ġcounter parts
Ġaut umn
Ġaut obi
ĠCons ul
ĠTom my
Ġstop ping
Ġcontract s
Ġcontract ing
Ġscreen writer
Ġrail way
Ġ90 9
Ġdiscuss ions
Ġlegisl ative
ĠSy rian
ĠSy nthesis
Ġgra ves
ĠPre ston
ĠPre historic
ĠFin land
ĠFin als
ĠLew iston
ĠDan a
ĠStra it
Ġunl ocked
ĠVar iety
Ġresc ues
Ġresc uers
Ġdocument ed
ĠTurn pike
Ġcompl ained
Ġund et
Ġcasual ty
nest y
ĠCong o
ĠRad ha
Ġpolic ing
Ġconstit ute
Ġquestion ing
Ġlength y
Ġinj ust
rog s
rog ate
ĠSal adin
ĠCrit ics
ĠCrit icism
ĠWork ers
ĠArk adelphia
ĠConf essions
Ġexperi encing
Ġsal oon
Ġmolec ule
Ġaltern ating
Ġadmin istered
Ġconsider ably
Ġconcent rations
Ġlif etime
ĠDem on
ĠDem ographics
Ġjud icial
ĠProte ction
Ġconflict s
ĠPet e
ĠPet ro
ĠFour th
Ġneigh b
Ġsulf ur
Ġsulf oxonium
ĠHung ary
Ġstrugg ling
ĠFernand o
Ġmic ro
Ġmic roscopic
Ġdro pping
ĠSer b
ĠSer ious
ĠSpe aker
ĠRam gar
ĠRam anagara
osa ic
Ġwithdra wing
Ġcust omer
Ġbott les
ĠTra il
ĠTra jan
ĠCorn ish
Ġshare hold
Ġmem ories
ĠNH A
ĠOx fam
Ġindic ating
Ġrequire ment
Ġcollect ively
Ġmaster y
ĠTim bal
ĠSum mary
ĠHow son
ĠWil hel
ĠDen ardo
ĠJac mel
ĠChap el
Ġresemb ling
Ġ183 3
ĠGame S
clus ive
Ġprec ious
Ġexplos ions
Ġexplos ives
Ġsurviv or
Ġtalk s
Ġworship ped
Ġmis rep
ĠSand ler
ĠFer ry
Ġkey boards
rid ges
Ġess entially
ĠSen ator
ĠSen ators
Ġorb ital
Ġorb iting
Ġmanufact uring
Ġencoun ters
Ġhonor ary
Ġsole mn
Ġfolk tale
Ġpen et
Ġmort al
ĠBen oÃ
ĠRel ations
ĠJul ie
Ġheight ened
Ġmonit ored
Ġdepth s
ĠFeel ing
Ġmyel obl
Ġglob ular
ĠSuper WASP
Ġwalk s
Ġsubstant ially
ĠIndepend ence
Ġpark s
Ġda wn
ĠPop ular
Ġalt ogether
ĠLaw son
ĠDyn am
Ġspect rum
Ġ97 8
Ġsand wich
Ġsort ie
Ġcart ridges
Ġben ch
Ġpet ition
ĠMov ement
ĠPass ing
Ġconsequ ences
Ġconsequ ently
Ġemot ions
Ġpredecess ors
Ġid le
Ġfat igue
Ġpros per
Ġpros pect
Ġpros pects
Ġcontrib ute
Ġprefer ring
Ġsubs istence
Ġhighl ight
Ġtiss ues
Ġtherap ist
Ġmel ody
Ġmint s
Ġgreen ish
ĠWalk ing
ĠOl iver
Ġyl ides
Ġdisappe ar
Ġrob ots
Ġconsult ed
Ġprint ing
Ġdefin ition
Ġdefin itive
Ġexpress way
Ġpatrol s
Ġpit cher
Ġthr iller
ĠMot own
ĠBron ze
ĠRÃ© public
ĠJos Ã©
ĠJenn a
rif ied
ĠVer ulamium
Ġrecre ation
Ġrow ed
Ġspons ored
Ġflank ed
Ġsurpr ising
Ġinstall ations
ĠPolit ical
ĠPolit iquerias
Ġexperiment al
Ġelimin ated
Ġpropos als
Ġaffect s
Ġdoub led
ĠDemocr ats
ĠDemocr acy
Ġori ent
Ġdog s
Ġalleg iance
ĠNiel ly
Ġvic ious
Ġadvert ising
ĠMarg at
Ġsoft ware
Ġextens ion
Ġrebu ild
ĠBosn ian
ĠBosn ia
Ġwithdraw al
Ġwitness ed
ĠCub a
Ġlit re
ĠBi ography
ĠBi omech
ĠBrand on
ĠFall on
Ġsubst ance
ĠProv ision
Ġexplo its
Ġstead y
Ġsuperv ision
Ġautom atic
Ġautom atically
Ġneighbor ing
Ġculmin ating
Ġur ged
Ġbrand ed
ĠCam den
ĠHit ler
ĠHind man
Ġru in
Ġru ined
ĠAlong side
Ġimpl ied
ĠUnivers al
Ġsche me
Ġremember ing
Ġqual ified
Ġmaint ains
Ġinvent or
Ġdecre asing
Ġdevast ated
Ġabsol utely
Ġcytogen etic
ĠReturn ing
hy d
Ġske let
Ġfur ious
Ġtourn aments
ĠSelen ite
Ġlov ing
Ġforb ids
ĠFear less
ĠLyn n
ĠEst aÃ±ol
ĠUs umacint
Ġlegend ary
Ġamid st
Ġsupposed ly
ĠMcC arthy
ĠQueens berry
Ġcalc ulated
Ġtun ing
Ġtun nel
Ġtut elage
ĠColl abor
Ġnob le
ĠBat eman
ĠPC I
ĠRon ald
ĠRap hael
Ġalter ations
ĠDisc overy
ĠKar aboud
Ġlect ures
Ġker b
Ġker osene
Ġabol ition
Ġabol ished
Ġcompar able
Ġcommemor ated
Ġspot ted
Ġincom plete
Ġobst acles
Ġ176 9
ĠAmend ments
ĠSwed en
ĠGabri el
Ġathlet es
Ġathlet ic
Ġwel come
Ġinte gr
Ġpier cing
Ġtouch ing
Ġmun itions
Ġrender ing
ĠCel ia
ĠClear mount
Ġnav ies
ĠMand atory
ĠBann er
ĠBann awit
ĠHop kins
ĠFact or
Ġconj ug
Ġproport ion
ĠElect ronic
Ġcomed ies
Ġexact ly
Ġram med
Ġarrang ements
Ġdisag reed
Ġflint lock
Ġcooper ate
Ġdoctor al
Ġrepet itive
Ġannoy ed
Ġannoy ing
ĠBrad ford
ĠPhys ic
Ġfasc inated
Ġbes ie
Ġinfer ior
Ġpump ing
Ġancest ors
Ġatmosp here
Ġatmosp heric
ĠDet roit
Ġvent ure
ĠHend ford
ĠRecon struction
ĠAlb ion
Ġmanifest ations
Ġscra pping
ĠZion ist
Ġpoll ution
Ġantiqu arian
Ġhyp othes
ĠRecord ings
Ġtypeset ting
Ġnegot iations
Ġfatal ities
RI A
bro ok
oir s
rin os
Ġfant asy
Ġmand atory
Ġdish on
Ġhorn s
Ġhaz ard
ĠAut umn
imet res
ĠHel ga
ĠNet work
Ġsect arian
Ġvault ed
Ġclim ax
Ġmaneu ver
Ġmaneu vers
Ġfilmm aker
Ġendang er
Ġtraw ler
Ġinfl amm
Ġfunn els
Ġfunn iest
Ġabandon ing
Ġmobil ised
ĠRelig ion
ĠRelig ious
Ġwa ist
Ġinaug ural
ĠSic ilian
ĠMemb ers
ĠBou levard
ĠBeat tie
ĠBah rain
ĠLog an
Ġproced ure
ĠOz ploitation
Ġvener ation
ĠIns urance
Ġshield ing
ĠVen us
Ġcontr ary
Ġrelie ved
ĠShin awatra
ĠIndust ries
Ġdescript ions
Ġantic ip
ĠScreen play
ĠEngine ers
Ġexplicit ly
Ġbrut al
Ġdeton ated
Ġdeliber ately
Ġcasem ate
Ġdeterior ated
ĠAgricult ural
Ġninet een
ĠAppro ximately
Ġsucceed ing
Ġcartoon ist
Ġpetro chemical
Ġsubsid iary
Ġcongreg ation
Ġpharaoh s
ĠMcDon ough
Ġdimens ional
ĠSquad rons
ĠBun bury
ĠRud olph
ĠFil kins
ĠFem ale
ĠGang anelli
Ġconven ient
ĠNon etheless
ĠEconom y
Ġvir us
Ġkid napp
Ġwheel chair
Ġdisemb ark
Ġaftersh ocks
Ġcoordin ated
Ġelector al
ĠAdapt ations
ĠWeb ster
ĠExper iment
Ġposthum ously
Ġcorpor ate
Ġsacrific es
Ġhieroglyph ic
Ġfirm ly
ĠSudan ese
intend ent
Ġcere al
ĠTrou bles
ĠSchol ars
ĠIg ual
ĠLem on
Ġprosec ution
ĠKau ffman
ĠKee per
Ġabund ant
Ġconting ent
Ġdisgu ised
Ġtelecom mun
Ġupr iver
Ġpopul ace
Ġsla very
Ġavo ided
ĠGuatem ala
ĠTwent y
Ġencycl ical
ĠBarbar a
Ġsuperst ructure
ĠSurv ival
Ġdegener ated
ĠAstron omical
Ġnucleot ide
Ġcovet ousness
Ġjealous y
Ġsurn ame
Ġsob ri
Ġsemic irc
Ġcir cles
Ġcyl inder
Ġpor ch
Ġtox ic
Ġdorm it
Ġgle ba
igaret tes
ĠWit u
ĠGri ff
ĠGord on
Ġalg ae
Ġalk yl
ĠNum erous
ĠDig ital
ochem istry
Ġorchest ral
Ġexempl ified
Ġplut onium
Ġrecapt ured
ĠSeg ontium
ĠBritt any
ĠShir ley
Ġepid emic
Ġglaz ed
ĠPorts mouth
ĠEmb assy
ĠArchitect ure
Ġencourag ing
ĠBobc ats
ĠBhopal i
Ġenlar ged
ĠLevi athan
Ġtap ered
Ġwis dom
Ġwelf are
atisf ied
Ġcors age
Ġcros so
Ġbert hed
Ġdys function
ĠTud or
ĠTrian a
ĠAther stone
ĠCess na
ĠCrows nest
Ġecho ed
adsen i
ĠICA O
ĠIcel and
ĠMaid an
ĠMbar uk
ĠBish ops
ĠBanc roft
ĠPerman ent
ĠFamic om
ĠGob recht
ĠGhar apuri
ĠGÃ¡l vez
ĠNass au
ĠLinc oln
ĠDors et
ĠDrag on
Ġseism ic
Ġvars ity
ĠInsp ired
quarter ed
ĠChanc ellor
ĠHezboll ah
Ġoffend ers
ĠAlmin a
Ġjimm adseni
Ġspont ane
Ġspawn ed
Ġtraged y
Ġembar rass
ĠAdvan ced
ĠGeopy xis
Ġpromyeloc ytic
ĠNorthumber land
ĠMoncrie ff
ĠDescrib ing
ĠGASA R
ĠRamgar h
Ġsharehold er
ĠTimbal and
ĠBenoÃ ®t
Ġmyelobl ast
ĠRÃ©public ain
ĠUsumacint a
ĠKaraboud jan
ĠClearmount ain
1 6
1 82
2 8
8 4
C l
D OT
E D
I M
L P
M L
N U
R O
S TA
U C
U J
W A
W II
a an
b el
b oy
b one
b ied
b ird
b ably
b ishop
c or
c av
c ill
c ity
c ke
c aster
c hen
c sen
c osing
c apes
c roft
c rake
d y
d ed
d ie
d ress
d ale
d ec
d ler
e o
e nder
e ctions
f is
f olk
g s
g ra
g ant
g ong
g ue
g ence
g one
g uns
h att
h ale
h ift
h aka
i j
j ou
j ib
j iao
j amin
k ward
k ind
k irts
k top
l ar
l age
l ance
l orn
l ides
l iest
m ac
m ill
m ined
m ont
m aine
n o
n ite
n ings
n ette
n acular
p m
p y
p in
p op
p se
p ose
p ices
p enny
p iece
q i
r il
r ings
r ina
r acy
s ki
t le
t ole
t rolled
u h
u ine
u ah
u ably
v a
v y
v ag
v ia
v ara
v ada
w art
w ess
x us
x ford
y ers
Ġ ions
Ġt in
Ġt ie
Ġt ile
Ġt amp
Ġt ired
Ġt empt
Ġt aped
Ġt ennis
Ġt ears
he tt
Ġa f
Ġa is
Ġa us
Ġa ids
Ġa xis
in h
in qu
in form
in ating
in ster
in burgh
Ġthe oretical
er k
er on
er le
er ies
er lik
on ographic
re k
re ation
re ced
Ġs aint
Ġs lee
Ġs ighted
Ġs afer
ed ale
ed ience
Ġo ar
Ġo st
Ġo ce
Ġo val
Ġo mn
Ġw ake
Ġw itt
Ġw ages
Ġw oo
Ġw ounds
Ġw reath
Ġw onder
nd om
at z
at op
at ography
at osaurus
it ter
it ure
it oba
or ado
Ġc is
Ġc el
Ġc able
Ġc ob
Ġc ull
Ġc ement
Ġc itation
Ġc ode
en ary
en itor
is en
is ons
is emitic
es c
es y
es ville
Ġf art
Ġf ib
Ġf ram
Ġf used
Ġf ract
Ġf ries
Ġf ores
Ġf ont
Ġf isher
Ġf ooth
ar at
ar ab
ar ial
ar ry
ar ians
ar bon
Ġb on
Ġb ou
Ġb rit
Ġb out
Ġb read
Ġb apt
Ġb oring
Ġb orders
Ġb unkers
an ed
an as
an ay
an ch
an ia
an ey
an chol
an alysis
Ġin her
Ġin ade
Ġin ability
Ġin ex
Ġin sec
Ġin herent
Ġin acc
Ġp av
Ġp ens
Ġp ron
Ġp eat
Ġp ix
Ġp ole
Ġp enn
Ġp atch
Ġp estic
Ġp onies
Ġp irate
Ġp pg
ing le
ing les
as i
as par
Ġto ol
Ġto ile
ic he
ic orn
ic ane
ic ensed
ro sion
Ġm ud
Ġm att
Ġm ole
Ġm aid
Ġm ural
Ġm ouse
Ġm elt
Ġm asc
Ġm owing
Ġm osaic
Ġd w
Ġd ive
Ġd air
Ġd ense
Ġd resses
Ġd ying
Ġd igging
Ġd iamond
Ġh ub
Ġh ood
Ġh int
Ġh ides
ion ers
le w
le en
le um
le ys
ou bted
ĠT el
ĠT ol
ĠT ag
ĠT art
ĠT ale
ĠT oll
ĠT anz
ĠT ito
ĠT empl
ĠT GS
ĠT ertiary
ĠT engu
ĠT oky
Ġre e
Ġre lying
Ġre jection
Ġre analysis
ent less
il i
il ant
il ations
il iary
ĠA U
ĠA e
ĠA ur
ĠA th
ĠA ld
ĠA ff
ĠA ime
ĠA ble
ĠA be
ĠA ware
ĠA ynes
ĠA RIA
Ġth irteen
ĠS K
ĠS O
ĠS S
ĠS n
ĠS ent
ĠS ant
ĠS out
ĠS int
ĠS aid
ĠS au
ĠS ah
ĠS iber
ĠS anta
ĠS acks
el ius
ĠC ed
ĠC ly
ĠC ow
ĠC all
ĠC ens
ĠC att
ĠC ret
ĠC hen
ĠC iting
ĠC ald
ĠC ze
ĠC avalry
ĠC rescent
ĠC ele
st ation
st own
Ġl ad
Ġl od
Ġl ake
Ġl ush
Ġl ocks
Ġl ieutenant
Ġl onel
om a
om on
Ġe ating
Ġe urop
ct ic
Ġn ur
Ġn ests
Ġn aming
Ġn aked
un ted
un ami
ad er
ad ition
ad ito
Ġwas te
ĠThe oretical
am as
am ous
ol m
ol ar
ol ent
ol ism
ol ves
ĠI M
ĠI van
ĠI AT
ĠI LP
Ġbe ard
Ġbe ast
Ġbe aches
ur ated
ur able
ĠM k
ĠM ul
ĠM ater
ĠM ace
ĠM we
ĠM uc
ĠM yc
ĠM ental
ĠM ama
ĠM allow
ĠM eath
ĠM aine
ĠM asters
ĠM DS
ĠM antis
ĠB M
ĠB eng
ĠB ells
ĠB achelor
ĠB IOS
Ġg el
Ġg ut
Ġg est
Ġg ran
Ġg ains
Ġg antry
Ġg arden
id an
id as
id ia
im oto
ac rit
ac ious
Ġas ce
ir i
ir med
ig el
ig ers
ig ong
ot us
ot ang
ter ior
ĠH M
ĠH es
ĠH us
ĠH et
ĠH ous
ĠH ence
ĠH ix
ĠH att
ĠH ann
ĠH ague
ĠH ai
ĠH off
ĠH urt
ĠH iber
ĠH ands
ĠH abit
ĠH usband
ĠH ema
ĠH elen
ĠH ouses
ĠH IV
ĠH ube
ow ed
Ġst amp
Ġst ored
Ġst ranger
ut ational
us ive
ay ed
et ary
ver sion
Ġis n
ĠP in
ĠP el
ĠP un
ĠP ir
ĠP all
ĠP iz
ĠP are
ĠP ars
ĠP rop
ĠP ract
ĠP ao
ĠP orter
ĠP FA
ĠP rice
ĠP tole
ĠR ol
ĠR iv
ĠR ak
ĠR ab
ĠR out
ĠR ose
ĠR aw
ĠR ather
ĠR ange
ĠR ights
ĠR aven
ĠR ules
ĠR uther
ch ing
ch ild
ch men
ch anged
ch amps
ch inda
ul in
ul um
ul ment
ul ative
ul sion
ra id
ra ham
ĠF ac
ĠF ine
ĠF ru
ĠF ost
ĠF og
ĠF ace
ĠF ighting
ĠF itz
ĠF let
ĠW el
ĠW ol
ĠW ag
ĠW ilm
ĠW ake
ĠW als
ĠW ister
ĠW ords
ĠW ither
ĠW iley
ĠW orces
ĠW WII
ĠG S
ĠG ian
ĠG ener
ĠG ale
ĠG uth
ĠG aul
ĠG iant
ĠG aiman
ĠG lee
ĠG aza
ĠG host
ĠG wen
ĠG entle
ĠG alloway
ĠG ospel
Ġal ly
Ġal ive
Ġal ert
Ġal ike
Ġal igned
em e
th ren
and e
and ro
Ġcon ical
Ġcon gest
Ġcon ceived
Ġcon clave
ĠN O
ĠN er
ĠN ing
ĠN ort
ĠN ell
ĠN ene
ĠN ik
ĠN umb
ĠN ipp
ĠN umber
ĠN UJ
ĠN igel
ĠL P
ĠL at
ĠL ie
ĠL ib
ĠL ars
ĠL iving
ĠL aur
ĠL ope
ĠL ocated
ĠL isa
ĠL otus
Ġan onymous
est e
Ġat oms
os ome
os ph
os hi
ĠD I
ĠD a
ĠD od
ĠD ere
ĠD og
ĠD ub
ĠD ie
ĠD ade
ĠD raft
ĠD und
ĠD rum
ĠD Ã¡
ĠD ancing
ĠD oyle
ĠD inosaur
ĠJ ur
ĠJ ag
ĠJ ab
ĠJ ie
ĠJ ump
ĠJ ama
ĠJ elly
ĠJ AR
ĠJ orge
Ġhe ated
Ġhe ating
Ġhe ars
Ġhe ights
ist ical
av ail
Ġde an
Ġde gr
od ing
od us
Ġpro ton
Ġpro wess
ain able
pe ak
ri arch
ĠE c
ĠE h
ĠE ole
ĠE wing
ĠE ye
ĠE MI
ort ed
ort al
ill ips
ĠO H
ĠO wn
ĠO wen
ĠO ribe
ĠO cosing
ĠO erlik
oc he
oc olate
ĠIn st
ĠIn af
op olis
Ġor acles
Ġex pended
Ġex ported
ak ings
gh anist
Ġsh ame
Ġsh ops
Ġsh ores
Ġsh ocked
Ġsh adow
Ġch i
Ġch ron
Ġch anc
Ġch ases
Ġch lor
Ġch ivo
Ġch ocolate
ong s
Ġr ational
Ġr amp
Ġr ites
Ġr igging
ab et
ab ited
art i
qu ate
qu Ã©
qu iry
ard i
ip ort
ip ment
ess el
Ġpl astic
Ġpl aza
Ġpl aus
Ġpl asma
ĠU se
ĠU CI
ast ically
rit e
rit ion
red ients
te nder
ĠK i
ĠK w
ĠK an
ĠK el
ĠK ron
ĠK ins
ĠK aspar
ack ed
ell ent
ell ery
our ce
ary otes
Ġu pt
Ġle nd
Ġle ts
Ġle af
Ġle nding
ish vara
Ġar ising
Ġar ches
Ġar ises
Ġar range
Ġar rows
Ġk in
Ġk rek
nt ire
ru st
ear ing
Ġnot or
Ġnot ion
ĠSt ur
ĠSt av
ĠSt ars
ĠSt aling
ĠSt reets
ĠSt alin
ĠSt upa
ĠCh uck
ĠCh amber
ction ed
ous s
cl ine
cl amation
Ġun e
Ġun le
Ġun anim
Ġun changed
Ġun avail
og rams
og enesis
Ġy d
Ġy uan
so lete
cc oli
ĠV I
ĠV iew
ĠV iet
ff ield
ff ee
Ġtw elf
ie g
ie k
ie v
ie ve
Ġint ros
ign ated
Ġcl over
Ġcl aret
Ġcl uster
Ġab bre
Ġcont am
Ġcont ents
Ġcont empor
ass ium
pl ing
ater n
ater al
Ġad m
Ġad orn
Ġad miral
Ġad mit
Ġper mit
ok an
Ġres h
Ġres ort
Ġres ident
Ġres urrection
Ġres olve
ect ic
Ġen anti
Ġen roll
Ġen rolled
Ġus ur
Ġcomp ound
Ġcomp uting
Ġcomp uls
Ġcomp utational
ĠTh ous
Ġrec ycl
Ġdis g
Ġdis ob
Ġdis hes
ĠRe ich
ĠRe cent
ĠRe leased
ric ia
ĠAl ice
ĠAl one
ĠAl cock
Ġdes ired
ib alism
ĠY s
ĠY ong
ĠY ard
ĠY ank
ĠY ves
Ġte nder
Ġte legraph
ach a
Ġman sion
Ġman kind
Ġj ung
Ġj ackets
Ġj umps
Ġshe ep
ile e
Ġro ot
Ġro ws
Ġro wing
Ġro tation
Ġro ds
Ġim am
Ġpre y
ĠUn icorn
Ġyear ly
Ġup ward
Ġup right
Ġup coming
Ġup beat
Ġup dated
old s
Ġsc aff
Ġsc aled
Ġsc rapped
Ġsc iences
ang er
ang el
Ġsp ark
ph is
ph abet
ĠSe ym
ĠSe xual
ace ous
ose vel
Ġne o
Ġrem it
Ġrem inds
ft s
Ġrel ies
Ġrel apsed
Ġrel uct
ren ched
ens ion
ens ives
Ġcons cription
Ġcons umption
ĠZ e
ve e
ĠOn line
ĠAr cher
att led
Ġunder going
Ġunder cover
Ġunder gone
Ġship yard
ĠDe b
ĠDe ad
ĠDe ep
Ġchar m
Ġchar ities
Ġchar co
Ġbo ot
Ġcan opy
Ġass ets
Ġass ume
Ġass essed
ĠCom et
orth y
Ġpe c
Ġpe er
Ġpe ach
Ġpe nding
oth ic
Ġcent ered
Ġcent imetres
Ġnum ism
ob al
ob il
Ġspec ially
Ġwe b
orn e
orn s
Ġinc on
Ġinc umb
Ġinc arcer
Ġbu ying
Ġfl aw
ath y
Ġco il
Ġco ok
Ġco herent
Ġco ffee
Ġreg ulations
Ġam nesty
Ġsub gen
Ġinter rog
Ġra ndom
Ġret aining
Ġret reated
ĠMar s
ĠMar qu
ĠMar ines
Ġtr unk
Ġtr aces
Ġtr igger
Ġqu ad
Ġqu ir
Ġqu otes
ĠNew castle
ĠNew found
Ġapp rent
Ġapp lies
Ġfollow ers
Ġver tically
Ġver nacular
ert ing
Ġcol i
Ġcol on
ĠSh ore
ĠSh ade
ĠSh rin
ĠSh annon
ĠShe l
ĠJo int
az on
Ġca red
Ġfour teenth
Ġsur rogate
Ġrele vant
ĠLe vin
ĠLe Ã³n
ĠLe avis
ĠLe inster
Ġsever ed
Ġacc ur
Ġacc um
Ġacc eler
ific ent
Ġpol ar
Ġsy nt
ug s
ug ged
Ġinv ented
Ġinv ading
Ġpop ulated
Ġent ers
Ġent renched
Ġloc als
ĠAs us
Ġele gant
Ġbl ur
Ġbl ast
Ġbl ame
Ġbl essing
Ġmon osp
Ġmon ik
aj uk
Ġtra um
Ġtra itor
Ġpr one
ĠBl az
Ġdef ines
Ġrep orters
Ġrep rint
Ġ12 3
Ġ12 9
Ġ12 50
Ġdec omp
Ġtrans its
Ġtrans mitted
Ġtrans cend
ism al
ĠInd us
ĠInd ians
ĠInd ones
Ġsing led
Ġ10 7
Ġno on
Ġsecond ed
Ġmet hyl
Ġcre am
Ġcre ations
ful l
Ġem ble
Ġem itted
Ġem pire
ĠCon sequently
Ġlong time
Ġob ey
Ġob solete
ĠMay or
Ġinst ruction
Ġinst ability
Ġfound ations
ĠMan n
ĠMan or
ĠMan hatt
ĠMan itoba
vent h
Ġcrit ically
Ġcrit iqu
ĠCl ay
Ġcount less
Ġbel oved
up le
Ġimp ot
Ġimp ract
Ġimp osition
ĠAd rian
Ġep igen
Ġexp elled
Ġexp anding
Ġcar ing
ĠMe gam
Ġany where
Ġown s
Ġcharacter istic
ĠCan ary
Ġback st
ĠWar rior
Ġcommand o
Ġinf lict
Ġdest it
Ġ17 1
Ġdevelop ments
Ġmin ig
Ġmin ers
Ġmin eral
Ġ0 2
Ġgovernment al
Ġgr atitude
Ġdesign ation
Ġteam mates
Ġgun fire
Ġgun boat
ĠPro bably
Ġsl ab
Ġsl abs
Ġ13 7
Ġ13 9
Ġann ot
ĠFe eding
Ġeng raver
Ġ11 3
Ġ11 6
Ġant im
Ġant isemitic
ĠJan esville
Ġclass ify
Ġclass ifies
Ġclass mate
Ġsmall est
ĠAnd haka
ĠBe ver
ĠBe ck
Ġresult ant
Ġph osph
Ġmar g
Ġmar gin
Ġhel iport
ook ed
Ġins isting
Ġins urance
Ġ15 3
Ġ15 4
Ġ15 5
uro s
Ġprom ises
Ġprom inently
ĠBro ccoli
Ġrest ruct
Ġgu ise
Ġgu ided
enn e
ĠAust in
ĠNorth west
Ġdown ed
Ġdown ward
Ġref usal
Ġexpl aining
Ġocc ult
Ġbr ush
Ġbr illiant
Ġbr acket
ĠOr son
ĠOr thodox
ĠOr nette
ĠEurope ans
Ġport al
ĠUS D
Ġrun off
Ġhead quartered
Ġschool ing
Ġ16 4
Ġ16 7
Ġlike able
Ġdem anding
Ġdem ands
ĠTe en
ĠTe hran
ĠPol a
ĠPol y
Ġrequ iring
abl ing
ret ion
Ġcap it
Ġcap ability
Ġcap itals
Ġcap ita
Ġbas al
Ġbas ically
ĠPe uple
ĠCol leg
ĠCol orado
Ġorgan ism
Ġorgan ising
Ġsouth bound
Ġsouth western
Ġallow ance
Ġshort s
Ġshort com
ĠPl att
ĠPl iny
Ġprog ressed
Ġprog enitor
Ġcolle ges
Ġold s
ĠBr id
ĠBr idges
ĠBr illiant
ĠHer bert
ĠRoman esque
Ġhuman ity
Ġhuman ities
Ġdra ught
Ġdra gon
Ġhal ogen
Ġprof itable
ograph ies
Ġappro aches
omb s
ĠZh ang
Ġpoint ing
Ġturn pike
Ġtop ic
Ġmake up
Ġstorm s
Ġposs ess
Ġposs essed
Ġweek ly
Ġwater line
Ġwater front
ik es
Ġaddition ally
ĠHis pan
ĠCount ry
Ġcover age
Ġdifferent iated
ĠGu est
ĠGu itar
ĠGu iry
ĠCent ury
Ġpur ification
Ġmy cologist
uss ian
pend ing
min ation
ĠWe ekend
ĠWe aver
ĠWe xford
Ġproject ed
ĠEx am
ĠEx cav
ĠEx hale
ĠEx odus
Ġcommun ion
Ġcommun icated
Ġcommun icate
Ġdet ained
Ġequ ality
ĠDiv ine
Ġleg ality
Ġbest s
ĠPh onographic
ĠPh illips
ĠAcc eler
ĠCar roll
ĠChurch ill
ĠReg ion
uk h
uk y
Ġcomb ines
Ġbar b
Ġbar ge
Ġprop eller
Ġtyp ing
app ing
Ġtri ps
Ġcritic ising
Ġcritic isms
Ġfar ce
Ġfar mer
Ġfar med
ĠNo ises
Ġlow ered
ĠNe al
ĠNe xt
ĠNe vada
Ġcur ric
Ġband mates
Ġgl am
Ġgener ations
Ġgener ating
ĠRepublic ans
ĠAccording ly
Ġlim b
Ġste ering
ĠDes champs
ĠSte ven
Ġsol ic
Ġdel icate
ĠAnt rim
Ġexc iting
ĠAm b
ĠAm ateur
ĠAm adito
Ġgen uine
iol a
Ġ23 0
ĠEm il
bor o
eng ue
Ġmid st
Ġdecl are
Ġview ing
Ġrock y
ĠX ia
ĠX IV
Ġfact or
urric anes
ĠMin or
ĠMin utes
Ġassoci ates
ape ake
ĠChe ster
ĠChe stn
Ġstat ements
af el
ĠHar ajuk
Ġright ly
Ġdiscover ing
ĠAf ghanist
Ġprofess ors
Ġer as
Ġcert ifications
Ġpar amil
com ed
com es
Ġrad ically
Ġobs ession
Ġobs erve
Ġz eal
ĠAc ropolis
Ġprim aries
ĠKingdom s
oad ed
Ġintrodu ce
de ep
Ġlight ly
Ġlight ning
Ġfund ra
field s
reg n
Ġhy per
Ġlaw yers
ĠMc A
ĠMc R
ĠEd g
ĠEd ie
ĠEd ition
ĠEd mon
ĠEd inburgh
ĠAtl as
Ġsour ced
ĠMed als
ĠMed ieval
Ġtour s
Ġtour ists
Ġ24 7
Ġexcav ated
umb ling
Ġarg uably
Ġtechn ically
ĠArch diocese
athe tic
Ġsex y
Ġmater nal
Ġtre ble
ĠChar ter
Ġenc oded
Ġenc ourage
Ġ189 2
Ġ189 9
Ġcoll ision
Ġcoll ided
work ing
Ġtreat ise
Ġtreat ments
ĠHouse full
Ġcommer cially
Ġ186 4
Ġfre es
Ġfre ight
ĠTr uth
ĠTr adition
ĠCor ral
Ġtru ck
Ġhar ms
Ġcoast s
Ġcoast line
ĠIndian a
Ġsw ing
Ġsuper ficial
Ġrecogn izes
Ġ188 6
Ġbroad side
Ġgrad uation
Ġdou gong
Ġredu ces
ĠAng ie
ĠFl ood
Ġbreak through
ĠSim ultaneously
Ġ29 5
Ġdev out
Ġdev ote
less ness
Ġcou ples
Ġcou rage
Ġcou pled
Ġfif teenth
Ġden ote
Ġdeter mination
Ġvol ley
Ġvol atile
Ġemploy s
Ġemploy er
Ġhon ors
Ġeconom ically
Ġsepar ating
Ġlaun ches
onn ie
Ġprot otype
Ġcrew men
Ġsett les
Ġremov ing
Ġfall s
Ġbur st
ĠBel ow
ĠBel lev
Ġcorn crake
ĠFilm ography
ĠFilm fare
Ġpers istent
ĠEl le
Ġintens ification
Ġsocial ism
Ġcop per
Ġpil gr
Ġmer cy
Ġdram at
let te
ĠSl oan
Ġhost s
Ġhost ing
ĠPat ricia
ĠJe unes
Ġadapt ations
Ġcapital ism
Ġtorpedo ed
Ġsum mers
Ġcal endar
Ġclear ing
Ġbi om
Ġred ist
ĠCre ole
ett o
ĠGl iding
ĠGl obe
ĠGl orious
Ġcompet e
Ġcompet ent
Ġcompet itions
Ġprior it
ĠSw iss
ĠSan je
ĠCr im
ĠUp date
Ġreb els
Ġknow s
Ġhapp ening
ĠCross ing
ĠDire ct
Ġabs ent
Ġflood s
Ġflood ed
ĠQu artet
Ġhor rific
Ġnar rated
ĠPer rie
ĠPer imeter
Ġanim ation
ĠAli en
Ġchem ist
Ġchem istry
ĠAb d
ĠAb bot
ĠAb raham
Ġprob able
Ġpoor er
ĠArchaeolog ists
Ġri ots
Ġri oting
Ġwid th
ĠMo e
ĠMo ored
ĠGo ose
ĠGo als
ĠGo Ã¢
Ġcomment ators
Ġrequest s
Ġimm une
Ġimm ortal
Ġpersonal ities
Ġaver aging
Ġraid ers
Ġaccount ed
Ġaccount ing
Ġult ra
ĠAle c
ĠAle ister
Ġdead liest
Ġ185 9
Ġdi oc
Ġaccess ed
Ġfrag ment
ĠSb Cl
ĠBay fest
Ġenv ision
Ġflo ated
Ġamount ed
Ġmonument al
Ġball oon
Ġmakes hift
ĠWood y
alt a
Ġreact ed
ĠMet eorological
ĠMet acrit
ĠVal era
ĠVal iant
Ġ184 2
Ġneut rinos
Ġsyn onym
ĠSecond ary
road s
ĠMiss y
ĠHen an
ĠLa un
Ġemb ry
Ġemb attled
Ġcounter part
Ġaut hent
Ġmat urity
ĠCons cientious
Ġlog ic
Ġlog ical
Ġlog istics
Ġleng thened
ĠML B
ĠPart ners
Ġshot guns
Ġbox es
Ġpeace ful
ĠAngel a
rant o
Ġsaf ely
Ġhard ly
ĠTy pes
ĠCP R
ĠCP U
ĠEv a
Ġdiscuss es
Ġhop es
ĠMy k
ĠMid lands
Ġherd ing
Ġunl icensed
ĠVar iation
Ġdocument ing
Ġdeploy s
Ġcompl aint
Ġchange able
Ġund es
Ġund oubted
Ġextra vag
Ġobserv ing
Ġbroadcast s
ĠBass in
ĠRad ical
ipp ing
Ġacqu aint
Ġpolic eman
Ġrestaur ants
Ġpurs uing
Ġquestion able
Ġcat alog
rog raph
ĠMax im
ĠWater ford
Ġdiss olution
Ġneg atively
ĠConf lict
ĠColumb ian
Ġsal mon
Ġsal oons
Ġprison er
Ġconsider ation
ĠHenry son
ĠGreen wich
ĠGreen away
Ġshoot ings
Ġjud ges
Ġspir al
Ġmeant ime
ĠSha anxi
ĠSha otang
break able
uff le
Ġtim ing
Ġtax i
Ġsus pect
Ġtoll s
ĠPet it
Ġang ling
Ġ179 1
Ġincorpor ating
Ġflow s
Ġpain ting
Ġpound ing
Ġdemonst rating
Ġemphas izes
Ġfear ing
Ġple ased
Ġrepe al
Ġrepe ating
ĠSer geant
ĠSpe aking
Ġnort heastern
ĠRam fis
ĠFair y
Ġconver sion
Ġconver ting
Ġprohib its
Ġprohib itions
ĠEll iot
ĠChild e
Ġ180 1
Ġtext ure
Ġassemb lage
Ġtransl ocation
Ġgrass es
Ġgrass land
Ġrevolution aries
Ġbott le
ĠSus sex
Ġnin jas
ĠMount ains
ĠBow ie
iff e
ĠKn afel
Ġkind erg
Ġ32 1
Ġtall er
Ġlic ences
ĠNH C
ĠJay a
Ġhero ic
ĠInter view
ĠInter state
Ġcollect ing
Ġopt im
Ġcam er
Ġfres co
Ġded ication
ĠHam let
ĠHam pton
ĠWil kinson
ĠWay ne
Ġcho osing
Ġplant ations
ĠChap man
Ġresemb led
Ġcompos ers
Ġ183 8
Ġtrain er
Ġhyg roscopic
Ġox ides
Ġox idation
roph ic
Ġmission ary
ĠApp l
ĠLu ke
Ġunp reced
Ġunivers al
Ġunivers ally
ieuten ants
Ġdispl ays
Ġdispl acement
Ġassault s
ĠBroad casting
Ġparliament ary
Ġmis ery
ĠDon ato
ĠJust e
Ġattra ctions
Ġmodel ing
Ġcraft ed
ĠSen ior
ĠSou l
Ġge ography
ĠJer ry
Ġ181 3
Ġmanufact ured
Ġmanufact urer
ĠMuslim s
Ġfolk lore
Ġpal m
Ġdang ers
ĠSav age
ĠMir acle
ĠBen jamin
Ġfort ress
ĠRel ief
ĠJul ia
Ġcompr ise
Ġamb ient
Ġdisturb ed
Ġglob e
fort une
ĠMal one
ĠForm ation
ĠDar by
ĠDar csen
Ġ42 2
Ġserial ised
Ġspread ing
Ġundert ake
Ġweaken ing
Ġinterse ct
Ġartic les
Ġmotor ised
Ġtrou bled
Ġcab in
Ġcitiz en
Ġble w
Ġdig it
Ġha irst
Ġlay out
Ġgrand son
ĠGall ia
Ġalt itude
ĠLaw rence
Ġcontain ers
Ġmechan ics
Ġ97 2
Ġfresh man
Ġbit ter
Ġben z
Ġpet rol
Ġdial ogues
ĠMa ury
ĠMa arten
ĠProm otion
ĠPass ion
ĠRos kill
ĠDest iny
ĠMarc us
ĠMarc ia
mark s
Ġcard iac
Ġfer ox
Ġmask rays
ĠTreat ment
ĠCop land
ĠCard inals
Ġec ology
ĠKim ball
Ġcontrib utes
Ġcontrib uting
Ġteen ager
Ġstrateg ically
Ġpolygam ists
Ġplatform s
Ġcosm ic
Ġcosm etic
Ġmint ed
ĠHal o
ĠFA I
ĠFront iÃ¨
ĠWall is
ĠNor folk
ĠLas ance
agu er
agre ements
Ġseg ments
Ġselect ive
Ġselect ivity
ĠStan ford
Ġdisappe ars
Ġ182 0
Ġ182 5
Ġrob ot
Ġpreced ed
Ġagg reg
Ġexpress ing
Ġfung i
hens ka
Ġsymbol ize
Ġtable ts
Ġtheat res
Ġsn ake
Ġsalv age
Ġthr ash
ĠSon ia
ĠSpr ings
ĠCD s
Ġstem ming
ĠRo osevel
ĠGr ace
ĠLouis iana
ĠDah au
Ġagree ing
Ġspons orship
Ġcool er
Ġsurpr ised
Ġinstall ing
Ġinstall ation
Ġimplement ation
ĠPolit ics
Ġdetect ors
ĠSupp orters
ĠCoast al
Ġneutral ity
ĠDemocr at
ĠDemocr atic
chel or
Ġtort o
Ġath lete
Ġpack ing
Ġpap ers
ĠSub a
Ġbeat en
ĠBus quÃ©
ĠBoy le
Ġstanz as
ĠPanz er
Ġalleg ations
ĠNich oll
Ġrub ber
Ġrecur ved
Ġrecru it
Ġspear head
ĠAnn ual
Ġdiff ers
Ġobl ig
Ġrebu ilding
Ġabsor ption
Ġphotograph ing
Ġsleep ing
Ġtick et
Ġfle w
Ġfle es
Ġnurs ing
ĠBaby face
Ġforth coming
Ġexpect ing
Ġuncon trolled
Ġintr ig
Ġ53 3
Ġjet ty
Ġoverl ooked
ĠDep ression
Ġsubst rates
Ġparish ioners
Ġresear ched
Ġdenomin ations
Ġlaunch ing
Ġnucle us
Ġneighbor hood
pat ches
Ġic ons
Ġic onic
Ġsoci o
Ġfert ile
Ġfair ly
ĠSyn agogue
ĠCam eron
ĠMel ody
ĠHaw ai
ĠJournal ists
Ġdeleg ates
Ġrig id
ĠKenn eth
Ġencl osure
Ġremark s
Ġremember ed
ĠWhere as
Ġelev ation
Ġturns peak
Ġpolitic ian
ĠImp act
Ġharm ony
Ġharm olod
Ġdevast ation
Ġveget ables
Ġcrowd ed
Ġindu ced
Ġpure ly
Ġhier archy
ĠSab bath
ĠHor se
ĠLy dney
ĠLyn ette
Ġanch or
Ġupgr aded
Ġacclaim ed
Ġapart ment
Ġrenov ation
ever ance
Ġcatch ing
Ġcrown ed
Ġpup il
Ġhol y
ĠColl ing
Ġnob ility
ĠBat chelor
ĠPers oon
ĠRap ids
Ġcong ress
Ġproceed ings
ĠEvery thing
Ġvac ant
Ġorn ament
ĠKir n
Ġlect uring
Ġjew ellery
Ġcommemor ate
Ġremn ant
Ġboil er
Ġincom pet
Ġflu orescent
Ġquant ity
Ġ99 5
ĠLeban ese
ĠAnup ama
Ġobst ruct
Ġimprison ment
Ġterror ist
Ġconstruct ing
Ġfeed back
Ġ114 2
Ġconfront ation
Ġillust rated
Ġshaft s
cript ions
Ġwre cks
Ġwel comed
Ġfir ms
Ġhun ger
ĠCel ts
Ġlob ster
Ġlob bied
Ġnut ri
Ġnav ig
ĠMun ster
ĠBal aguer
ĠBall court
othe red
Ġstim ulated
Ġstream s
ĠGround sel
ĠLim erick
ĠLank an
Ġanth racy
Ġproport ions
Ġcomed ian
Ġcomfort able
Ġdisag ree
Ġoverse e
Ġendors ement
Ġsubty pe
Ġ93 59
Ġpriv acy
Ġbrig ades
Ġbrig adier
Ġearthst ars
Ġprotagon ists
Ġceleb ration
Ġphysic ist
Ġphysic ists
Ġuncertain ty
Ġkingdom s
Ġneighbour hoods
ĠDevon port
Ġsad ness
Ġfault s
Ġbes ide
Ġmal ign
Ġmal aria
Ġmock ing
Ġdress ing
Ġreop en
Ġegg s
ĠMI NU
Ġstyl istic
ĠNat al
Ġancest ry
ĠDiss anay
Ġhen chmen
Ġexch anging
Ġexch anged
ĠKnow ledge
Ġintention ally
ĠHend erson
Ġenh anced
ĠAlb ani
Ġ121 9
ĠColer idge
ĠAgust in
Ġnegot iate
Ġmicrol ight
Ġaccomplish ments
Conn ell
Ġax le
Ġax les
Ġsars en
Ġmac rom
Ġmathe matic
Ġreorgan isation
ĠAqu inas
ĠMem ory
ĠMem phis
ĠMos henska
ĠBarn es
Ġgall ery
ĠHorn ets
ĠHorn ung
Ġstib nite
ĠGer ard
Ġansw ers
ĠJoy ce
ĠKong o
ĠKap lan
ĠKap itÃ¤n
Ġyield ed
Ġteach ings
Ġplayoff s
Ġouts kirts
Ġattrib utes
Ġincred ible
Ġincred ibly
Ġflav ours
Ġendang ered
Ġsubstit uted
Ġterr aces
Ġinfilt rate
Ġslip ped
Ġdemocr atic
ĠRepresent ative
Ġpastor al
Ġfavour ing
Ġcounteratt acks
ĠJacqu eline
Ġmobil ized
ĠTurk ish
ĠCroat ian
ĠCroat ia
ĠProfess or
ĠProfess ional
Ġtum or
Ġaw kward
Ġboss es
Ġho ax
ĠSak imoto
ĠCru ise
ĠCru iser
ĠMaj esty
ĠMemb rane
ĠBah amas
Ġstret ched
ĠWell es
Ġproced ures
ĠOt to
ĠOt ranto
Ġamend ments
ĠWhit ney
ĠIndust rial
Ġdescript ive
ĠEngine ering
Ġmedic ine
Ġmedic ines
ĠExpedition ary
ĠAgricult ure
Ġderiv ative
Ġderiv atives
ĠLaure l
ĠLaure n
Ġninet eenth
Ġpetro leum
ĠCharacter istics
Ġrendezvous ed
Ġfertil ization
ĠMcDon ald
eg ro
Ġfil tering
Ġbare ly
Ġine ffect
Ġdivers e
ĠTalk ing
Ġrejo ined
Ġthro at
ĠCert ifications
ĠMas sey
ĠMoney penny
igen ous
ĠHad ji
Ġstall ions
ĠPit lake
ĠPor fir
ĠRash trak
ĠGB A
ĠGard ens
ĠGard ner
ĠLet ters
Ġprol onged
Ġchampions hips
Ġenforce ment
Ġpref ers
Ġbuy out
Ġaccident ally
Ġ127 1
Ġdistrib ute
Ġslop ing
Ġconfron ted
ĠBarb icane
ĠPrec ipitation
Ġconstitu ents
Ġcataly st
ĠApost olic
Ġadjust ed
Ġflex ible
ĠFleming ton
Ġmanoeuv re
Ġjurisd iction
Ġjurisd ictions
Ġecosystem s
nz o
wa ite
Ġsod ium
Ġsink ing
Ġcens ored
enz ie
Ġfier ce
Ġpian os
Ġdaco its
oust ic
ĠTs ar
ĠAL L
ĠCirc uit
ĠIgn ace
ĠMS F
ĠBP I
ĠBomb ay
Ġstair case
Ġstrand ed
ĠPas ley
ĠPubl ishing
ĠFolk lore
ĠGaz ette
Ġconclus ions
ĠLiter ary
ĠDur rant
Ġseap ort
Ġvi ole
Ġven ue
Ġvass als
ĠIntern et
ĠKI T
ĠStruct ural
ĠVi enn
Ġcompat ible
ĠAltern ative
Ġoverr un
Ġspokes man
Ġremuner ation
Ġassign ments
Ġquot ation
Ġinstru ctor
Ġelig ibility
Ġfacil itate
ĠMcE ntire
Ġswim ming
ĠAgain st
Ġaeropl ane
ĠErn st
ĠSala ad
ĠContin ental
Ġsymp athetic
ĠPopM art
Ġaggress or
Ġtack le
Ġairst rips
Ġtheor ists
Ġcous in
Ġbol ts
Ġbron ze
Ġing redients
Ġpione er
Ġmamm al
ĠToy a
ĠTyn edale
ĠCer atosaurus
Ġlys ate
Ġlaugh ing
ĠBud okan
ĠBalk an
Ġstor age
ĠWS PU
ĠWait ing
Ġalum in
Ġconvers ation
ĠNel son
ĠLore nzo
ĠEug ene
iffer ent
Ġric hest
Ġarche ty
ĠChand ler
Ġunre leased
Ġtwee ter
Ġclust ers
Ġdisgr ace
Ġremod elled
Ġweigh ing
Ġample xus
Ġphylogen etic
Ġlandown ers
ĠPolic y
ĠMonten egro
ĠNeut rino
ĠXu ande
ĠMcL ean
Ġmotif s
Ġvolunt ary
Ġhoriz ont
Ġaux iliary
ĠMetall ica
ĠTyp ography
Ġfrust ration
Ġdismember ment
Ġsuspic ions
ĠBrah ma
ĠSignific ant
ĠAerodrom e
Ġunhapp y
Ġpanthe on
Ġpseud o
ĠMennon ite
ĠLiverp ool
for ward
Ġtrol ley
Ġwield ing
Ġbureau cr
Ġpyramid al
Ġmason ry
ĠTourn ament
ĠTao ist
ĠTarant ino
ĠSomet imes
ĠChes apeake
ĠCrow ley
Ġluc aris
ĠMÃ© dec
ĠBry ant
ĠHug hes
ĠPict ures
ĠFL T
ĠFel ix
ĠFeat ure
ĠGand hi
Ġalco hol
ĠLor raine
ĠLith uan
Ġhed ge
Ġhered itary
ĠEqu ipment
Ġsund ial
Ġchann els
ĠKer ch
ĠKiss y
ĠChal uky
ĠChih uah
ĠChuo jiao
ĠVit amin
Ġperipher al
Ġcompart ment
ĠArg ent
Ġflot illas
Ġairs hips
ĠShl aim
ĠLeices ter
ĠBlu ewater
Ġempt ied
ĠConvers ely
Ġepit het
Ġepox ides
Ġfeas ible
ĠAndre a
Ġpromul gated
Ġreferend um
ĠBrig adier
Ġcultiv ation
Ġparad ox
comp uter
Ġcruel ty
ĠCoriol is
Ġharv est
Ġredes ignated
ĠNotting ham
ĠMerc ury
Ġinjust ice
ĠWilhel m
ĠGameS pot
Ġmisrep resent
Ġprosper ity
ĠProvision al
Ġskelet al
ĠCollabor ation
Ġsemicirc ular
Ġcrosso ver
Ġdysfunction al
182 2
STA H
Ġaus pices
Ġcis tern
Ġfooth old
anchol y
Ġinade quate
Ġinsec urity
Ġtoile t
ĠTanz ania
ĠTempl ar
ĠToky o
ĠAime e
ĠAynes worth
ĠSiber ia
ĠCly de
ĠCret aceous
ĠCald well
ĠCze ch
Ġlonel iness
Ġeurop aeus
Ġnur se
ĠIAT A
ĠMul der
ĠMace o
ĠMwe le
ĠMuc ius
ĠMallow an
ĠBeng al
ĠHann eman
ĠHabit at
ĠHube i
ĠPare il
ĠPract itioners
ĠPao chinda
ĠRuther ford
ĠFru it
ĠFost er
ĠFog le
ĠWals h
ĠWister ia
ĠWorces tershire
ĠGuth rie
Ġcongest ion
ĠNell ie
ĠNumb ers
ĠNipp on
ĠLaur a
ĠLope z
ĠDere k
ĠDÃ¡ il
ĠJag deep
ĠOcosing o
ĠOerlik on
ĠInaf une
Ġchanc el
Ġplaus ible
ĠKaspar ov
ĠStaling rad
Ġunavail able
ĠViet nam
Ġtwelf th
Ġintros pective
Ġabbre v
ĠYank ovic
Ġjung le
Ġscaff old
ĠSeym our
Ġcharco al
Ġincumb ent
ĠNewfound land
ĠShrin ers
Ġmonosp aced
Ġmonik er
ĠManhatt an
Ġcritiqu ed
Ġepigen etic
Ġinflict ed
Ġphosph orus
ĠColleg iate
Ġshortcom ings
ĠNoises capes
ĠHarajuk u
ĠAfghanist an
Ġparamil itary
ĠEdmon ton
ĠJeunes se
ĠSanje ev
ĠGoÃ¢ ve
ĠMetacrit ic
Ġundoubted ly
Ġkinderg arten
Ġunpreced ented
ĠFrontiÃ¨ res
ĠRoosevel t
Ġharmolod ics
Ġ9359 28
ĠMINU STAH
ĠDissanay ake
ĠPorfir io
ĠRashtrak ut
ĠMÃ©dec ins
1 0
2 5
C C
C H
C R
C S
D B
D a
E F
E O
F orce
F TA
G T
G U
H S
H OK
H IE
I l
I CE
M A
M E
N c
N am
O C
O u
P N
P HIE
S E
S ports
S can
T ube
V S
a ution
a igned
b n
b ic
b ated
b ast
b ie
b ase
b ek
b ling
b irth
b urs
b ases
c ot
c if
c ore
c ell
c ue
c are
c ases
c ouraged
c ycle
d or
d am
d ok
d ered
d ict
e el
e ose
e haw
e opard
f u
f le
f ere
f ew
f low
f air
f son
f ords
f eld
g i
g us
g ate
g ary
g io
g au
g gy
g ling
h m
h o
h in
h or
h ot
h os
h ong
h ound
h ara
h abit
h ugg
i ro
i il
i ating
i atic
i enced
i ology
i ological
i ators
i agn
j ing
j ab
j ud
k el
k ton
k amed
k ner
k enny
k alin
l ad
l ob
l ane
l au
l ining
l aces
l imin
l oud
m id
m ul
m ag
m ere
m are
m other
m app
m ills
m oned
m qi
n ar
n an
n ie
n man
n ote
n sis
o a
o er
p ul
p ers
p ons
p ole
p erson
p ret
q igong
r h
r ide
r ors
r ational
r ators
r imin
r igg
r Ã¼
s im
s pe
s ia
s yc
s ewhere
t man
t ons
t ility
t iÃ¨
u z
u ction
u ance
u aries
u won
v et
v ik
v ements
v olent
w l
w re
w al
w am
w ig
w ack
w ear
w Ã³w
x d
x ess
y p
y in
y uan
z man
z yn
z ky
z uki
z elius
Ã £
Ġ ul
Ġ ell
Ġ urn
Ġ elf
Ġ qigong
ĸ sel
ľ rÃ¼
Ġt am
Ġt ag
Ġt ies
Ġt ab
Ġt ins
Ġt ug
Ġt rop
Ġt ides
Ġt ales
Ġt RNA
Ġt elescope
Ġt akings
Ġt umbling
he nd
he res
he vik
Ġa est
Ġa pe
Ġa zir
in n
in ers
in th
in ine
in ters
in ement
in itz
in formation
in itely
Ġthe ore
Ġthe ology
er ic
er get
er vers
er ks
er je
er bee
er bated
on er
on te
on ica
re ach
Ġs or
Ġs av
Ġs hed
Ġs ided
Ġs au
Ġs sp
Ġs atin
Ġs ocks
Ġs ultan
Ġs aved
Ġs aus
Ġs aints
ed ed
ed ic
ed ay
ed ia
ed ger
Ġo o
Ġo res
Ġo ust
Ġo wing
Ġo ught
Ġw r
Ġw it
Ġw ire
Ġw ors
Ġw akes
Ġw orms
Ġw andering
at ant
at ry
at able
at ories
at ara
at ivity
it as
it us
it ers
it ian
it ime
it ious
or g
or al
or amic
Ġc rou
Ġc age
Ġc ute
Ġc yn
Ġc rum
Ġc rescent
Ġc igarettes
en ic
en ich
en ia
is i
is ch
is cl
is ely
is ade
is ational
is ner
is hen
is fact
es ame
Ġf i
Ġf ed
Ġf ut
Ġf ist
Ġf og
Ġf ile
Ġf ron
Ġf ission
Ġf ring
Ġf ades
Ġf uck
Ġf ills
Ġf itting
Ġf ighter
Ġf oul
Ġf rogs
ar f
ar er
ar se
ar ck
ar aj
ar med
Ġb un
Ġb ot
Ġb ab
Ġb ip
Ġb ru
Ġb ree
Ġb io
Ġb ery
Ġb ored
Ġb ounds
Ġb ipl
Ġb ags
an or
an ing
an ol
Ġin und
Ġin ning
Ġin mates
Ġin put
al i
al gar
Ġp m
Ġp ent
Ġp all
Ġp ear
Ġp ub
Ġp ork
Ġp ile
Ġp ose
Ġp ock
Ġp ict
Ġp ause
Ġp its
Ġp ains
Ġp iers
Ġp ne
Ġp uck
ing ray
ing tiÃ¨
as p
as ence
Ġto pp
ic ol
ic us
ic ip
ic ious
ic ular
ic ially
ro oted
Ġm g
Ġm as
Ġm ent
Ġm ad
Ġm our
Ġm ould
Ġm alle
Ġm ellow
Ġm inds
Ġm ito
Ġm asts
Ġm igrants
Ġm eson
Ġm igrated
Ġd ing
Ġd ad
Ġd ol
Ġd ong
Ġd art
Ġd ip
Ġd ess
Ġd ump
Ġd aro
Ġd rank
Ġh ate
Ġh ast
Ġh one
Ġh ail
Ġh ollow
Ġh aw
Ġh oard
Ġh ilar
Ġh aul
Ġh iding
Ġh unt
le in
le fson
ou ces
ou rite
ĠT J
ĠT z
ĠT ro
ĠT ac
ĠT em
ĠT ate
ĠT ak
ĠT ae
ĠT ues
ĠT empt
ĠT ones
ĠT rem
ĠT raf
ĠT uck
ĠT RI
ĠT aver
ĠT rott
ĠT igers
ĠT ouss
Ġre per
Ġre appe
ent er
ent ric
il ic
il ion
il ine
il kenny
ĠA B
ĠA E
ĠA G
ĠA R
ĠA ve
ĠA ury
ĠA ero
ĠA OT
Ġth ou
Ġth ie
Ġth rew
Ġth rown
Ġth under
ĠS A
ĠS at
ĠS ide
ĠS port
ĠS ug
ĠS aj
ĠS oci
ĠS pect
ĠS ax
ĠS ude
ĠS omm
ĠS ky
ĠS emit
ĠS IM
ĠS esame
el o
el man
el ier
el anti
ĠC W
ĠC it
ĠC un
ĠC rom
ĠC av
ĠC ore
ĠC ant
ĠC ost
ĠC ust
ĠC ond
ĠC ove
ĠC ook
ĠC yn
ĠC els
ĠC aves
ĠC ertain
ĠC unning
ĠC ourage
ĠC emetery
ĠC otton
ĠC ache
ĠC SS
ĠC HOK
st and
st orm
st aff
st abel
Ġl ing
Ġl ib
Ġl one
Ġl ined
Ġl iver
Ġl ords
Ġl akes
Ġl esb
Ġl aying
Ġl ighting
Ġl ift
om ach
om kl
om stick
Ġe ct
Ġe cc
Ġe uk
Ġe tymology
ct al
ct rine
Ġn a
Ġn our
Ġn ose
Ġn ull
Ġn omen
Ġn onc
Ġn ylon
un ner
ad oes
ad hara
Ġwas hed
am er
am is
am us
am ity
am aged
ol ine
ol ades
ol ulu
ĠI N
ĠI l
ĠI ber
ĠI ren
ĠI mber
ĠI BE
ĠI vor
ĠI UC
ĠI FTA
ĠI bn
ĠI wam
Ġbe et
Ġbe ating
Ġbe acon
Ġon ward
ur a
ur u
ur ers
ur ally
ur ities
ur istic
ly on
ĠM is
ĠM ol
ĠM ain
ĠM iz
ĠM ade
ĠM ail
ĠM ind
ĠM aking
ĠM urch
ĠM iam
ĠM ik
ĠM atch
ĠM ina
ĠM eng
ĠM ids
ĠM ush
ĠM aza
ĠM olt
ĠM CI
ĠM olly
ĠM anson
ĠB b
ĠB ac
ĠB res
ĠB ess
ĠB ally
ĠB ert
ĠB ism
ĠB ible
ĠB ody
ĠB isc
ĠB rent
ĠB reed
ĠB urt
ĠB ott
ĠB iring
ĠB anks
ĠB ols
ĠB orders
Ġg al
Ġg ri
Ġg if
Ġg ard
Ġg rit
Ġg age
Ġg aps
Ġg lyph
Ġg entle
Ġg agged
id y
id ines
id iy
Ġfor um
Ġfor lorn
im ary
iv ations
iv ities
ac a
ac arn
ac char
ac erbated
Ġas p
Ġas hes
Ġas pir
Ġas iatic
ir m
ir bey
ig uous
ig ua
ig uration
ot ive
ot ry
ter ly
ter ian
ter ranean
ter weight
ation ing
ĠH em
ĠH and
ĠH av
ĠH our
ĠH og
ĠH ond
ĠH erman
ĠH atter
ĠH ym
ĠH undred
ĠH uff
ĠH anna
ĠH ilton
ĠH abits
ĠH orthy
ĠH sia
Ġst en
Ġst ir
Ġst ain
Ġst ip
Ġst ock
Ġst ays
Ġst ats
Ġst umb
Ġst uck
Ġst unt
Ġst airs
Ġst uff
Ġst olen
Ġst ela
Ġst adium
Ġst ingray
Ġst omach
ut o
ut ic
ut able
ut hip
ut ting
ut gers
us ers
us eway
ay a
ay ette
ay ashi
et a
et al
et us
et ry
et ically
et zky
ver se
ver age
ver ts
ĠP ig
ĠP ine
ĠP ied
ĠP ole
ĠP ink
ĠP emb
ĠP yn
ĠP urity
ĠP TV
ĠP itch
ĠP lease
ĠP PL
ĠP tah
ĠP irate
ĠP engu
ĠP esc
ĠP ongs
ĠP DB
ĠP syc
ĠR I
ĠR i
ĠR ic
ĠR id
ĠR ip
ĠR ough
ĠR ally
ĠR ice
ĠR ole
ĠR ames
ĠR oot
ĠR ys
ĠR ising
ĠR hen
ĠR aul
ĠR unning
ĠR PM
ĠR otten
ĠR iek
ĠR CR
ĠR utgers
ch on
ch ond
ch ids
ch aet
ul k
ul ing
ul us
ul ine
ul ator
ul iar
ra ble
ra bs
ra ints
ĠF o
ĠF r
ĠF est
ĠF res
ĠF oc
ĠF ate
ĠF ish
ĠF land
ĠF ix
ĠF ull
ĠF aced
ĠF alk
ĠF aul
ĠF rag
ĠF rid
ĠF aith
ĠF ellow
ĠF rieze
ĠF RO
Ġwh it
Ġwh ist
Ġwh olly
ĠW y
ĠW ent
ĠW ad
ĠW ide
ĠW ade
ĠW aking
ĠW ays
ĠW ai
ĠW off
ĠW itness
ĠW aste
ĠW reath
ĠW inder
ĠG P
ĠG on
ĠG at
ĠG ust
ĠG iers
ĠG ray
ĠG anes
ĠG aud
ĠG anges
ĠG othic
Ġal be
em at
em ing
em mapp
th al
th off
and in
and em
and ist
Ġcon ject
Ġcon dom
Ġcon vert
ĠN D
ĠN ed
ĠN ar
ĠN ad
ĠN ag
ĠN ak
ĠN ant
ĠN ative
ĠN amed
ĠN ature
ĠN augh
ĠN ormal
ĠN urs
ĠN elly
ĠL A
ĠL ust
ĠL ough
ĠL ark
ĠL ob
ĠL ines
ĠL Ã©
ĠL ively
ĠL oyal
ĠL ik
ĠL ites
ĠL AA
ĠL ucky
ĠL uther
ĠL orne
ĠL wÃ³w
Ġan alog
Ġan emia
est ial
est ine
est ically
Ġat roc
os al
os ocial
ĠD H
ĠD om
ĠD if
ĠD ate
ĠD ian
ĠD ost
ĠD orn
ĠD ise
ĠD oll
ĠD rew
ĠD omen
ĠD onn
ĠD raf
ĠD iff
ĠD awn
ĠD asy
ĠD atabase
ĠD enton
ĠD iamond
ĠD ickens
um onia
ĠJ K
ĠJ et
ĠJ ov
ĠJ ake
ĠJ aw
ĠJ arl
ĠJ umb
ĠJ agu
ĠJ uda
ĠJ GT
ĠJ emmapp
Ġhe s
Ġhe ir
Ġhe ter
ag h
ag l
ag ure
ag ger
ag ements
ist les
ist ically
ist ocr
ist rate
av ian
av ior
Ġde er
Ġde ception
Ġde ceived
Ġde leted
Ġde hyd
od iment
od ano
Ġpro state
Ġse iz
Ġse ating
Ġse ats
Ġse awall
pe au
ri ers
ri ots
ĠE W
ĠE th
ĠE ld
ĠE rie
ĠE lement
ĠE van
ĠE pic
ĠE uras
ĠE ffect
ĠE tymology
ort ment
Ġcom ical
ill is
ill and
ill ies
ĠO S
ĠO k
ĠO st
ĠO mer
ĠO man
ĠO den
ĠO sw
ĠO range
ĠO wing
ĠO ye
ĠO jib
res hold
if erous
if ada
oc o
oc ations
oc ating
oc used
Ġv ine
Ġv ase
Ġv enge
Ġv iable
Ġv oting
Ġv ivo
ĠIn ters
ĠIn side
ĠIn formation
op ol
ich i
Ġor chids
ore ctal
all ing
Ġex its
Ġex ceed
Ġex iles
Ġex otic
Ġex quis
Ġex terior
Ġex oner
Ġex acerbated
Ġex agger
ak s
ant ine
ant led
Ġsh ook
Ġsh ingles
Ġch ore
Ġch anting
Ġr ide
Ġr ust
Ġr ations
Ġr uth
Ġr ats
Ġr aces
Ġr ugged
ab ella
art ike
qu er
qu ent
qu ith
qu ay
qu ire
se en
se pt
ip ion
ip se
ip ped
ber man
ud er
ess andro
Ġpl ural
ĠU P
ĠU sh
ment ing
Ġare n
te br
ĠK u
ĠK or
ĠK ill
ĠK ub
ĠK ild
ĠK itt
ĠK orn
ĠK end
ĠK ick
ĠK az
ĠK aid
ĠK ash
ĠK emp
ĠK yle
ĠK ett
ĠK ells
ĠK ansas
ĠK olev
ĠK hent
ĠK onk
ĠK GU
ĠK lein
ĠK ilkenny
ĠK artike
pp o
ord ered
ell es
ell ers
ge ar
our u
Ġle ase
Ġle vee
ish a
ish olm
Ġar d
Ġar row
Ġar istocr
ight ening
Ġk ale
Ġk oh
Ġk Da
ru ctions
Ġnot ices
ĠSt ap
ĠSt age
ĠSt yl
ĠSt ring
ĠSt ories
ĠSt ream
ĠSt anding
ĠSt abil
ĠSt atus
ia e
ĠCh i
ĠCh ou
ĠCh all
ĠCh ase
ĠCh oice
ĠCh ambers
ĠCh isholm
ure en
ous al
cl ed
cl air
Ġun he
Ġun im
Ġun ite
Ġun aid
Ġun ident
Ġun ne
Ġun har
Ġun numbered
Ġun seen
og s
og atory
og amous
og lob
ap at
ap ing
ap ore
ap ult
ap olis
ap olitan
ran ces
ĠV C
ĠV F
ĠV M
ĠV oc
ĠV ision
ĠV ann
ĠV II
ĠV ocal
ĠV ID
ĠV audeville
ĠV VS
ĠV lad
ĠV ingtiÃ¨
ĠV uthip
Ġhas n
ie u
ie ux
Ġint imate
ign e
ign ation
per ately
per ienced
Ġcl ay
Ġcl ip
Ġcl one
Ġcl ick
Ġcl ergy
Ġcl iff
Ġcl ips
Ġcl ashed
Ġcl erk
Ġab ide
Ġab ode
Ġcont ention
Ġcont ras
pl an
pl ot
pl ate
pl icated
ult ing
Ġad jo
Ġper v
Ġper il
Ġper miss
ok ey
Ġres erv
Ġres iding
ome ter
ĠHe b
ĠHe at
ĠHe art
ĠHe be
ĠHe inz
ĠHe aney
out ed
ry pt
ect s
ect ive
ect able
ough by
ond e
low ing
Ġen able
Ġen rol
Ġen rich
Ġen abling
Ġen erget
Ġus er
Ġcomp ressed
hed rine
ĠTh an
ĠTh reat
ĠTh irty
ĠTh istles
Ġdis cl
Ġdis par
Ġdis char
Ġdis lik
Ġdis agreements
Ġdis burs
Ġdis ordered
ĠRe port
ĠRe form
ĠRe vel
ĠRe ese
ĠRe venge
Ġoff ended
Ġoff season
Ġoff ensives
over s
Ġser geant
ĠAl tman
ĠAl essandro
Ġdes p
Ġdes ires
Ġdes irable
Ġdes patches
ĠY a
ĠY es
ĠY ar
ĠY un
ĠY ang
ĠY outh
ĠY ale
ĠY ah
ĠY eats
ĠY ours
ĠY ao
ĠY PM
ach i
ach ian
ach uris
ach omkl
Ġman s
Ġman ned
Ġj u
Ġj am
Ġj aw
Ġj eopard
Ġshe er
Ġro uted
Ġro asted
Ġro gue
Ġim pending
are n
Ġover pass
Ġover coming
Ġover night
Ġover weight
ke eper
ke eping
Ġpre ference
Ġpre war
Ġpre jud
Ġag o
Ġspe ec
ĠUn lim
ĠUn cle
ĠUn breakable
nder a
nder ed
Ġup ris
Ġup stream
Ġup rooted
Ġsc ent
Ġsc out
Ġsc ared
Ġsc ream
Ġout g
Ġout right
Ġout put
Ġout do
Ġout raged
Ġout numbered
Ġout post
Ġout comes
ents ia
ors ki
ubl ished
ang le
Ġsp es
Ġsp ine
Ġsp aced
Ġsp here
Ġsp anning
Ġsp rings
Ġsp leen
Ġsp ousal
ph or
ĠSe v
ĠSe itz
ĠSe asons
ĠSe gers
ĠSe amus
Ġwould n
Ġatt ain
Ġatt aining
ft ime
urn ed
Ġwork sh
we eper
ind isi
Ġrel apse
Ġrel entless
ens ing
Ġcons ul
Ġcons ume
form ed
ĠZ he
ĠZ ed
ĠZ en
ĠZ ait
ĠZ appa
ĠZ elanti
ron ed
ron ym
ve ys
Ġ8 1
Ġ8 30
Ġev olution
Ġev okes
Ġev olve
ĠAr n
ĠAr row
ĠAr ora
Ġ7 50
Ġunder parts
Ġear s
Ġship wre
Ġbet ray
ĠDe c
ĠDe cl
iss a
Ġcan on
Ġcan als
Ġcan inus
Ġass ail
Ġass ured
Ġass isting
Ġass ortment
ict s
Ġme al
Ġme lee
Ġme adows
Ġkn ights
Ġkn ee
Ġkn eel
Ġcent red
Ġcent enary
ob ic
ob ia
Ġwe i
orn ography
olog ically
Ġwhen ever
Ġthan k
Ġinc ur
Ġinc ons
Ġinc arn
aw iil
ath i
ath orn
Ġpos ed
Ġco pe
Ġco hes
Ġco ached
Ġco ex
Ġreg ister
Ġair men
Ġair lin
Ġair lines
Ġair borne
Ġair plane
Ġsub du
Ġsub stitute
Ġsub text
Ġsub stances
Ġsub terranean
Ġsub plot
Ġinter l
Ġinter rel
Ġinter fere
Ġac oustic
Ġac ronym
Ġthree fold
Ġra v
Ġra w
Ġra ped
Ġra pper
Ġra iny
Ġra ked
Ġret itled
ey er
ĠWhe at
ck laces
ole on
Ġtr ump
Ġqu ays
Ġqu oting
Ġqu artet
ĠNew port
Ġsupp ressed
Ġsupp ression
Ġform ats
Ġver ge
Ġver bal
ert a
ert s
ert aining
Ġcol ored
Ġcol orectal
ĠSh ar
ĠSh rop
ĠSh ield
ĠSh add
Ġwhere up
Ġpo ison
ĠShe en
ĠShe ffield
Ġca ut
Ġca ver
Ġsur passing
Ġsur veys
Ġrele asing
Ġrele gated
ĠLe one
ĠLe ft
ĠLe ukem
ĠLe vant
ĠLe Sports
Ġso ils
Ġacc ent
Ġind ul
Ġind ie
Ġind ication
Ġind ef
Ġind igenous
Ġpol es
Ġpol ys
Ġpol ym
Ġap ocaly
ug ation
ern acle
Ġent angled
Ġent ertaining
ĠAs quith
Ġele venth
Ġbl og
Ġbl ind
Ġbl amed
Ġbl oss
Ġbl asts
ink ing
Ġmon astic
Ġmon ks
Ġmon ogamous
aj uwon
ĠWh iskey
arn ey
Ġtra p
Ġpr ere
Ġpr ince
Ġpr ayer
Ġpr ayers
ĠBl aine
Ġdef ens
iel der
Ġrep ellent
Ġ12 4
Ġ12 6
Ġ12 30
air ava
ts hire
Ġwell s
Ġdec ay
Ġdec iding
Ġdec rypt
Ġtrans mit
Ġtrans cribed
ĠAn at
ĠInd ivid
ĠInd igo
ĠInd ira
Ġ10 3
Ġmet iculous
Ġpres um
row th
ĠJohn s
Ġcre m
Ġcre st
Ġappe nd
Ġem etic
Ġem igration
Ġem peror
Ġem inently
ĠCon stitution
ĠAfter wards
ĠMay s
rol ight
ĠMan aging
ĠMan iac
ĠCl ose
ĠCl aw
Ġoper ator
Ġoper ators
Ġdisc ount
Ġdisc iple
Ġdisc rim
Ġdisc ourse
Ġdisc retion
Ġest ranged
ĠIs l
ĠIs abella
Ġbro omstick
Ġsm ok
Ġsm ug
Ġsm oking
Ġwar mer
ann er
ann ab
Ġbel ting
Ġprov ider
Ġadd s
Ġimp ly
Ġimp osed
Ġimp osing
ĠAd v
ĠAd mir
Ġexp ired
Ġexp osing
Ġcar rier
Ġcar penter
Ġcar ben
ĠMe chan
ĠMe asure
ĠMe cke
Ġshow case
ony ms
ony arat
Ġdep osed
Ġmill imet
Ġfeat her
Ġdist ress
Ġdist ract
Ġdist ortion
Ġdist racted
ĠCan yon
ĠCan aan
ĠCan atara
ep hedrine
und e
Ġconst rained
Ġconst ellation
Ġconst raints
Ġback ing
Ġback up
Ġcommand ments
Ġinf ra
pect ives
Ġvar ieties
Ġfe ast
Ġdevelop s
Ġmin im
Ġmin ors
Ġsuccess ors
Ġgr in
Ġgr as
Ġgr ille
get thoff
ĠGe ologists
ĠGe Force
Ġgun ports
Ġgun ners
ĠPro vin
Ġsl ated
Ġsl og
Ġsl ap
Ġsl ider
Ġlife boat
Ġann ulment
ĠFe ver
ĠFe od
Ġeng agements
Ġpartic les
Ġpartic ulate
Ġsupport ive
ĠFrench town
Ġant it
Ġant hem
eston es
Ġchild birth
ĠJan et
Ġclass room
Ġclass mates
Ġadv is
Ġadv isor
gest ed
Ġsix ty
ĠBe ch
ĠBe av
ĠBe autiful
ĠBe cht
ash ire
Ġgroup ings
ues ter
Ġph ones
Ġph ases
Ġperson ified
Ġmar ines
Ġmar ital
Ġmar rying
pr inz
pr ints
Ġhel l
Ġty ing
Ġins ign
Ġins ane
Ġins urrection
Ġins ulin
Ġins criptions
ĠTown s
Ġconc ession
Ġext inct
ĠBro s
ĠBro ck
Ġmen u
ĠSc ale
ĠSc ales
ĠSc ulpt
ĠSc enes
ĠSc outing
ĠSc andin
ĠSc ipion
Ġgu ess
Ġgu err
ĠPr ison
ĠPr inc
ĠPr ingle
ĠPr idiy
ĠPr imary
ĠFran co
ĠFran gl
ĠFran Ã§
ĠChrist gau
ah o
ĠEng raver
ll ium
Ġdown gr
Ġref ine
Ġref ining
Ġref lection
ĠIr vine
Ġexpl ores
Ġexpl oring
Ġexpl ode
Ġexpl odes
Ġche st
Ġche aper
cess ary
Ġbr ackets
oll en
anc he
anc ies
Ġport ra
Ġport raying
yn astic
ĠQ F
Ġrun ner
Ġrun ways
Ġhead dress
Ġhead gear
Ġfin ite
Ġmod elled
Ġ16 6
Ġ16 00
Ġdiffer ently
Ġed it
Ġed ges
Ġed itors
Ġdem obil
ĠTe xt
ĠTe getthoff
Ġdestroy s
Ġlist ener
Ġmed ley
Ġmed ius
Ġmed ioc
ĠYork er
ĠYork ers
elt i
elt acht
Ġav iators
ĠThere fore
Ġhand ic
Ġhand lers
ĠMon a
ĠMon te
ĠMon aster
Ġconf ined
Ġconf essed
Ġconf esses
Ġsim ultane
ĠNov ello
ĠPe oples
ĠPe ggy
ĠCol our
ĠCol borne
Ġsent iment
Ġcamp aigned
Ġshort ness
aster eose
Ġlast s
Ġ25 4
ĠPl ains
ĠPl aza
ĠJu anes
ĠJack sons
oint ed
Ġstar vation
Ġestabl ishes
ĠBr indisi
Ġstand out
ĠYou Tube
Ġdra ke
Ġdra ins
Ġdra ped
Ġhal t
Ġhal ides
Ġhal ftime
Ġrepl ies
Ġprof its
ograph ically
omb atant
Ġperiod ic
ĠZh ishen
iment ed
Ġlocal ised
Ġlocal ized
Ġfire power
Ġvis ually
Ġposs esses
ger ald
ik o
ik is
ĠNational ists
ĠBlack foot
Ġaddition s
Ġreported ly
ves ter
yl ene
Ġcell ar
Ġcult s
Ġcult ivated
ĠWill s
ĠWill ard
ĠWill oughby
isc ient
ards hip
Ġeffect ed
Ġeffect iveness
Ġdifferent iate
ĠGu i
ĠGu err
Ġreal m
Ġreal izes
ĠCent ennial
Ġsk irts
Ġpur ity
Ġpur ge
ĠWe ehaw
ĠEx it
ĠEx cept
ĠEx change
Ġcommun al
Ġcommun ist
Ġcommun icating
Ġequ ator
Ġmonth ly
Ġpresent er
Ġinflu x
ĠTw itter
ĠCar lyon
ĠReg ard
Ġ100 0
by terian
ym ing
ym oon
Ġfun nel
Ġprop ri
Ġprop elled
Ġprop osing
Ġprop ulsion
Ġtyp ographical
app ropri
Ġtri ad
Ġtri ump
Ġtri pty
Ġpress ured
ĠEgypt ologist
ĠAir space
ĠAir worthiness
ĠNo am
Ġlow land
ĠNe ver
ĠNe otry
ĠNe apolitan
ĠNe cklaces
Ġsug ar
Ġcur ren
Ġcur few
enc er
Ġband it
Ġgl ory
Ġgl uc
hen ge
hen jo
Ġste pping
Ġste chow
ĠSte am
Ġsol itary
mar ried
Ġdel aying
Ġdel ux
ĠAnt o
ĠAnt ib
ĠAnt igua
Ġexc ited
Ġexc use
Ġexc elled
Ġbattle line
Ġsuggest ions
Ġtro ut
Ġtro ff
Ġtro users
Ġfore most
ĠAm azon
Ġactiv ates
ring i
Ġpost rem
Ġgen ome
Ġgen ius
Ġgen etics
Ġgen uin
Ġlevel ed
rent ly
ĠIm medi
ĠIm won
Ġ23 3
ĠEm press
ne ad
Ġmid range
ĠFey nman
Ġ14 8
rie ved
Ġevery day
Ġevery where
Ġaff irmed
Ġcr ush
Ġcr ashed
Ġcr ashes
Ġrock et
ĠX L
Ġstat ic
Ġstat istic
Ġspecial ist
Ġspecial ised
Ġspecial ty
ĠHar per
ĠHar bor
ĠHar bour
ĠHar mon
ĠHar wich
ĠHar appa
ĠAct s
ĠAct ors
Ġnational ity
ĠEn o
ĠEn couraged
Ã¡ s
Ġpar at
Ġpar odies
Ġpar amount
Ġmix es
Ġmother s
ĠGA R
com m
ĠTru ely
ĠAss ault
Ġobs ervers
Ġz e
Ġz ur
ĠSp y
ĠSp it
ĠSp ur
ĠSp encer
ĠComp lete
Ġprim itive
Ġtotal ed
Ġtotal ing
Ġfront man
Ġfront ier
de hy
Ġwall ed
Ġbus h
Ġbus es
Ġborn e
Ġlight ened
Ġ28 1
Ġ28 6
Ġke V
Ġcirc ulate
Ġcirc uits
ĠTo o
ĠBatt les
Ġviol ating
Ġrespect s
Ġrespect ful
ĠAfric ans
reg or
ĠMc Il
ĠMc Nam
ĠEd ibility
Ġappoint s
Ġprogram ming
sh irt
ĠMusic ians
Ġconv inc
Ġconv icted
ĠRec overy
Ġident ifies
Ġhold ings
Ġrev ue
Ġrev ital
Ġrev isions
Ġrev olt
Ġread ily
Ġread iness
ĠLittle field
ĠDav is
Ġexcav ating
Ġaud ible
ĠSu ccess
ĠSu pper
ĠSu zuki
Ġnight mare
ĠArch ie
ĠArch aic
Ġcor p
Ġcor rupt
Ġcor rosion
Ġeight ies
ĠHol t
ĠHol land
ĠHol brook
Ġsex es
Ġval ens
Ġval ley
Ġmodern ized
Ġtre asure
ĠChar ge
ĠChar iot
Ġenc oura
Ġcoll ateral
work s
Ġdr ill
Ġdr illing
Ġdr astically
lect ing
lect ivity
Ġgrow ling
Ġ186 6
Ġfootball ers
ĠRegiment al
Ġmass ed
Ġmass ac
ĠCor rid
ĠCra w
sp oon
osaur ian
pec ific
Ġtor so
Ġsw ap
Ġsw ung
Ġcreat ure
ĠBar on
arent s
Ġinvest ed
ores cence
Ġsuper intendent
Ġrecogn ise
Ġ188 2
Ġinterview ing
ĠBrown rigg
ĠCo pe
ĠCo hen
ĠRock wild
ĠFl ag
ĠFl ags
Ġclos es
Ġmanag ing
Ġbreak up
Ġ29 0
ĠPar rott
ĠWild life
ĠWild heart
Ġdev ice
Ġdev ised
Ġdev otes
Ġdev otion
Ġve in
Ġroad way
Ġcoun sel
Ġcoun cill
Ġden y
Ġden im
Ġden ies
Ġden ial
Ġ190 4
Ġprocess es
Ġprocess ing
Ġfav oura
Ġfav ourite
Ġmot ivate
Ġmot ivated
Ġmot ivations
Ġhom olog
Ġhom eless
Ġhom osocial
ĠRes ort
ĠRes pond
ĠRes idency
ĠRes cue
Ġ31 3
Ġ31 6
Ġemploy ers
Ġpot assium
Ġ26 0
Ġsepar ation
onn y
Ġbomb ings
Ġtow ed
leg ate
Ġreve aling
Ġobject ed
Ġobject or
Ġsett ling
Ġdock s
Ġdock yards
Ġthreat ens
ĠUnion ist
Ġbur den
Ġbur sts
Ġpract ically
Ġpract iced
Ġhosp ice
ĠBel v
ĠBel ieve
Ġstation ary
Ġoccur ring
Ġoccur rence
Ġoccup ational
Ġfree ing
Ġmust ered
ĠPres byterian
ĠNathan iel
ĠAcad emies
Ġsil k
Ġsil ent
Ġpers ec
Ġpers pectives
ĠEl o
ĠEl iot
ĠEl sewhere
Ġintens ifying
Ġcop ious
Ġcop ying
Ġmer ging
Ġmer engue
Ġdram atically
ĠSl av
Ġelect roph
Ġelect rone
ĠFrank s
ĠFrank ie
ators hip
uck s
Ġsum moned
Ġcal ories
Ġclear ance
Ġbi as
Ġbi oche
Ġpred ict
Ġpred ators
Ġred dish
Ġred shirt
ĠCre ation
ĠCre osaurus
ĠCole by
ĠGl en
ĠGl obal
ĠGl ouces
ĠCatholic ism
Ġsaw mills
ĠSw an
ĠSw ord
ĠSw ift
ĠSw itch
ĠCr iminal
ĠFI ES
Ġeduc ate
Ġvisit or
Ġearthqu akes
Ġtar ps
Ġtar mac
Ġreb oot
Ġreb ounds
ĠHell enic
ĠPenn y
ĠWestern s
ĠDomin ic
ĠDomin ion
ĠDomin ica
ĠBrook e
ĠBrook lyn
Ġmus cled
Ġhapp ily
ĠTer rible
ĠTer kel
ĠCross roads
Ġexec uting
Ġtransfer ring
Ġminor ities
Ġparticip ants
ĠQu arter
ĠQu inn
ĠPhil ipp
ĠPhil osophy
Ġmach ines
Ġhor rible
ĠCapt ains
Ġlik ewise
ĠBut ler
Ġlet ting
Ġtem plate
ĠAb bes
ĠAb bey
ĠFleet s
ĠDef amation
ĠDef ender
Ġcycl ogenesis
ĠArchaeolog ist
Ġsat isfact
Ġemer ge
ĠMo or
ĠMo henjo
rain ian
ĠGo ing
ĠThat cher
Ġblood line
Ġtravel ers
Ġsouthern most
Ġachie ving
Ġachie vements
Ġcred entials
Ġfood s
Ġbirth place
Ġdraft s
Ġliter ally
Ġchap els
Ġdisp atch
Ġdisp utes
Ġimm igrant
Ġprep ares
Ġphot os
Ġphot ometric
Ġrisk s
ĠUN ICE
Ġsecret ive
Ġarchitect s
Ġmult ic
ĠAle ppo
ĠCal le
ĠCal gary
ĠCal amity
ĠNot ably
ĠOper a
Ġrh yming
ĠKrak Ã³w
Ġ185 1
Ġprem ium
Ġprem ature
Ġregard less
ĠGeoff rey
Ġdetail ing
Ġdi astereose
ĠBer ardi
ĠBer zelius
ĠFriend ly
Ġexam ine
Ġ44 3
Ġmethod ical
Ġfrag ile
Ġfrag illis
Ġmor ale
ĠRoad s
oph ys
oph ilic
Ġflo at
Ġsurf ing
Ġsurf aced
Ġpoly mer
Ġpoly chaet
Ġphys ically
Ġwood ed
Ġwood land
Ġfr ames
Ġball s
Ġball court
Ġball oons
ĠAv i
ĠAv is
ĠAv ant
ĠCivil ization
ĠBu oy
ĠBu ild
ĠPost war
Ġ36 1
Ġ36 6
Ġ300 0
olec ular
ĠLeon i
Ġbatter ing
Ġder ided
Ġder ogatory
ĠCast ing
Ġsevent y
Ġsevent eenth
Ġ184 1
Ġ184 5
Ġsyn onyms
to ire
ĠMer ry
ĠMer idian
Ġstri ps
Ġstri kes
ĠLi u
ĠUl jin
Ġnecess arily
Ġnecess itated
Ġcann ibalism
Ġvers us
Ġemb ell
Ġemb odiment
Ġdepart ments
Ġstreng then
Ġcost ume
Ġmat ures
ĠCons olid
ĠCons cription
Ġlog istical
ĠMuseum s
ĠPart s
ĠPart ition
Ġbox er
ĠTom as
ĠTom atoes
Ġlab elled
Ġattend ance
Ġsequ enced
ĠEv il
ĠEv ents
ĠEv olution
Ġplot line
Ġspeed s
Ġscreen writers
Ġinstit ute
Ġdiscuss ing
Ġlegisl atures
Ġcourt esy
Ġcelebr ations
Ġhop eless
ĠMil es
ĠPre acher
Ġunl ocks
ĠVar ious
Ġfinanc ially
Ġtur f
Ġtur uma
Ġtur mo
Ġbad ge
Ġpun ch
Ġpun ishing
ĠTurn ing
olid Ã¨
Ġcompl aining
Ġcompl ications
Ġcompl imented
Ġund ead
Ġund amaged
ĠHuman itarian
Ġpow der
Ġdomin ate
Ġdomin ance
Ġthick et
Ġthick ness
ĠSing le
ĠSing apore
ĠIron ically
vert ure
ĠRad etzky
Ġcompan ions
Ġacqu is
Ġpurs ues
ĠCarol yn
Ġcat al
Ġcat ast
Ġcat ches
Ġcat hedral
Ġcat apult
ĠSal le
ĠSal em
ĠSal mon
ĠSal amis
ĠMill ions
ĠMill ennium
ĠWater way
Ġdiss olved
Ġboard ed
Ġappl ic
aut s
Ġsal ts
Ġdyn am
Ġdyn astic
ĠTri o
ĠTri als
ĠTri umph
igg ins
Ġaltern ates
ĠDist ribution
Ġadmin isters
Ġdism asted
Ġdism antled
ĠCont rol
ĠCont rovers
Ġcomplex es
Ġconcent ric
Ġconcent rate
Ġpair ing
Ġmut ually
Ġmut iny
ĠSaint ly
Ġlif ting
ĠGreen wood
ĠLand space
ĠLand mark
ĠOff ensive
Ġshoot s
Ġ400 0
Ġjud ged
Ġspir its
ĠAlex is
uff s
Ġtim ed
Ġtim bers
Ġtax onomy
Ġtax onom
Ġbene volent
Ġpan ic
Ġpan oramic
Ġreform ed
Ġreform ing
ĠSam art
Ġnation ally
ĠMus ical
ĠMus ically
ĠGar rod
Ġang el
Ġang les
Ġperf ection
Ġ179 3
Ġ179 5
Ġincorpor ate
mon uclear
ĠÃ ĸsel
ĠÃ ľrÃ¼
Ġsulf ides
Ġflow er
Ġpain ters
Ġpick s
Ġmur dered
ĠJes y
Ġdemonst rate
Ġdemonst rates
Ġdemonst rations
Ġemphas ized
Ġemphas ising
Ġemphas ize
Ġfashion ed
Ġple as
Ġrepe at
ĠSer gio
ĠSpe ech
ĠBo onyarat
ĠPublic ation
ĠRam Ã³n
ĠRam illies
Ġheart s
Ġheart ed
Ġprohib iting
ĠEll ie
ĠEll erbee
Ġ180 6
Ġtend agure
ĠArm oured
Ġassemb le
Ġassemb lies
Ġtransl ators
Ġprotect ive
Ġimpact s
Ġimpact ing
Ġmarked ly
ĠItalian ate
bo ats
Ġwild ly
Ġcust om
ĠTra vel
ĠCorn ic
ĠMac mill
ĠBow en
ĠBow man
ĠBow ker
ĠRul ers
ĠLight ning
ĠKn ox
Ġkind s
ĠReview s
ĠYe ah
ĠCongress man
nown st
Ġir is
Ġir res
Ġir rational
Ġtall est
Ġaim s
Ġbrick s
Ġmem oir
ĠBre nd
ĠBre it
ĠBre thren
rab arti
ĠInt ifada
ĠInter mediate
Ġupper parts
ĠVir chow
Ġopt ed
Ġopt ional
Ġlot tery
ĠWil tshire
ĠDen ch
ĠDen mark
Ġdepend ed
Ġdepend ent
Ġdepend ents
Ġexhib itions
Ġ33 0
Ġ33 3
Ġresemb lance
Ġ183 0
Ġpoet ical
Ġsymb ols
Ġviewers hip
Ġescort ing
Ġmeasure ment
Ġmurder ing
Ġox en
Ġpay ment
Ġpay ments
roph agan
roph obic
ĠApp le
ĠApp legate
ĠMore over
ĠBart ov
ĠPak i
ĠGame play
ĠKh alid
Ġ34 0
Ġprec ise
Ġprec aution
Ġprec isely
Ġsched ules
Ġoutbreak s
ĠBroad hurst
Ġgoal tender
Ġcollabor ators
ĠEntertain ers
Ġmis fortune
Ġhair cut
ĠTre vor
ĠAst ro
ĠSch mid
ĠSch uester
ĠSand y
ĠSand man
ĠFer mi
ĠFer gus
Ġkil ograms
Ġscient ifically
Ġguard ed
Ġguard ian
Ġcyt arab
Ġlabel ed
rid ged
Ġess ay
Ġpu pp
Ġdom estically
Ġlo ose
Ġlo oming
Ġge ared
Ġge ometry
ĠDou g
ĠJer maine
Ġexcept ions
Ġ181 7
Ġmanufact ures
Ġmyth ic
Ġmyth ology
Ġfunction ing
Ġsteam er
Ġconnect or
Ġbenef its
Ġsen ator
Ġpen insula
Ġpal er
Ġpal isade
Ġmort em
Ġmort ally
Ġdict ated
Ġdict atorship
ĠTour ism
ĠSound Scan
ĠMic key
ĠMic rolight
ĠMart yn
ĠBh airava
ĠBh ringi
ĠOp in
ĠOp ening
berg en
ĠKur ds
Ġamb ul
Ġcolumn ist
Ġdisturb ing
ĠDaniel le
Ã¨ le
Ġwalk ed
Ġburn s
Ġdark ening
Ġrect iline
Ġeigh teenth
ĠGram mer
ĠGram mar
Ġanaly ze
Ġanaly sts
ĠEven ing
Ġ54 9
Ġ57 6
Ġundert aking
Ġweight ed
Ġinterse cts
Ġ98 0
Ġhyd ro
Ġhyd rophobic
Ġcondition ing
Ġsoul s
Ġmotor ists
Ġmotor cycle
Ġconduct ing
Ġfruit bodies
mod o
Ġign oring
Ġsle nder
Ġswe eping
Ġble nding
Ġbank rupt
Ġinn ings
Ġpark ing
Ġpath way
Ġpath ogenic
Ġha unted
ĠCec il
Ġlay ered
Ġbeach front
Ġgrand mother
ims by
ĠPop o
ĠField s
ĠLiber ators
Ġhem lock
Ġcontain er
Ġ51 2
Ġspect rograph
Ġ97 0
Ġ97 3
Ġimprov ement
Ġimprov isation
Ġimprov isational
ban jo
gar ia
Ġsand stone
Ġsort ied
Ġwars hip
Ġdial s
ĠMa ureen
ĠBur man
ĠBur ied
ĠBern stein
ĠBern ardo
Ġgas oline
ĠPass age
ĠRos yth
ĠRos acarn
Ġshore line
ograp hed
Ġspeak s
Ġconsist ency
Ġdecor ations
Ġcargo es
Ġsoundtrack s
ĠMagn a
Ġkilomet re
Ġpsych ic
cy cl
nes day
pic uous
Ġfer ried
Ġfaith ful
Ġbass ist
Ġdrum ming
ĠCab inet
ĠRem ember
ĠWal pole
Ġrum or
ĠKim my
Ġkings hip
Ġunion ist
Ġunion ists
Ġresign ing
Ġ49 0
Ġroof s
Ġevac uate
Ġunderst ated
Ġsurvey ing
Ġhighl ighting
Ġinstrument ation
Ġstrateg ies
Ġrenew able
Ġinspir ations
Ġinspir ational
Ġmoral itas
ĠFrancisc an
Ġplatform er
Ġcosm opolitan
Ġfreed men
Ġmint age
Ġeth os
ĠOl ivia
ĠOl ajuwon
Ġrob ust
Ġpreced ent
Ġconsult ing
Ġdefin ite
Ġrestrict ive
Ġorganiz ers
Ġpatrol ling
Ġbombard ed
Ġproblem atic
Ġnarrow er
ĠRevolution ary
Ġsymbol ising
Ġtable bases
Ġtheat ers
Ġsn ipp
Ġsan itation
Ġsalv o
Ġfix ture
Ġinh abited
Ġpric ed
Ġhot el
ĠTor re
ĠTor quay
ĠAri kamed
Ġisol ation
ĠWrit ers
ĠGr imes
ĠGr imsby
ĠJenn y
rif ugation
ĠStone henge
ĠVer onica
Ġ59 0
Ġrow lock
Ġroyal ties
Ġconsc ript
Ġ62 5
Ġflank ing
Ġacad emics
ĠMarsh all
Ġexperiment ed
Ġexperiment ing
ĠDesign er
Ġbillion aire
ĠAngl ican
Ġexpedition ary
Ã¶ r
Ġtort ured
Ġhall s
ĠBoy d
ĠBald win
ĠHon our
ĠHon jou
ĠHon olulu
ĠRand om
ĠGamb ier
Ġalleg ory
Ġconsec rated
ĠNich ols
ĠDo ctors
ĠAnn als
ĠConn acht
ĠConn ectic
Ġobl iter
ĠOrgan isation
Ġfold ed
Ġbul let
Ġmess ages
ĠSym metrical
ĠCub s
Ġlit ter
Ġnick el
Ġnick named
Ġnurs es
ĠBalt ic
ĠBalt odano
Ġgang ster
Ġgross ed
ĠPier ce
ĠFall en
ĠJun un
ĠJun ior
Ġshif ts
ĠVan stabel
Ġintr igue
ĠSeas ide
ĠLeg isl
Ġ118 0
Ġlands lides
Ġsket ches
ĠChemical s
ĠGeorg iev
ĠWilliams port
Ġsuperv ised
Ġsuperv isor
ĠTerrit ories
Ġneighbor hoods
Ġrhythm ic
Ġculmin ated
bal ance
pat ient
pat itis
Ġrib bon
Ġrib osome
Ġsam pled
Ġsam pling
Ġsoci etal
Ġwrong ly
Ġwrong do
ĠSil ent
ĠCam ille
ĠCarl ock
Ġnest ing
ĠHit oshi
Ġdeleg ation
ĠEleph ant
Ġexclud e
Ġexclud ing
Ġshar ply
Ġru pt
ĠUr ban
ĠKenn et
Ġclin ic
Ġclin ically
Ġencl osures
Ġimpl ications
Ġunderw ater
Ġdecre ases
ĠCommun ist
Ġprompt ly
Ġsitcom s
Ġsolid arity
ĠAntiqu ity
ĠAntiqu ities
ĠMcG regor
Ġswallow ing
Ġmerch ants
Ġstrik er
Ġbehavior al
ĠPalestin ians
Ġcrowd s
gu ard
Ġtank ers
Ġfur iously
Ġbra wl
Ġreven ue
Ġthin ly
ĠCult ure
Ġliqu or
ĠMes hugg
ĠBad en
ĠHun ting
ĠHay es
ĠHart ford
ĠHard y
ĠPil ots
ĠPot i
ĠPot entials
ĠRoc he
ĠRoc hes
ĠLy ric
ĠLyn ch
Ġvo ices
opl asm
Ġexhaust ion
Ġexerc ise
Ġexerc ises
ĠUs ing
ĠUnt old
Ġunf amil
Ġcomprom ised
Ġdisband ment
Ġassess ment
Ġfled gling
Ġtransition ed
Ġtransition al
Ġvisual s
Ġequal ize
Ġprofession als
Ġerr one
Ġerr atic
Ġcorrespond ence
Ġsuperior ity
Ġhomosexual ity
Ġrenov ations
Ġcalc ulate
Ġcalc ulations
ĠAppe ar
ĠAppe al
ĠJulian ne
ĠDahl en
Ġalleged ly
Ã¤ ll
Ġut il
Ġut ility
Ġut terly
Ġurg ing
Ġcod on
Ġbull f
Ġham let
Ġhol ed
Ġhol es
Ġhind ered
Ġhind rance
Ġnob ody
ĠId a
ĠId aho
ĠMu ang
ĠMu enich
ĠBir ger
ĠBurn er
ĠBurn ey
ĠHu ang
ĠHu erta
ĠPers ian
ĠRon ay
Ġalter ation
ĠDisc ography
Ġproc reation
ĠEvery one
ĠOak s
Ġvow ed
Ġvow els
Ġorn ith
Ġorn aments
Ġchrom atography
Ġplate lets
Ġker atin
Ġuniform s
Ġcompar ison
Ġcompar atively
Ġflu id
Ġ99 6
Ġobst ructions
Ġaddress ing
Ġterror ism
Ġfeed s
Ġconfront ations
Ġpropag andist
Ġillust rates
Ġillust rating
Ġathlet ics
ĠMysore an
ĠShakespeare an
iÃ¨ re
Ġwel terweight
Ġblow s
Ġhun ter
Ġreun ion
ĠAz ure
ĠSet ting
ĠCas a
Ġlob by
Ġnut rition
Ġnav igation
ĠMand el
ĠPoint s
ĠRom antic
ĠRom ero
ĠRivers ide
ĠFre eway
ĠFre eman
ĠDown s
ĠJup iters
Ġproport ional
Ġcomed ic
Ġexcess ive
assad ors
Ġadul thood
Ġdisag reement
Ġdescend s
Ġdescend ant
Ġovert ime
Ġovert urned
Ġspur red
Ġflash back
Ġendors ed
Ġapprec iate
Ġdoctor ate
Ġpriv ile
Ġpriv ately
ĠAnth rop
Ã©t at
ĠBrad ley
Ġskill ed
ĠPhys ics
ĠCooper ation
Ġsatisf ied
Ġphysic ian
ĠJacob in
je ctions
Ã¢ ne
het to
Ġinfer red
Ġinhib iting
Ġinhib itors
Ġmock ery
Ġmush rooms
ĠSpec ies
ĠCarn eg
Ġlat itudes
Ġloud spe
ĠMVP s
Ġstyl ish
ĠNi all
ĠNi agara
ĠNat araj
ĠLud wig
ĠDiss enters
ĠJud i
Ġexch anges
ĠKnow les
ĠVers o
Ġmanifest ation
Ġscar ce
Ġscra ps
Ġsuppl ier
Ġdoz ens
Ġefficient ly
Ġbreed s
Ġprincip ally
Ġcrafts man
Ġcrafts men
Ġphenomen a
book s
ucc io
Ġtens ion
Ġtens ions
Ġtrick s
Ġaro used
Ġwet land
Ġfant astic
ĠTang yin
ĠAut om
Ġlig ament
Ġnons pecific
ĠHamp stead
Ġstib ine
Ġstib ium
ĠWick es
ĠWinds or
ĠGa eltacht
Ġconqu ered
Ġansw ered
ĠJess ica
Ġyield s
Ġscr atch
Ġoutf it
Ġoutf its
Ġattrib uting
Ġattract s
Ġfilmm aking
Ġsubstit ution
ĠLev y
ĠLead eth
Ġenth roned
ĠAnne ke
Ġdepos it
Ġdepos its
Ġinfl ated
Ġgray ish
ĠSche mb
Ġpersu ade
ĠFinn ish
Ġabandon ment
ĠJacqu etta
Ġrecommend ation
Ġrecommend ations
ĠNichol son
Ġastron omical
Ġastron auts
down s
Ġtum ulus
Ġther monuclear
Ġinaug urated
Ġdream s
Ġho oves
ĠTrib une
ĠSic ily
Ġnic he
Ġnic ely
ĠMat ters
ĠBul garia
ĠBox ing
Ġstret ches
uls ive
ĠFif teen
ĠLan ey
ĠLan xess
ĠJing ling
Ġdece it
ĠOz awa
occ up
Ġshop ping
Ġrid iculous
Ġrac ial
ĠKey s
ĠKey es
onder osa
Ġrelie ve
Ġconspir acy
Ġamend ment
Ġsynd icate
ĠAdult s
Ġcomplement ary
Ġhandb ags
Ġreplay ed
Ġdeton ation
Ġcourty ards
Ġdeliber ate
Ġafford able
Ġcease fire
Ġironclad s
ĠBoliv ia
Ġcongreg ations
ĠOccup ational
Ġtent atively
Ġwick ed
Ġwick ets
Ġfurn iture
Ġdimens ions
ĠAS I
ĠAS TRA
ĠSk ies
ĠSher idan
ĠSnow y
Ġlust rous
ĠBab e
Ġstall ion
ĠPur pose
ĠPur cell
ĠRu iz
ĠRash id
ĠGang adhara
Ġconce ive
Ġcontend s
ĠLang staff
ĠOtt awa
Ġsudden ly
ĠStat istics
Ġrecount s
Ġrecount ing
Ġdisemb arked
ĠRef lections
Ġ58 8
Ġaftersh ock
Ġspar row
Ġconsort ium
Ġearn ings
Ġbuck et
ĠLegend s
Ġelector ate
Ġreprodu ct
Ġtransplant ation
Ġinstruct s
Ġinstinct ively
Ġslop es
Ġphil osophy
ĠExpl aining
ĠExpl oration
Ġbarrel s
Ġposthum ous
ĠInflu ence
ĠInflu ences
Ġgrey hound
ĠMethod ist
ĠPrec inct
Ġconstitu ency
Ġjudg ment
Ġjudg ement
ĠApost olidÃ¨
Ġconfirm ation
Ġinnov ative
Ġidol atry
Ġmelod rama
Ġsanct uary
Ġsanct uaries
Ġflex ibility
Ġhieroglyph s
Ġtart ar
Ġtart rate
Ġtorn adoes
rell a
isp here
Ġban ished
Ġintend s
Ġintend ing
Ġpian o
asm ine
ici ency
Ġdaco it
Ġhym n
ĠTar get
Ġreass igned
Ġthread s
ĠSyl via
ĠCou rier
Ġnom inal
Ġnom adic
ĠBan erje
Ġgast ron
Ġforg ive
ĠHold ings
ĠHold sworth
ĠGaz i
ĠLiter ature
Ġseap lane
Ġvig ilant
Ġvass al
ĠUk raine
ĠUk rainian
Ġnotice able
ĠStruct ures
Ġuncom mon
Ġunjust ly
Ġye ast
Ġye ah
Ġadmir ation
Ġadmir als
Ġresid ues
Ġspokes person
Ġremuner ated
Ġeval uate
Ġeval uating
Ġamalgam ation
Ġamalgam ated
Ġintercept ed
Ġquot ations
Ġindirect ly
Ġinstru ctions
Ġsmugg ling
Ġmini ature
Ġ112 1
Ġantagon ist
Ġinspect ing
ĠBrother s
ĠWein stein
ĠWein berg
Ġelig ible
ĠSuff ering
Ġaeropl anes
ĠErn ie
Ġsacram ents
Ġsacram ental
Ġincorrect ly
Ġodor atus
ĠPopM atters
Ġcrystall ography
Ġdisappoint ed
Ġdisappoint ment
haw k
Ġion izing
Ġtal ents
Ġtal ented
Ġsab ot
Ġfulf ill
Ġbran ched
Ġbran ches
Ġincl ination
Ġdrown ed
Ġdimin ished
ĠSac irbey
Ġnit rogen
ĠMD T
ĠBian jing
ĠBio inform
ĠHills boro
Ġstabil ized
ĠPle asence
ĠFal mouth
ĠFried man
ĠWald rons
ĠWadd on
ĠWadd ell
ĠNap les
ĠNap oleon
ĠLear ned
ĠLanc aster
ĠLanc ashire
ĠLaf itte
ĠLaf ayette
Ġsew age
Ġseem ingly
ocaly pse
Ġplaster ed
ĠKat rina
ĠKal achuris
ĠChul achomkl
Ġunoff icial
Ġunoff icially
ĠVis ual
ĠVik ings
Ġintellig entsia
Ġintimid ated
pert ory
Ġscre ens
Ġscutt led
Ġregurg itation
Ġamaz ing
Ġsubordin ate
Ġmetab olic
Ġmetab olism
Ġartifact s
Ġ134 00
ĠBeau f
ĠMonth ly
Ġaffil iated
Ġharass ing
Ġcalib re
Ġsatir ical
Ġpolythe ism
Ġpolythe istic
Ġweakness es
Ġemotion ally
ĠBraz oria
ĠTaiwan ese
Ġmathemat ical
Ġmathemat ics
Ġliveli hood
Ġliveli hoods
Ġtherm ody
Ġunexpected ly
ĠEnvironment al
Ġsyncret ism
Ġsyncret ized
Ġreintrodu ced
ĠRestaur ant
ĠRestaur ants
Ġsubdiv ided
Ġtran sept
Ġtheolog ians
Ġfus elage
Ġdil ap
ĠTow ards
ĠTip u
Ġreward ed
Ġrecept ors
ĠAten ism
ĠSol omon
ĠSold ier
ĠCN N
ĠCran field
ĠCass ino
ĠCoff in
Ġlith ium
ĠMult iple
ĠBes ides
ĠPra ir
ĠPasc ual
ĠPaddy wack
ĠRif le
ĠRush ie
ĠFreed om
ĠWed nesday
ĠWool ley
ĠGiz modo
ĠNC AA
ĠNP PL
ĠNZ EF
ĠNub ia
ĠNix on
ĠLam bert
ĠLangu age
ĠDoc ument
ĠDock yard
ĠDigg le
ĠJar vis
ĠES PN
Ġvib rant
Ġexempt ion
Ġshower ing
ĠKare em
ĠChak rabarti
ĠVel peau
Ġbutt ocks
Ġresur rect
Ġcompens ation
Ġoverth row
Ġscen ario
Ġendg ames
Ġsubsc ribed
Ġinterch anges
Ġretard ants
ĠWheel ers
ĠJoh annes
Ġmonothe istic
Ġimperson ation
Ġdepress ions
ĠProper ty
Ġinspe ction
Ġguarant ee
ĠFrances co
Ġrefres hed
ĠColomb ian
Ġpostc ards
Ġerupt ed
Ġparas it
Ġdrunk en
Ġsuperf iring
Ġaerob atics
Ġphotographer s
Ġpolypept ide
Ġillum inated
Ġuncover ed
ĠValent i
Ġautobi ography
Ġundet ectable
Ġneighb ours
Ġsolemn ly
ĠDynam o
Ġbench marks
Ġorient ation
Ġconjug ated
ĠPhysic ist
Ġhypothes is
Ġdishon est
Ġhazard ous
Ġinflamm atory
Ġkidnapp ing
Ġtelecommun ication
Ġsobri ety
Ġdormit ories
Ġspontane ous
Ġembarrass ed
Ġaf raid
Ġais le
Ġslee ves
Ġoce ans
Ġcel estial
Ġcull ing
Ġfart her
Ġfram ework
Ġfract ure
Ġbrit tle
Ġbapt ismal
Ġinex perienced
Ġinacc urate
Ġpav ilion
Ġpix ie
Ġpenn ed
Ġmatt ed
Ġdair y
Ġree lection
ĠAff airs
ĠSO PHIE
ĠSau rophagan
ĠCed ar
ĠCow an
ĠCens or
ĠMater ial
Ġgel atin
ĠHus n
ĠHoff man
ĠPun jab
ĠPall ad
ĠPiz hi
ĠPars ons
ĠProp osed
ĠPtole my
ĠRol lefson
ĠRab bi
ĠRout es
ĠRaw son
ĠFitz gerald
ĠFlet cher
ĠWol ver
ĠWilm ington
ĠWither spoon
ĠGS C
ĠNer gal
ĠLie berman
ĠDie go
ĠDund ee
ĠJab bar
ĠOwn ers
Ġchron ology
ĠKw ame
ĠKron prinz
Ġupt empo
Ġkin ase
Ġnotor iously
ĠStav ro
Ġunle ashed
Ġclover leaf
Ġcontam inated
Ġcontempor aries
Ġadm ired
Ġadorn ed
Ġresh uffle
Ġresident ial
Ġcompuls ory
ĠThous and
Ġrecycl ed
Ġdisg ust
ĠReich s
ĠYs abel
ĠYong dok
Ġreluct ant
Ġpec uliar
Ġincon clusive
Ġflaw ed
Ġsubgen re
ĠMarqu ess
Ġquir ky
Ġapprent ice
Ġaccur acy
ĠBlaz ers
ĠIndones ian
Ġmethyl ene
Ġinstruction al
ĠClay ton
Ġimpot ence
Ġimpract ical
ĠMegam ind
Ġbackst ory
Ġminig ames
Ġannot ata
Ġantim on
ĠBever ly
Ġmarg inal
Ġrestruct uring
Ġ167 9
ĠPoly mer
Ġhalogen ated
ĠHispan iola
ĠGuitar ist
ĠExam ples
ĠExcav ation
Ġbests elling
ĠAcceler ated
Ġbarb ettes
Ġglam orous
ĠAmb assador
ĠChestn uts
Ġfundra ising
ĠMcR ae
ĠTradition al
ĠBellev ille
Ġpilgr ims
ĠCrim int
ĠAbd ul
Ġenvision ed
ĠLaun cher
Ġembry os
Ġauthent icity
ĠMyk elti
Ġundes irable
Ġextravag ant
Ġacquaint ance
Ġcamer as
Ġdigit ally
ĠMaury as
Ġaggreg ate
Ġtorto ise
Ġoblig ed
ĠHawai i
ĠColling ridge
Ġcongress ional
Ġincompet ence
Ġnutri ent
Ġnavig ational
Ġanthracy cline
Ġmalign ant
ĠNatal ie
Ġmacrom olecules
Ġmathematic ian
Ġineffect ive
ĠVienn a
Ġhorizont al
Ġpseudo ephedrine
ĠChaluky an
ĠChihuah ua
ĠRashtrakut as
Ou verture
bek nownst
dor f
fords hire
limin ary
pul ch
rimin ate
zyn ski
Ġul nar
Ġtab ernacle
Ġape x
Ġazir idines
Ġsaus age
Ġcrou ch
iscl iffe
Ġfron ts
Ġfuck ing
Ġbru ising
Ġbery llium
Ġbipl ane
Ġpock et
Ġpne umonia
icol ations
Ġmour ning
Ġmalle able
Ġmito chond
Ġdol men
Ġdess erts
Ġhone ymoon
ĠTac uma
ĠTues day
ĠTempt ations
ĠTraf algar
ĠTRI GA
ĠTaver n
ĠTrott iscliffe
ĠTouss aint
Ġreper toire
ĠSaj id
ĠSoci eties
ĠSude ikis
ĠSomm e
ĠSemit ism
ĠCunning ham
Ġlesb ian
Ġecc entric
Ġnonc ombatant
ĠImber t
ĠIBE A
ĠIUC N
ĠIwam oto
ĠMurch ison
ĠMiam i
ĠMolt ke
ĠBres lau
ĠBism arck
ĠBisc ay
ĠBiring uccio
ĠBols hevik
Ġgard ens
Ġasiatic us
ĠHav illand
ĠHog lan
ĠHond uras
ĠHerman n
ĠHatter as
ĠHundred s
Ġstip ulated
ĠPemb a
ĠPyn chon
ĠPengu ins
ĠPesc ara
ĠPongs ak
ĠPsyc he
ĠRough ly
ĠRames h
ĠRys her
ĠRhen ish
ĠRiek ki
ĠFoc using
ĠFland ers
ĠFix ed
ĠFaul kner
ĠFrid ay
ĠFRO G
ĠWai ouru
ĠWoff ord
ĠGiers bergen
ĠGanes ha
ĠGaud ium
Ġalbe it
ĠNurs ery
ĠLik ewise
Ġatroc ities
ĠDise ase
ĠDomen ici
ĠDraf tees
ĠDasy at
ĠJov i
ĠJaw orski
ĠJumb o
ĠJagu ar
ĠJemmapp es
Ġseiz ure
ĠEpic loud
ĠEffect s
ĠOsw ald
ĠOye banjo
ĠInters cope
Ġexagger ated
Ġruth less
ĠUsh ant
tebr ates
ĠKild are
ĠKaid a
ĠKhent y
ĠKonk an
ĠKGU L
ĠKartike ya
Ġkoh l
Ġunaid ed
Ġunident ified
Ġunne cessary
Ġunhar med
oglob in
ĠVID EO
ĠVingtiÃ¨ me
ĠVuthip hong
Ġadjo ining
Ġpermiss ible
ĠHebe i
Ġenrol ment
Ġenerget ic
ĠThreat ened
Ġdislik ed
ĠYah oo
Ġspeec hes
ĠUnlim ited
Ġupris ings
ĠSegers Ã¤ll
ĠZait sev
Ġkneel ing
Ġinterrel ated
ĠShrop shire
ĠShadd ad
Ġwhereup on
ĠLeukem ia
ĠLeSports ac
Ġindef initely
Ġpolys acchar
Ġpolym ers
Ġapocaly ptic
ĠIndivid ual
ĠManiac s
Ġdiscrim ination
ĠAdmir als
Ġcarben oid
Ġmillimet re
ĠBecht ler
Ġguerr illa
ĠPridiy athorn
ĠFrangl en
ĠFranÃ§ ois
Ġmedioc re
ĠMonaster y
Ġsimultane ous
ĠGuerr ero
ĠWeehaw ken
Ġequator ial
Ġtriump hed
Ġtripty ch
ĠNeotry gon
Ġstechow i
Ġdelux e
Ġpostrem ission
Ġgenuin ely
ĠImmedi ately
ĠImwon jin
dehy de
ĠMcNam ara
Ġencoura ges
ĠRockwild er
ĠWildheart s
Ġfavoura ble
Ġelectrone g
Ġbioche mical
ĠGlouces tershire
ĠUNICE F
Ġdiastereose lectivity
Ġpolychaet e
Ġturmo il
ĠÃľrÃ¼ mqi
ĠBoonyarat kalin
Ġtendagure nsis
ĠMacmill an
ĠSchmid t
ĠFergus on
Ġcytarab ine
Ġrectiline ar
ĠRosacarn is
ĠArikamed u
ĠConnectic ut
Ġwrongdo ing
ĠMeshugg ah
Ġunfamil iar
ĠCarneg ie
Ġloudspe aker
ĠNataraj a
ĠApostolidÃ¨ s
ĠBanerje a
ĠChulachomkl ao
ĠSaurophagan ax
2 3
9 84
B A
B I
B L
B O
B U
B b
B ri
B ron
C U
D I
D T
D onn
F C
G ame
L IE
M B
M CA
N W
N Y
N e
P P
P W
R C
S F
S ty
S ullivan
T S
T alk
T unes
T ML
U NY
V A
V ision
V II
W alk
X VI
a qu
a ane
a unch
b u
b ore
b iz
b rough
b ons
b ull
b ness
b ration
b eats
b anks
b ags
b uster
b rained
b Ã¨le
c u
c ar
c as
c ol
c ow
c od
c ies
c op
c ord
c our
c ical
c ons
c ased
c ational
c row
c und
c Ã©
c au
c rew
c ology
c hens
c orders
c ÃŃa
c uffs
d itt
d ane
d iving
d ox
d dler
e use
e ters
e ev
e gr
e fficient
e ben
e bec
e cked
e veloped
f ed
f al
f ur
f ard
f ish
f ight
f ork
f man
f orth
f und
f ax
f elt
f ried
f lies
f lix
f ortunately
f onte
f ielder
g t
g ic
g ro
g ly
g ov
g ame
g ia
g ie
g ib
g ons
g ang
g way
g ement
g ged
g ency
g rown
g range
g otten
h p
h on
h and
h ill
h ore
h all
h ard
h og
h met
h ouses
i u
i pe
i pt
i ast
i ens
i ative
i ys
i ott
i ji
i ya
j et
j oys
j da
k ing
k ov
k ap
k iss
k ara
k omm
k eth
k aryotes
k hmet
l i
l o
l as
l ig
l ain
l ong
l ian
l ight
l ough
l man
l az
l led
l ank
l oyal
l isted
l antic
l itz
l oney
l oric
l ocks
l aved
l ii
l eness
l hin
m al
m ic
m us
m ain
m ich
m ast
m ons
m ind
m itt
m ised
m inal
m aking
m eal
m arked
m itting
m etto
n ation
n ce
n ia
n ered
n ets
n ik
n ected
n aire
o it
o ing
o ant
o ge
o ire
o ft
o als
o iet
o hist
o iced
o ala
o amer
o ichi
p en
p al
p as
p ents
p rop
p owers
p ension
p arents
r Ã
r ill
r ath
r ived
r ise
r ically
r uth
r ights
r ades
r asion
r era
r wh
r acent
r aco
r unner
s ay
s et
s ides
s ky
s bury
s burg
s burgh
s unami
t a
t w
t re
t ra
t urn
t ail
t ics
t ures
t hel
t eller
t hens
t ailed
u i
u il
u ity
u pp
u ish
u illa
u yl
v i
v oy
v ents
v ins
v ances
v olution
v Ã¡n
v iable
v idia
w y
w er
w old
w yn
w aff
w itz
w ester
w orms
x e
x ed
x id
x ter
x ian
x imate
y x
y st
y ang
y led
y ane
y ll
y elin
z ent
z ong
z art
z one
z ae
z Ã¡
z uel
z ana
z ona
z antine
ª tre
± o
´ me
Ã ªtre
Ã ±o
Ġ >
Ġ rou
Ġ ire
Ġ umb
Ġ ump
Ġt on
Ġt ac
Ġt us
Ġt ill
Ġt ally
Ġt rench
Ġt abl
Ġt read
Ġt uss
Ġt oned
Ġt iles
Ġt iny
Ġt ips
Ġt apes
Ġt apers
Ġt onal
Ġt andem
Ġt sunami
he a
he le
he id
he av
he red
he ating
he ars
he my
he atre
he cked
Ġa j
Ġa il
Ġa rom
Ġa pt
Ġa ure
Ġa fore
Ġa ven
Ġa field
Ġa iling
Ġa kin
Ġa venge
in or
in ter
in te
in ian
in age
in ence
in ite
in ied
in ational
in ck
in ople
in ative
in ness
in yl
in cent
in ville
in rich
Ġthe ra
er ion
er ial
er ie
er oy
er ters
er ries
on ing
on ation
on ch
on uc
on ants
re b
re x
re nd
re ve
re hen
Ġs ly
Ġs id
Ġs ord
Ġs ap
Ġs ake
Ġs ings
Ġs its
Ġs ages
Ġs aving
Ġs ights
Ġs ne
Ġs que
Ġs enses
Ġs overe
Ġs idel
Ġs overeign
ed o
ed s
ed icated
Ġo l
Ġo re
Ġo ily
Ġo mission
Ġw om
Ġw ig
Ġw ra
Ġw op
Ġw ip
Ġw ound
Ġw are
Ġw aking
Ġw ording
Ġw ux
nd s
nd all
nd ae
at ial
at ov
at ens
at ars
at oon
at eless
at anic
at aka
at osaurian
at lantic
it le
it el
it am
it ron
it ative
it uary
it ched
it rack
it igation
it iveness
it heatre
or ig
or ical
or oss
or ium
or por
or ification
or ption
or ously
or rington
or ussian
or rh
Ġc ad
Ġc av
Ġc ess
Ġc ran
Ġc land
Ġc ass
Ġc ater
Ġc ree
Ġc oy
Ġc ents
Ġc ages
Ġc ats
Ġc ush
Ġc rane
Ġc rania
Ġc xd
en os
en ong
en ber
en ium
en za
is y
is he
is an
is ure
is ual
is bon
is abeth
is dale
es is
es es
es la
es thood
es mith
Ġf u
Ġf ro
Ġf ian
Ġf ost
Ġf are
Ġf ake
Ġf use
Ġf att
Ġf iss
Ġf end
Ġf oss
Ġf ences
Ġf rict
Ġf iber
Ġf aint
Ġf action
Ġf using
Ġf itness
Ġf ishes
Ġf anned
Ġf ables
Ġf encing
Ġof t
ar r
ar in
ar on
ar re
ar ash
ar ried
ar ms
ar ves
ar iat
ar ito
ar atus
ar ishvara
Ġb at
Ġb ing
Ġb ic
Ġb id
Ġb od
Ġb ri
Ġb ov
Ġb ite
Ġb iz
Ġb ail
Ġb ath
Ġb arn
Ġb ury
Ġb row
Ġb ony
Ġb oun
Ġb ait
Ġb aff
Ġb iting
Ġb ids
Ġb ounded
Ġb ows
Ġb itch
Ġb inds
Ġb unch
Ġb acon
Ġb orough
Ġb unker
Ġb achelor
Ġb odied
Ġb othered
Ġb anner
an am
an ur
an ov
an ine
an ical
an ized
an ont
an ha
an ui
Ġin k
Ġin ad
Ġin ver
Ġin se
Ġin action
Ġin active
Ġin quiry
Ġin appropri
al an
al us
al ph
al ted
al yn
al ym
al atable
al achian
al dehyde
Ġp a
Ġp ad
Ġp iv
Ġp ir
Ġp ity
Ġp our
Ġp ond
Ġp anc
Ġp aces
Ġp arliam
Ġp acing
Ġp arked
Ġp ipel
Ġp aved
Ġp ornography
Ġp onderosa
ing led
ing ford
ing yi
as is
as ad
as id
as ive
as ions
Ġto e
Ġto ys
Ġto pping
Ġto ddler
ic hes
ic ier
ic hel
ic ature
ic uled
ic iary
ic isms
ro id
ro se
ro be
ro aches
Ġm l
Ġm u
Ġm es
Ġm ul
Ġm os
Ġm ast
Ġm ell
Ġm ice
Ġm ates
Ġm ined
Ġm ars
Ġm oot
Ġm oss
Ġm isc
Ġm ounds
Ġm essed
Ġm owers
Ġm alls
Ġm oust
Ġm arsh
Ġm igrant
Ġd an
Ġd im
Ġd unk
Ġd op
Ġd ome
Ġd ose
Ġd ans
Ġd ives
Ġd ash
Ġd ried
Ġd ining
Ġd ances
Ġd ung
Ġd umb
Ġd rying
Ġd how
Ġd aring
Ġd irt
Ġd itch
Ġd unes
Ġd inosaur
Ġd urable
Ġd ateless
Ġh i
Ġh p
Ġh id
Ġh ates
Ġh ath
Ġh ug
Ġh ool
Ġh omet
Ġh atch
Ġh ung
Ġh uck
Ġh iring
Ġh airs
Ġh allow
Ġh itting
Ġh ailed
Ġh auled
Ġh ij
Ġh urricanes
ion a
ion ed
le x
le z
le nd
le ad
le od
le ep
le ting
le ports
le hem
ĠT K
ĠT P
ĠT al
ĠT ou
ĠT il
ĠT ut
ĠT ran
ĠT able
ĠT ake
ĠT amp
ĠT ob
ĠT end
ĠT aj
ĠT ool
ĠT Ã©
ĠT rench
ĠT ah
ĠT anc
ĠT aken
ĠT omb
ĠT akes
ĠT rent
ĠT amb
ĠT ask
ĠT ara
ĠT rain
ĠT owers
ĠT aun
ĠT WA
ĠT isdale
ĠT esla
Ġre h
Ġre ac
Ġre ch
Ġre vel
Ġre use
Ġre iss
Ġre aff
Ġre aring
Ġre writ
Ġre char
Ġre working
Ġre pertory
Ġre hears
ent e
ent in
ent ment
il a
il ight
il ence
il ib
il ful
il iate
il ogy
ĠA h
ĠA j
ĠA u
ĠA im
ĠA us
ĠA ay
ĠA ru
ĠA ap
ĠA ub
ĠA by
ĠA bs
ĠA ires
ĠA TV
ĠA yal
ĠA HL
ĠA TRA
ĠA OC
ĠA rabs
ĠA aron
Ġth umb
Ġth ump
Ġth rows
Ġth wart
Ġth rust
Ġth reshold
Ġth orium
ĠS i
ĠS r
ĠS ter
ĠS ut
ĠS ard
ĠS ust
ĠS per
ĠS ult
ĠS ach
ĠS ins
ĠS ob
ĠS ank
ĠS alv
ĠS ides
ĠS ene
ĠS ves
ĠS ering
ĠS aves
ĠS ales
ĠS amb
ĠS ung
ĠS ounds
ĠS oph
ĠS ocr
ĠS eller
ĠS ils
ĠS aud
ĠS ources
ĠS udes
ĠS iÃ¨
ĠS olt
ĠS emitic
ĠS ource
ĠS ieg
ĠS anger
ĠS CU
ĠS UNY
ĠS fard
ĠS gt
ĠS zent
ĠS leep
el ong
el ance
el ae
el ope
ĠC J
ĠC in
ĠC ad
ĠC her
ĠC ut
ĠC and
ĠC oc
ĠC art
ĠC ame
ĠC oy
ĠC ities
ĠC alv
ĠC hel
ĠC ots
ĠC alth
ĠC itiz
ĠC osm
ĠC ode
ĠC oul
ĠC ellular
ĠC oven
ĠC HA
ĠC alloway
ĠC annes
ĠC igarettes
ĠC inqu
ĠC etus
st ig
st rom
st op
st resses
st asy
st eps
st vÃ¡n
Ġl in
Ġl ent
Ġl est
Ġl os
Ġl um
Ġl av
Ġl ip
Ġl ame
Ġl ia
Ġl ure
Ġl ap
Ġl amp
Ġl az
Ġl ots
Ġl uk
Ġl Ã¨
Ġl ugg
Ġl aden
Ġl inger
Ġl ieutenants
om es
om pe
om aly
om yc
om pton
om orph
om atop
Ġe g
Ġe ch
Ġe ag
Ġe ased
Ġe ve
Ġe uro
Ġe ager
Ġe ternal
ct ure
ct urn
ct uated
Ġn em
Ġn ost
Ġn ice
Ġn ights
Ġn orther
Ġn asty
Ġn erves
Ġn uns
Ġn ails
Ġn uance
ad get
ad icated
ad la
ad uate
Ġwas t
Ġwas ting
ĠThe ater
ĠThe ft
ĠThe bes
ĠThe odore
ĠThe ba
am al
am ir
am ble
am lu
am orph
ol on
ol an
ol ated
ol erable
ĠI C
ĠI X
ĠI on
ĠI ver
ĠI ain
ĠI ss
ĠI ps
ĠI de
ĠI BN
ĠI ona
ĠI HL
ĠI stvÃ¡n
Ġbe qu
Ġbe amed
Ġbe hest
Ġbe arded
Ġbe ef
Ġon c
Ġon yx
Ġon omatop
ur k
ur ion
ur ian
ur ium
ur dy
ĠM J
ĠM K
ĠM ak
ĠM ie
ĠM are
ĠM old
ĠM ake
ĠM ick
ĠM uk
ĠM off
ĠM iao
ĠM ih
ĠM BE
ĠM iy
ĠM avis
ĠM obile
ĠM alta
ĠM eyer
ĠM amlu
ĠB L
ĠB g
ĠB or
ĠB le
ĠB ot
ĠB ak
ĠB ial
ĠB our
ĠB ear
ĠB ok
ĠB ren
ĠB olog
ĠB ier
ĠB oss
ĠB au
ĠB uch
ĠB ax
ĠB ene
ĠB rew
ĠB rick
ĠB antry
ĠB irth
ĠB udget
ĠB AF
ĠB ugs
ĠB onnie
Ġg y
Ġg er
Ġg ent
Ġg ay
Ġg um
Ġg ill
Ġg ru
Ġg ren
Ġg ale
Ġg au
Ġg ently
Ġg rie
Ġg ulf
Ġg rief
Ġg roc
Ġg unde
Ġg adget
id d
id o
id en
id os
id ine
id ious
id ase
id ae
id gian
Ġfor k
Ġfor ts
Ġfor gery
im en
im ir
im ates
im ming
im onial
iv ating
iv ided
ac s
ac if
ac ial
ac ru
ac cept
ac ellular
ac ombs
ac zynski
Ġas ym
Ġas cend
Ġas cribed
ir k
ir ra
ig ent
ig nt
ig ure
ig ars
ig raph
ig ator
ig ma
ig ye
ig onal
ot er
ot ations
ot hed
ter an
ter ase
ter mined
ith waite
ĠH E
ĠH Q
ĠH i
ĠH z
ĠH ut
ĠH ate
ĠH ave
ĠH ass
ĠH iz
ĠH ock
ĠH ake
ĠH ens
ĠH ollow
ĠH ern
ĠH air
ĠH ale
ĠH its
ĠH els
ĠH ault
ĠH itch
ĠH anes
ĠH eli
ĠH abs
ĠH utt
ĠH urricanes
ĠH BO
ĠH TML
ow age
her u
her ty
Ġst if
Ġst ard
Ġst ell
Ġst ap
Ġst ub
Ġst are
Ġst ance
Ġst ark
Ġst int
Ġst ake
Ġst ole
Ġst ains
Ġst ature
Ġst ressed
Ġst ems
Ġst aging
Ġst ocks
Ġst iff
Ġst eles
Ġst upa
Ġst aunch
Ġst yled
Ġst elae
Ġst owage
ut a
ut ives
ut ari
us hes
us ky
us aders
Ġwith stand
ay as
ay ud
ay ment
ce a
et on
et ed
ĠP S
ĠP ed
ĠP ul
ĠP ast
ĠP ure
ĠP ue
ĠP age
ĠP ok
ĠP ond
ĠP act
ĠP ound
ĠP oy
ĠP ang
ĠP aj
ĠP arn
ĠP ale
ĠP ony
ĠP au
ĠP ax
ĠP arl
ĠP ays
ĠP aken
ĠP uss
ĠP aper
ĠP ont
ĠP ills
ĠP unt
ĠP ipp
ĠP omer
ĠP anic
ĠP aired
ĠP uri
ĠP owers
ĠP yramid
ĠP ogues
ĠP GA
ĠP eps
ĠP ML
ĠP regn
ĠP onch
ĠP ompe
ĠR f
ĠR an
ĠR ing
ĠR ast
ĠR ok
ĠR are
ĠR iel
ĠR ank
ĠR ise
ĠR ah
ĠR ape
ĠR isk
ĠR ica
ĠR asc
ĠR agn
ĠR ode
ĠR isa
ĠR iley
ĠR enz
ĠR CE
ĠR atz
ĠR ukh
ĠR onnie
ĠR FC
ĠR SF
ĠR hea
ĠR alph
ĠR acial
ch ief
ch itis
ch witz
ul i
ul se
ul ence
ra h
ra v
ra ul
ra wn
ra int
ra ve
ra get
ra ving
ra zer
ĠF an
ĠF ro
ĠF ay
ĠF ew
ĠF ant
ĠF ell
ĠF ork
ĠF ry
ĠF int
ĠF ind
ĠF ert
ĠF lu
ĠF ries
ĠF aces
ĠF irth
ĠF ormal
ĠF reet
ĠF iles
ĠF ras
ĠF isher
ĠF oyle
ĠF ortunately
ĠF iggins
ĠF Ã¶r
ĠF iona
ĠF igure
ĠF razer
Ġwh ip
Ġwh ale
Ġwh isk
Ġwh iche
ĠW is
ĠW ak
ĠW ord
ĠW ine
ĠW ish
ĠW ave
ĠW ings
ĠW ren
ĠW ins
ĠW end
ĠW aves
ĠW oo
ĠW inf
ĠW ands
ĠW eld
ĠW imal
ĠW onder
ĠW CS
ĠW annab
ĠW NW
ĠW irra
ĠG as
ĠG ut
ĠG if
ĠG ap
ĠG ilm
ĠG iven
ĠG ai
ĠG ats
ĠG ator
ĠG etic
ĠG ros
ĠG range
ĠG ils
ĠG ras
ĠG erry
ĠG rot
ĠG hos
ĠG oco
ĠG hetto
ĠG idd
Ġal der
Ġal ley
Ġal lev
Ġal che
Ġal arm
Ġal phabet
Ġal bic
em n
em us
em ate
em ani
em inated
th a
th rit
th ia
th ouse
and um
and ong
and enong
Ġcon ced
Ġcon ning
Ġcon iferous
ĠN a
ĠN c
ĠN u
ĠN in
ĠN ut
ĠN ord
ĠN one
ĠN itt
ĠN ames
ĠN aj
ĠN ep
ĠN ek
ĠN ah
ĠN oted
ĠN inet
ĠN aked
ĠN intend
ĠN ME
ĠN vidia
ĠN esmith
ĠL ion
ĠL ay
ĠL av
ĠL ies
ĠL our
ĠL ia
ĠL land
ĠL own
ĠL ect
ĠL oy
ĠL one
ĠL ions
ĠL ind
ĠL ily
ĠL az
ĠL ull
ĠL oss
ĠL ights
ĠL ining
ĠL omb
ĠL off
ĠL uan
ĠL ibr
ĠL yme
ĠL ifest
ĠL ocation
ĠL iang
ĠL ela
ĠL ED
ĠL lew
ĠL ieutenants
ĠL SE
ĠL edger
ĠL ocations
ĠL isbon
Ġan x
Ġan ion
Ġan archy
Ġan xi
Ġan omaly
est Ã©
Ġat he
Ġat op
os l
os in
os le
os ers
os ity
os ov
os ke
os ÃŃ
os opher
os iya
ĠD D
ĠD J
ĠD M
ĠD in
ĠD al
ĠD ion
ĠD il
ĠD ul
ĠD art
ĠD ame
ĠD ear
ĠD over
ĠD ix
ĠD ict
ĠD ob
ĠD aw
ĠD ick
ĠD read
ĠD ays
ĠD ik
ĠD uk
ĠD ressed
ĠD ani
ĠD ocks
ĠD iction
ĠD erry
ĠD atab
ĠD agen
ĠD olph
ĠD oming
ĠD iana
ĠD iocese
ĠD rake
ĠD anson
ĠD enne
ĠD iagn
ĠD rex
ĠD irk
ĠD andenong
um er
um ere
um ib
um ann
rom b
rom pt
ĠJ op
ĠJ ock
ĠJ ob
ĠJ ude
ĠJ Ã¶n
ĠJ aved
ĠJ aki
ĠJ onny
ĠJ asmine
ĠJ aane
Ġhe wn
Ġhe ka
Ġhe patitis
ag i
ag her
ag ew
ag enesis
ag hett
ag uru
ist a
ist an
ist as
ist ries
unk y
av or
av ius
av aca
Ġde fer
Ġde fore
Ġde lete
Ġde ported
Ġde eming
Ġde xter
od i
od ys
Ġpro d
Ġpro ud
Ġpro stit
Ġpro stitute
Ġpro sc
Ġpro jection
Ġpro stitution
Ġpro karyotes
ain ted
Ġse al
Ġse ab
Ġse aled
Ġse izing
Ġse lections
Ġse pulch
pe z
pe utic
ri um
ri qu
ri age
ri ke
ri ans
ri ug
ĠE y
ĠE on
ĠE ust
ĠE ff
ĠE man
ĠE ting
ĠE gon
ĠE urop
ĠE isner
ĠE BU
ĠE riug
ort s
ort als
Ġcom a
Ġcom rades
ill us
ill ard
ill ator
ill usion
ĠO d
ĠO u
ĠO th
ĠO ri
ĠO pp
ĠO uth
ĠO uter
ĠO bed
ĠO EC
ĠO mn
ĠO BE
ĠO kl
ĠO ptical
ĠO DOT
ĠO asis
Ġsu cc
Ġsu ck
Ġsu ites
Ġsu itor
res y
if ice
if ace
if ics
if iers
if ference
oc ide
oc ene
oc occ
Ġv end
Ġv ying
Ġv agu
Ġv inyl
ĠIn te
ĠIn ner
ĠIn hal
ĠIn Sty
op ers
op ian
op rol
ew ed
ew all
ew ood
ew orth
ew ives
ew arm
ich ia
igh te
ld ogs
Ġor th
Ġor ally
Ġor ph
Ġor acle
ore al
ore st
ore nce
Ġex port
Ġex ited
Ġex ert
Ġex pend
Ġex ports
Ġex erted
Ġex ceeded
Ġex clusion
Ġex uded
Ġex ternal
Ġex alted
ak h
ak y
ak mul
ant ed
ant ically
gh is
gh an
gh ash
Ġsh y
Ġsh ag
Ġsh ov
Ġsh ack
Ġsh ark
Ġsh orth
Ġsh aking
Ġsh atter
Ġsh aken
Ġsh akes
Ġsh oring
Ġsh outing
Ġch in
Ġch im
Ġch op
Ġch ant
Ġch ick
Ġch ords
Ġch asing
Ġch imp
ong ated
Ġr er
Ġr ings
Ġr ash
Ġr ides
Ġr ude
Ġr uff
Ġr amps
Ġr pm
Ġr arer
Ġr ationing
Ġr ighte
ab al
ab ad
ab ul
ab ane
art e
art ed
art hed
art rain
art ee
qu it
qu il
qu ir
qu est
qu ishing
pt a
pt is
pt itude
se e
se ek
ard ino
ip ling
ip sis
ber ra
ud ing
ud os
ud abil
ud lian
ess ant
ess ive
Ġpl ent
Ġpl ac
Ġpl ag
Ġpl ied
Ġpl under
ĠU h
ĠU t
ĠU pr
ĠU ÃŃ
ĠU DOT
ment ation
ment ioned
ast al
ast opol
rit ical
red ict
ive y
te au
ov a
ov an
ov able
ov olt
ĠK on
ĠK ot
ĠK ay
ĠK ell
ĠK ary
ĠK ry
ĠK ubl
ĠK ang
ĠK ilm
ĠK ath
ĠK arn
ĠK rie
ĠK erg
ĠK emble
ĠK HO
ĠK err
ĠK uo
ĠK ahan
ĠK essel
ĠK igye
ĠK ipling
pp ers
pp elin
ack ing
ame in
ian i
ian o
ell ini
ge an
ge ons
ine e
ine z
ine ken
our ished
Ġu ter
Ġle v
Ġle ather
Ġle mon
Ġle aning
Ġle verage
Ġle thal
ish ly
Ġar ise
Ġar yl
Ġar bit
Ġar thrit
ight ly
Ġk J
Ġk ar
Ġk as
Ġk uh
Ġk oala
ru ple
ru sted
Ġnot ched
Ġnot orious
ĠSt ack
ĠSt ace
ĠSt ral
ĠSt rans
ĠSt rang
ĠSt ability
ĠSt uka
ĠSt adium
ĠSt orrington
ia h
ia pas
ĠCh at
ĠCh an
ĠCh ast
ĠCh ile
ĠCh ang
ĠCh Ã©
ĠCh amb
ĠCh aval
ĠCh anged
ĠCh icks
ĠCh Ã¢
ĠCh ickens
ĠCh itam
ĠCh iapas
ost erous
ost ela
cl ass
Ġun in
Ġun man
Ġun orth
Ġun iqu
Ġun co
Ġun aff
Ġun iting
Ġun inf
Ġun ification
Ġun ifying
Ġun real
Ġun bro
Ġun equ
Ġun married
Ġun marked
Ġun accept
og a
og ishvara
og Ã¢ne
Ġy ard
Ġy og
Ġy acht
ap arte
ide an
ran i
Ġ20 3
Ġ20 4
Ġ20 8
ub a
ub is
ub im
ub oy
ub ilee
ĠV ent
ĠV ul
ĠV ere
ĠV amp
ĠV end
ĠV ick
ĠV ince
ĠV ale
ĠV ene
ĠV ino
ĠV ille
ĠV ogue
ĠV ernon
ĠV III
ĠV essel
ĠV incent
ff y
ff er
ire e
ire cted
own ess
ie h
ie ft
Ġint ro
Ġint ric
Ġint ake
Ġint entions
Ġint olerable
ign antly
per ing
per iol
per formed
Ġcl ue
Ġcl own
Ġcl ans
Ġcl ause
Ġcl utch
Ġcl arity
Ġcl ums
Ġcl othed
Ġab st
Ġab uses
Ġab bot
Ġab usive
Ġab ridged
Ġab laz
Ġab rasion
Ġcont empl
Ġcont racted
Ġwhe at
ass in
ass es
ass ic
ass ion
ass ical
pl ess
pl astic
Ġbut ter
Ġbut yl
ult ure
du ct
du ke
du ctor
Ġad oles
Ġad verts
Ġper ce
Ġper ished
Ġper pend
Ġper amb
Ġper mits
Ġper version
Ġres ide
Ġres ents
Ġres ale
Ġres isted
Ġres idence
Ġres olves
Ġres upp
Ġres entment
ĠHe y
ĠHe ath
ĠHe ather
ĠHe ctor
ĠHe inkel
ĠHe jda
ĠHe inrich
ĠHe ineken
ect ure
Ġtwo fold
ond ition
ond erry
ond ieh
Ġen ric
Ġen velop
Ġen ables
Ġen raged
Ġen nead
Ġen joys
ime ters
Ġcomp ly
Ġcomp act
Ġcomp ose
Ġcomp elling
Ġcomp ounded
Ġcomp ilations
Ġcomp assion
hed uling
Ġ201 9
ĠTh orn
ĠTh under
Ġrec k
Ġrec u
Ġrec on
Ġrec all
Ġrec onn
Ġdis ple
Ġdis like
Ġdis asters
Ġdis orders
Ġdis ruption
Ġdis armed
Ġdis loyal
Ġdis illusion
Ġfirst s
ĠRe y
ĠRe ad
ĠRe id
ĠRe ally
ĠRe iss
ĠRe yn
ĠRe ality
ĠRe asons
ĠRe ference
ĠRe actions
ĠRe illy
ĠRe ported
ĠRe ader
ĠRe itel
Ġoff load
mer idgian
ric ide
ric ycle
ric ola
Ġser um
Ġser pent
Ġser pents
ĠAl ive
ĠAl ps
ĠAl ask
ĠAl ÃŃ
ĠAl most
ĠAl ways
ĠAl ready
ĠAl vin
ĠAl aska
ĠAl adin
ĠAl phabet
ĠAl lowing
ĠAl amein
Ġdes erves
Ġdes ktop
Ġdes perately
ely n
ite ur
ib al
ib ald
ĠY ug
ĠY uan
ĠY ellow
ĠY ester
ĠY onk
ĠY alta
ĠY MCA
ĠY ogishvara
Ġte ens
Ġte eth
Ġte leports
Ġpart nered
ach os
ach uting
clud ed
iz z
iz on
iz al
iz ong
iz ations
iz able
iz ini
Ġman ic
Ġplay back
Ġplay through
Ġj unk
Ġj ug
Ġj ockey
Ġj okes
Ġj oked
Ġj ersey
Ġj ailed
Ġj acket
Ġro ster
Ġro omm
Ġro bb
Ġro aming
Ġro asting
Ġro lled
Ġro oft
Ġim b
Ġim it
Ġim per
Ġim perial
are l
are v
are th
oy er
Ġover d
Ġover ly
Ġover land
Ġover ste
Ġover arch
Ġover passes
Ġover crow
Ġover grown
ke es
ke ep
Ġpre em
Ġpre view
Ġpre hist
Ġpre text
Ġpre occup
Ġpre liminary
Ġpre stig
Ġspe eding
Ġcomm a
Ġcomm od
Ġcomm itting
ĠUn off
ĠUn beknownst
ĠUn fortunately
Ġup hold
Ġup heav
Ġsc y
Ġsc int
Ġsc rib
Ġout work
Ġout rage
Ġout reach
Ġout patient
Ġout performed
ons i
ang s
ang ible
Ġsp are
Ġsp ared
Ġsp ills
Ġsp anned
Ġsp raying
Ġsp outing
Ġsp ikes
Ġsp atial
ph in
ph ae
ph rase
les by
ĠSe nd
ĠSe aw
ĠSe par
ĠSe lected
ĠSe ems
ĠSe Ã¡n
ĠSe aman
ĠSe awall
ĠSe bast
ĠSe khmet
ace y
ace ae
ace ption
tern ally
ose lective
Ġne on
Ġne ared
Ġne olithic
Ġrem ake
Ġrem emb
Ġrem edy
Ġrem inded
Ġatt ribution
Ġatt itudes
Ġatt achment
ft ed
ft waff
Ġwork ings
Ġwork place
Ġwork station
we gian
Ġmore ls
Ġall oy
Ġall ied
Ġall udes
Ġthem atically
ail le
ind le
ind ers
ind led
reat ment
Ġrel ic
Ġrel ax
Ġrel ented
Ġrel ocate
Ġrel iability
Ġrel inqu
ĠBrit ons
ĠBrit ann
gan za
ens ch
ens able
ens wear
Ġcons picuous
Ġcons onants
ĠZ ong
ĠZ one
ĠZ ane
ĠZ ero
ĠZ ander
ĠZ oor
ron gh
ve es
ĠOn cology
rib utor
ix ion
ĠAr rows
ĠAr iga
ĠAr ctic
att o
att s
att ened
Ġunder p
Ġunder est
Ġunder way
Ġunder ton
Ġunder gr
Ġunder neath
Ġunder mined
hip man
Ġear nest
Ġship ment
Ġship yards
Ġbet a
Ġbet raying
ĠDe e
ĠDe ities
ĠDe termined
Ġsec reted
Ġchar ters
Ġchar ming
itt aker
iss ariat
ved ere
Ġbo ots
Ġbo oty
Ġcan e
Ġcan s
Ġcan ned
Ġass im
Ġass et
Ġass ures
Ġass umes
Ġ6 82
ict ing
Ġme ter
Ġme ga
ĠCom ed
ĠCom par
ĠCom cast
ĠCom fort
ĠCom menting
Ġkn it
Ġkn ot
Ġpe ac
Ġpe pt
ins ell
ins ically
ins ki
Ġcent res
Ġnum er
Ġnum bness
Ġspec ulative
Ġwe e
Ġwe ary
Ġwe aker
olog ue
ss on
Ġinc ense
Ġinc ontin
Ġinc essant
Ġbu zz
Ġbu yer
Ġfl or
Ġfl ames
Ġfl ared
Ġfl aps
Ġfl aws
Ġfl ora
Ġfl ourished
Ġfl attened
ath ize
Ġpos ing
Ġpos itron
Ġco ag
Ġco ining
Ġco iff
Ġco aches
Ġco arse
Ġco efficient
Ġreg ain
Ġreg roup
Ġreg imes
Ġreg ga
Ġreg ulate
Ġreg imens
Ġend ings
Ġact in
ove y
Ġam use
Ġam ides
Ġam using
Ġam ended
Ġam put
Ġair ship
Ġair crew
Ġsub c
Ġsub urban
Ġsub mers
Ġinter ference
Ġinter rupt
Ġinter city
Ġinter mitt
Ġalbum in
Ġac orn
Ġac ropolis
owe en
Ġra ke
Ġra ises
Ġra bb
Ġret al
Ġret ic
Ġret ake
Ġret rie
Ġret ino
Ġret ells
ĠMar j
ĠMar ian
ĠMar ried
ĠMar ÃŃa
ĠMar athi
ck ing
ck ett
Ġlater al
Ġtr im
Ġtr ac
Ġtr ash
Ġtr aced
Ġtr igg
Ġtr unc
Ġtr igonal
Ġqu int
Ġqu ail
Ġqu itting
Ġqu een
Ġqu arant
Ġqu arry
Ġqu atern
Ġqu inine
Ġqu ipped
ĠNew grange
Ġsupp ose
Ġsupp lying
Ġapp lying
Ġapp alling
Ġapp aratus
Ġapp arel
ener y
Ġver ify
Ġcol oring
Ġcol ocal
Ġcol onies
Ġcol onel
ĠSh ou
ĠSh ut
ĠSh um
ĠSh ould
ĠSh ank
ĠSh ane
ĠSh ah
ĠSh rew
ĠSh ula
ĠSh adow
ĠSh anxi
ĠSh reve
ĠSh andong
Ġpo ets
Ġpo orest
ĠShe p
ĠShe arn
ĠShe nz
Ġdo o
Ġdo ctrine
ĠJo el
ĠJo anna
ĠJo aqu
ĠJo inville
az l
az ing
az io
Ġca useway
Ġsur passes
Ġsur mised
ĠLe a
ĠLe nder
ĠLe opard
ĠLe anne
ĠLe Bron
ĠLe eds
ĠLe ptis
Ġsome how
Ġso fter
ject ors
Ġacc ents
Ġacc urate
Ġacc olades
Ġind isc
Ġind ec
Ġind ications
Ġind isp
Ġind ifferent
Ġind ifference
Ġind ignantly
Ġrecord ers
ten ey
ten kap
Ġpol yn
Ġmain st
Ġmain line
Ġap ost
Ġap ron
Ġsy ll
Ġinv ites
Ġinv itation
Ġinv oked
Ġinv incible
Ġinv alid
Ġinv asions
ĠAt tend
ĠAt hens
ĠAt kinson
ern ess
ern sey
ern avaca
Ġpop py
Ġent ity
Ġent ities
Ġent ourage
Ġent rusted
hes es
ars on
Ġloc ate
Ġloc ates
Ġloc ating
ĠAs rani
ĠGerman ization
Ġbl essed
Ġbl asp
Ġbl uish
ink a
ink i
ink er
Ġmon st
Ġmon aster
Ġmon omer
Ġmon ologue
ĠWh arf
ĠWh ittaker
Ġdire ctions
arn ation
Ġtra iling
Ġtra verse
Ġpr aying
Ġpr inters
Ġpr atens
ĠBl air
ĠBl aming
ĠBl anch
Ġdef ied
Ġdef aced
Ġdef iance
Ġdef ects
cept ions
iel berg
Ġrep ly
Ġrep ris
Ġrep uls
Ġrep aration
Ġrep ayment
Ġrep artee
hn a
hn ik
Ġ12 8
Ġop ener
Ġop iate
Ġdec im
Ġtrans it
Ġtrans ited
Ġtrans itions
Ġtrans ports
Ġtrans duction
Ġtrans cription
Ġtrans pond
Ġtrans cript
Ġtrans atlantic
ĠAn im
ĠAn us
ĠAn ime
ĠAn sons
ĠAn ubis
ĠInd ra
Ġmil estone
Ġ10 1
Ġ10 15
Ġno ises
Ġmet ropolis
Ġmet atars
Ġmet amorph
Ġpres ided
Ġpres crib
Ġpres erves
Ġpres umption
Ġpres cribed
Ġpres erver
row ed
ĠJohn ston
ĠJohn stone
ĠJohn nie
Ġcre sted
Ġfam ed
Ġappe ase
Ġem ail
Ġem br
Ġem inent
Ġem power
Ġem igrants
Ġem igrated
Ġprote ctor
Ġprote ctions
ĠCon an
ĠCon ception
ĠCon rad
ĠCon voy
ĠCon quest
Ġlong s
Ġlong standing
ident ally
Ġob struction
Ġob edience
Ġob jections
Ġob ituary
ĠMay fair
Ġinst igator
Ġoffic iating
Ġgovern s
Ġgovern ess
Ġgovern ors
Ġstud ded
ĠMan co
vent ional
Ġcrit ique
Ġcrit erion
ĠCl ar
ĠCl im
ĠCl if
ĠCl osed
ĠCl iff
ĠCl aud
ĠCl erks
Ġoper atives
Ġdisc red
Ġdisc onc
Ġdisc reet
Ġdisc rep
ĠComm issioned
its u
ĠIs la
ĠIs ca
ĠIs uz
Ġbro thel
Ġsm ear
Ġsm arter
Ġsm oked
Ġsm othered
Ġwar ming
Ġwar heads
Ġarm ory
Ġarm aments
Ġcount s
Ġcount ed
Ġprov es
Ġprov ing
Ġprov iders
Ġprov oked
Ġprov oking
Ġsign ify
Ġimp ed
Ġimp ass
Ġimp ress
Ġimp ose
Ġimp urities
Ġimp ulsive
Ġimp ulse
Ġimp rompt
rop athy
ĠAd olf
ĠAd vis
ĠAd ieu
Ġcontin ent
Ġcontin ual
ram atic
Ġset backs
Ġhist idine
Ġexp ound
Ġexp ense
Ġexp iring
Ġexp ands
Ġexp ressive
Ġexp enses
Ġexp osures
Ġcar b
Ġcar pent
Ġcar icature
Ġcar idean
ĠMe g
ĠMe gan
ĠMe gal
ĠMe adows
ĠMe ghan
Ġshow biz
Ġshow cased
Ġdam s
oun ce
oun ge
Ġdep ot
Ġdep osition
Ġdep rec
Ġdep rived
Ġmill ennium
Ġfeat hered
Ġdist illed
Ġdist orted
io xid
ĠCan berra
Ġeff iciency
ĠAll ah
ĠAll iance
Ġrece ipt
Ġconst able
Ġconst rain
Ġback ward
Ġback wards
Ġgame bird
ĠWar wick
Ġinf est
Ġinf ant
Ġinf ect
Ġinf ested
Ġinf ections
Ġdest ined
Ġdest iny
Ġdest inations
Ġart isan
Ġ17 82
Ġmin er
Ġmin el
Ġmin us
Ġmin istries
Ġnear field
Ġsuccess es
Ġarch bishop
Ġgr id
Ġdesign ers
get own
get able
Ġbatt ing
Ġbatt ling
ĠGe aster
Ġgun fight
ĠPro ven
oss a
Ġsl ot
Ġsl ain
Ġsl ack
Ġsl aying
Ġsl ices
Ġsl ipping
Ġ13 1
Ġ13 3
Ġunt ested
Ġunt ruth
au ke
Ġeng ages
Ġ11 00
Ġpartic le
Ġant ique
Ġant ioxid
ĠJan ensch
Ġclass ed
Ġadv ises
Ġadv iser
Ġadv ocating
gest ing
gest one
Ġsix ties
Ġsix teenth
Ġhum p
Ġhum id
Ġhum orous
ĠBe g
ĠBe er
ĠBe es
ĠBe ale
ĠBe eth
ĠBe zir
ĠBe ndera
Ġdiv er
Ġdiv ides
Ġdiv orces
ĠII FA
ped ed
Ġserv ic
Ġserv ants
Ġserv iced
Ġph ased
Ġmar vel
Ġmar itime
ution ary
ĠFor ward
ĠFor ster
ĠFor gotten
ission ing
pr ing
pr ises
Ġcast s
Ġhel med
Ġhel ium
Ġhel pless
ook er
uch s
Ġty ros
Ġcare ers
Ġcare ful
Ġins ist
Ġins ight
Ġins pected
Ġins erted
Ġins ulting
Ġ15 6
Ġ15 7
Ġ15 00
Ġ15 82
uro us
Ġconc essions
Ġext ort
Ġext rap
Ġext ras
Ġext rac
Ġattack ers
Ġmen acing
Ġrest oring
Ġrest rained
Ġrest raint
ĠSc ar
ĠSc op
ĠSc out
ĠSc atter
ĠSc ream
ĠSc andal
ĠSc utari
ĠSc ardino
ĠSc heduling
ĠPr ide
ĠPr aying
ĠPr ayer
ĠPr ades
ĠPr imate
ĠPr imet
ĠPr ussian
ĠPr asad
enn es
omin ium
ĠChrist ina
ĠChrist oph
ah i
ah l
ah oma
ĠEng ines
ĠEng aged
Ġpass port
Ġpass agew
Ġstr ung
Ġstr uts
Ġstory teller
Ġposition al
Ġdown wards
Ġdown fall
Ġdown stream
Ġref rain
Ġref inery
Ġref iner
Ġref ocused
ĠIr ving
Ġexpl or
Ġexpl ored
Ġche ers
Ġche ap
Ġche ats
Ġche wing
Ġche stn
Ġche erle
Ġbr ide
Ġbr ink
Ġbr ides
Ġbr unt
ĠOr l
Ġresp ite
anc er
anc ial
empt s
ĠUS NS
ĠQ at
ĠQ iu
xt rot
Ġhead less
Ġhead lining
ĠIrish ness
Ġschool boy
Ġfin er
Ġfin ing
Ġfin ances
Ġmod e
Ġmod elling
Ġmod ules
Ġmod ifications
Ġ16 1
Ġ16 2
Ġ16 3
Ġ16 5
Ġ16 84
Ġprev ents
Ġprev ails
Ġed ibility
Ġed ifice
ĠKing stown
[...]
